the 7845
and 4332
to 4219
of 4077
in 2289
that 1845
a 1810
you 1730
he 1717
is 1681
I 1355
who 1271
they 1160
for 1155
was 1045
be 1031
with 1025
his 984
will 917
are 854
not 810
it 796
as 780
by 729
from 720
him 698
have 683
but 678
which 618
all 615
on 612
were 590
But 558
He 558
we 554
For 550
him, 539
your 530
had 523
The 507
one 496
this 489
said 473
their 470
them 450
Jesus 416
my 409
those 396
when 392
at 389
has 373
also 369
When 361
no 354
them, 349
if 349
into 341
said, 337
out 321
or 312
God 306
you, 305
They 304
things 304
do 301
our 298
came 293
man 290
these 274
what 269
there 268
may 255
an 252
up 233
him. 232
us 231
so 230
me 224
' 217
been 217
made 215
know 210
come 206
went 204
? 204
because 203
don't 195
Part 193
. 192
should 188
even 186
good 186
would 184
through 184
God, 183
about 182
Lord 181
saying, 175
You 170
Christ 167
many 167
being 163
whom 162
If 162
against 161
And 160
un@@ 159
Now 157
after 157
'@@ 157
great 154
you. 153
might 152
let 151
sent 149
more 149
men 148
before 148
own 148
son 148
like 147
now 146
! 145
saw 143
than 141
called 140
her 140
, 140
then 140
S@@ 138
them. 137
am 136
any 135
Then 134
therefore 132
heard 132
tell 132
In 132
It 131
didn't 130
among 130
me, 128
she 127
s. 126
it, 124
God. 124
having 124
some 121
see 120
This 118
Lord, 118
What 118
give 116
me. 116
shall 116
how 115
took 115
same 114
over 113
asked 113
s, 113
us, 112
A@@ 111
did 110
Therefore 109
away 108
make 107
day 107
put 106
Don't 105
first 103
two 102
nor 102
go 102
As 101
other 99
down 99
himself 98
found 98
such 97
O@@ 97
where 97
ed, 96
So 96
this, 95
; 95
way 95
according 94
ed. 94
people 92
To 92
time 92
A 91
Christ, 91
gave 91
word 91
another 90
say 90
y. 89
take 89
love 89
without 89
given 88
very 87
it. 86
neither 86
ing, 85
every 85
disciples 84
Behold, 84
I@@ 84
P@@ 83
brought 83
its 83
in@@ 83
T@@ 82
We 81
E@@ 81
M@@ 81
(@@ 81
spoke 81
answered 80
Chorus 80
things, 79
yet 79
There 79
receive 78
speak 78
most 78
only 78
Let 77
much 76
both 76
Jesus, 75
must 75
: 74
Spirit 73
does 73
s 72
until 72
C@@ 72
es, 71
upon 71
Son 71
done 71
father 70
ing. 70
can 70
told 69
men, 69
us. 68
each 68
become 68
) 68
under 68
glory 66
's 66
certain 65
-@@ 65
received 64
while 64
Father 64
doesn't 64
es. 63
t@@ 63
y, 63
three 62
able 62
evil 62
G@@ 62
woman 62
house 62
power 61
became 61
set 61
a, 61
L@@ 61
left 60
days 60
Why 60
comes 59
H@@ 59
name 59
After 59
faith 59
place 59
out, 59
city 58
body 58
little 58
law 58
together 58
though 58
on, 57
brothers, 57
day, 57
believe 57
words 57
say, 57
hear 57
re@@ 56
again 56
Kingdom 56
es 55
All 55
1@@ 55
R@@ 55
man, 55
d@@ 54
Chapter 54
nothing 54
i@@ 54
up, 54
er 54
ing 53
life 53
Peter 53
US 53
then, 53
John 53
e, 53
2@@ 52
Christ. 52
B@@ 52
whatever 52
began 52
multitude 51
whole 51
themselves 51
OF 51
never 51
faith, 51
her, 50
want 50
Holy 50
answered, 50
high 50
4@@ 50
children 49
e@@ 49
concerning 49
thing 49
3@@ 49
coming 48
bring 48
fell 48
works 48
al@@ 48
saying 48
seen 48
old 48
live 48
long 48
e. 48
whose 47
U@@ 47
How 47
right 47
anyone 47
could 47
Where 46
rather 46
li@@ 46
end 46
think 46
back 46
g@@ 46
things. 46
law, 46
part 46
er@@ 46
laid 45
king 45
near 45
taken 45
stood 44
e 44
5@@ 44
known 44
Lord. 44
seek 44
p@@ 43
s; 43
y@@ 43
ation 43
chief 43
These 43
th@@ 43
there, 43
t. 43
ed 43
t, 43
knowing 42
My 42
Athenians 42
le@@ 42
entered 42
Who 42
send 42
therefore, 42
indeed 42
away, 42
sat 42
By 42
er, 42
enter 42
en@@ 42
you? 42
all, 42
keep 42
desire 42
that, 41
one, 41
grace 41
His 41
ate 41
twelve 41
himself, 41
ers, 41
men. 41
a@@ 41
s? 41
land 41
hand 41
hands 41
N@@ 41
Jews 41
d. 41
rest 41
whether 41
toward 40
all. 40
someone 40
why 40
C. 40
led 40
used 40
still 40
disciples, 40
off 40
as, 40
Do 40
blood 40
another, 40
spoken 39
B. 39
Jesus. 39
dead, 39
or@@ 39
once 39
always 39
Father, 39
raised 38
ought 38
D@@ 38
immediately 38
followed 38
need 38
THE 38
world 38
flesh 38
c@@ 38
Most 38
cast 38
going 38
find 37
death 37
is, 37
ri@@ 37
hope 37
eternal 37
y 37
God's 37
just 37
u@@ 37
seeing 36
full 36
around 36
it@@ 36
get 36
world, 36
living 36
priests 36
come, 36
s@@ 36
here 36
AR@@ 36
di@@ 36
filled 36
sea 35
ar@@ 35
ly 35
ly. 35
came, 35
sons 35
in, 35
TH@@ 35
ask 35
Or 35
delivered 34
third 34
best 34
Paul 34
everyone 34
brother 34
life. 34
servant 34
eat 34
v@@ 34
holy 34
be@@ 34
can't 34
W@@ 34
dead 34
forth 34
o@@ 34
bo@@ 34
four 33
happened 33
commanded 33
One 33
anything 33
Pharisees 33
away. 33
war 33
cause 33
hundred 33
brothers 33
On 33
assuredly 33
f@@ 33
better 33
r@@ 33
0 33
cried 33
call 33
Are 33
At 33
peace 33
work 33
heart 32
new 32
angel 32
again, 32
Yes, 32
righteous 32
gospel 32
d, 32
says 32
whoever 32
me? 32
kept 32
flesh, 32
O 32
five 31
man. 31
F@@ 31
present 31
yourselves 31
ed; 31
st@@ 31
ts 31
far 31
night 31
sins 31
b@@ 31
Y@@ 31
written, 31
seven 31
Of 31
priest 31
mother 31
hold 31
also, 31
written 31
d? 31
way. 31
do@@ 31
revealed 30
de@@ 30
as@@ 30
greater 30
dis@@ 30
follow 30
fear 30
an, 30
except 30
write 30
less 30
ER@@ 30
ro@@ 30
life, 30
sought 30
women 30
sa@@ 30
looking 29
Those 29
im@@ 29
eyes 29
house. 29
ti@@ 29
Because 29
sp@@ 29
w@@ 29
m@@ 29
ers 29
Immediately 29
Be 29
death. 29
also. 29
Paul, 29
n@@ 29
ON 29
order 29
friends 29
temple 29
6@@ 29
voice 29
free 29
se@@ 29
says, 29
Blessed 29
Even 29
kill 28
ly, 28
Moses 28
Pilate 28
ated 28
way, 28
believed 28
body, 28
ac@@ 28
others 28
6 28
either 28
ous 28
born 28
Jerusalem, 28
time, 28
on. 28
walk 28
command 28
gathered 28
leave 28
l@@ 28
That 28
ent, 27
well 27
days, 27
die 27
turn 27
show 27
earth 27
se. 27
state 27
bad 27
spirit 27
ever 27
returned 27
children, 27
death, 27
e; 27
one. 27
baptized 27
already 27
si@@ 27
doing 27
there. 27
an@@ 27
themselves, 27
worthy 27
since 27
IUS 27
between 27
Being 27
ent. 27
s! 26
water 26
king, 26
lord 26
authority 26
together, 26
people, 26
From 26
es@@ 26
world. 26
fore@@ 26
el@@ 26
Man 26
ses 26
persons 26
Having 26
Not 26
heart, 26
righteousness 26
Mary 26
pre@@ 26
sin 26
sold 26
gone 26
h@@ 26
lay 26
heaven, 26
city, 26
ting 25
Such 25
remember 25
'I 25
army 25
up@@ 25
judge 25
er. 25
honor 25
Gentiles 25
t 25
reason 25
hand. 25
years 25
She 25
for@@ 25
word, 25
ch@@ 25
answer 25
thousand 25
person 25
assembly 25
en, 25
joy 25
TI@@ 25
Your 25
resurrection 25
do, 25
truth. 25
um 25
well. 24
led, 24
7@@ 24
thought 24
es; 24
stand 24
Simon 24
earth, 24
at@@ 24
k@@ 24
ul@@ 24
ab@@ 24
taking 24
Tom 24
God; 24
day. 24
bear 24
sea, 24
young 24
child 24
wise 24
hour 24
knew 24
truth 24
y; 24
le 24
temple, 24
unless 24
Brutus 24
With 24
her. 24
times 24
k. 23
soldiers 23
ness, 23
ate, 23
testimony 23
something 23
Amen. 23
ol@@ 23
pro@@ 23
Jerusalem 23
preached 23
ation, 23
righteousness, 23
second 23
K@@ 23
3 23
Spirit. 23
testify 23
hearts 23
read 23
voice, 23
cut 23
got 23
Go 23
light 23
wisdom 23
Spirit, 23
d; 23
y? 23
scribes 23
killed 23
hand, 23
op@@ 23
case 23
Whoever 23
King 23
kind 23
beginning 23
am@@ 22
the@@ 22
gi@@ 22
em@@ 22
pass 22
ct@@ 22
during 22
Lacedaemonians 22
ON@@ 22
Galilee, 22
ation. 22
first, 22
Sabbath 22
ent@@ 22
stone 22
J@@ 22
truth, 22
sexual 22
dead. 22
AND 22
0@@ 22
know, 22
arose 22
it; 22
suffer 22
an. 22
ha@@ 22
exceedingly 22
next 22
last 22
Greet 22
come. 22
face 22
use 22
n, 22
longer 22
thus 22
you; 22
head 22
trust 22
wife 22
co@@ 22
giving 22
food 22
Greeks 21
over@@ 21
happened, 21
2 21
turned 21
fruit 21
blasphem@@ 21
lest 21
sight 21
ci@@ 21
isn't 21
subject 21
Son, 21
se, 21
S 21
open 21
e? 21
beloved 21
blind 21
'You 21
faithful 21
however, 21
ten 21
fully 21
deliver 21
sed, 21
begged 21
ships 21
house, 21
won't 21
bound 21
se 21
bad. 21
up. 21
servants 21
save 21
no@@ 21
loud 21
Spartans 21
PART 21
few 21
judgment 21
named 21
ds 21
along 21
Christ@@ 21
angels 20
con@@ 20
charge 20
gives 20
However, 20
m 20
look 20
elders 20
Teacher, 20
he@@ 20
ad@@ 20
signs 20
ra@@ 20
opened 20
work@@ 20
prophets 20
again. 20
blessed 20
false 20
mo@@ 20
standing 20
Jews, 20
hearing 20
ele@@ 20
preach 20
making 20
stay 20
John, 20
ness. 20
within 20
l 20
small 20
per@@ 20
ed? 20
wa@@ 20
Some 20
Amphitryon 20
om@@ 20
means 20
Every 20
il@@ 20
a. 20
father, 20
s: 20
behold, 19
speaking 19
heaven 19
cases 19
earth. 19
more, 19
seed 19
5 19
appointed 19
son, 19
down, 19
ca@@ 19
lo@@ 19
promise 19
passed 19
yourself 19
mouth 19
so, 19
fellow 19
s' 19
multitudes 19
spirit, 19
Christ; 19
sake, 19
now, 19
No 19
died 19
commandment 19
ction, 19
enemy 19
sed. 19
men@@ 19
gods 19
another. 19
8 19
temp@@ 19
taught 19
prophet 19
le, 19
crucified 19
following 19
al, 19
wife, 19
wrote 19
or. 19
night, 19
country. 18
7 18
ter@@ 18
ourselves 18
takes 18
IS@@ 18
inquired 18
wish 18
soon 18
peace, 18
me; 18
ity. 18
fulfilled 18
IDAS 18
ur@@ 18
mother, 18
healed 18
rich 18
sailed 18
ship 18
him; 18
remains 18
held 18
believes 18
), 18
LE@@ 18
ding 18
May 18
out@@ 18
broken 18
battle 18
Al@@ 18
man@@ 18
love, 18
ph@@ 18
I, 18
threw 18
min@@ 18
ap@@ 18
escape 18
suffer@@ 18
he, 18
well, 18
none 18
lab@@ 18
calling 18
looked 18
words, 18
st, 18
city. 18
Is 18
While 17
Zeus 17
mighty 17
lives 17
sion 17
al 17
side 17
touched 17
receives 17
Father. 17
and, 17
age, 17
sacrifice 17
commit 17
sin, 17
i 17
hear, 17
done, 17
Abraham 17
ans. 17
X@@ 17
(c. 17
circumcision 17
tru@@ 17
power, 17
Yet 17
on@@ 17
4 17
saved 17
sins, 17
David 17
Letter 17
ings, 17
SON 17
fever 17
Peter, 17
or, 17
throw 17
AN@@ 17
account 17
ru@@ 17
led. 17
sun 17
An@@ 17
ans, 17
ds. 17
towards 17
justified 17
learned 17
greatest 17
loved 17
teaching 17
disease 17
ag@@ 17
knowledge 17
les 17
good, 17
faith. 17
me! 17
gifts 17
water, 17
bread 17
mercy 17
was, 17
wine, 17
understand 17
ted 17
time. 16
lived 16
RA@@ 16
sign 16
good. 16
9 16
Dion 16
worship 16
8@@ 16
Come 16
tree 16
Take 16
Be@@ 16
sake 16
appeared 16
1 16
him? 16
news 16
ves, 16
Thus 16
mortal 16
sheep 16
adulter@@ 16
LUS 16
forty 16
ready 16
do. 16
listen 16
multitude, 16
ES@@ 16
clo@@ 16
poor 16
salvation 16
tried 16
parts 16
y! 16
God? 16
will, 16
part, 16
sea. 16
Which 16
!' 16
Grace 16
drink 16
Heaven 16
mind 16
rise 16
en 16
ers. 16
diseases 16
Athenians, 16
ness 16
k, 16
rule 16
ings 16
ste@@ 16
rejoice 16
brother@@ 16
obey 16
allies 15
Athenian 15
mountain 15
TUS 15
cup 15
ful@@ 15
year 15
destroy 15
fall 15
service 15
law@@ 15
nothing. 15
bond@@ 15
pri@@ 15
fire 15
country 15
lawful 15
Dionysius 15
fy 15
d: 15
forgive 15
apart 15
to@@ 15
n 15
ther 15
seized 15
wrath 15
servant, 15
stayed 15
Galilee. 15
darkness, 15
speech 15
preaching 15
boat 15
d 15
war. 15
Many 15
seeking 15
Neither 15
us; 15
believ@@ 15
IL@@ 15
wine 15
Jesus' 15
ing; 15
prophet, 15
bar@@ 15
thing. 15
number 15
too 15
else 15
everything 15
ations 15
this. 15
himself. 15
blood, 15
ear, 15
presence 15
prepared 15
ful 15
enemies 15
ve, 15
rose 15
ay 15
bur@@ 15
sin. 15
name, 15
Philip 15
force 15
speaks 15
met 15
outside 15
least 15
departed 15
ous, 15
est 15
beg 15
cur@@ 15
par@@ 15
EM@@ 15
built 15
Again, 15
k 15
raise 14
sal@@ 14
al. 14
Abraham, 14
throughout 14
um, 14
died. 14
ar 14
Caesar 14
be. 14
riches 14
ran 14
um@@ 14
ent 14
tion. 14
perhaps 14
'The 14
glorified 14
Go@@ 14
measure 14
feet 14
ces 14
brother, 14
ES 14
form 14
various 14
spread 14
things? 14
past 14
money 14
Again 14
home 14
Have 14
unclean 14
judged 14
Spartan 14
ded, 14
Isaiah 14
apostles 14
V@@ 14
N 14
war@@ 14
No, 14
sit 14
hear@@ 14
greatly 14
stri@@ 14
pay 14
manner 14
Satan 14
PH@@ 14
together. 14
ic@@ 14
members 14
cities 14
ears 14
wind 14
CA@@ 14
ne@@ 14
confidence 14
th, 14
heaven. 14
eat@@ 14
sins. 14
wor@@ 14
hard 14
e! 14
ve@@ 14
Jerusalem. 14
soul 14
fi@@ 14
Therefore, 14
wouldn't 14
nutriment 14
allowed 14
sha@@ 14
carry 14
crying 14
hi@@ 14
ity 14
carried 14
Herod 14
kingdom 14
comes, 14
h. 14
dy@@ 14
loves 14
afraid 14
tion 14
la@@ 14
Her@@ 14
ah 14
ther@@ 14
car@@ 14
me@@ 14
ted. 14
strong 14
knows 14
sh@@ 14
buil@@ 14
scor@@ 13
drew 13
places, 13
treated 13
Cyrus 13
fathers, 13
charged 13
saints 13
superven@@ 13
guard 13
sick, 13
sm@@ 13
oni@@ 13
Give 13
side. 13
sleep 13
ity, 13
teach 13
mind, 13
Pro@@ 13
arms 13
Seeing 13
fl@@ 13
rep@@ 13
ARCH@@ 13
ex@@ 13
glorify 13
believe. 13
ence. 13
IC@@ 13
myself 13
ded 13
at, 13
ct 13
beyond 13
allow 13
rebuked 13
chose 13
region 13
ance 13
possible 13
alive 13
heavenly 13
rulers 13
IS 13
lying 13
tri@@ 13
ction 13
peace. 13
clean@@ 13
due 13
body. 13
enemy, 13
beat 13
go. 13
close 13
condem@@ 13
thrown 13
people. 13
th. 13
ure. 13
tomb 13
hand@@ 13
follows: 13
sw@@ 13
joined 13
counted 13
Corinthians 13
pleasure 13
draw 13
deny 13
Paul's 13
thanks 13
An 13
Ju@@ 13
child, 13
build 13
ling 13
behind 13
bl@@ 13
days. 13
hear. 13
ge@@ 13
Hail, 13
ing? 13
shor@@ 13
grant 13
help 13
above 13
ating 13
place, 13
parab@@ 13
husband 13
“@@ 13
” 13
pray 13
hands, 13
down@@ 13
remain 13
urged 13
patience 13
so@@ 13
contrary 13
see, 13
COMPARISON 13
tax 13
po@@ 13
lead 13
cop@@ 13
Meanwhile 13
saints, 13
works, 13
ure, 13
ten@@ 13
white 12
spiritual 12
strength 12
daughter 12
IN@@ 12
testified 12
promised 12
Ly@@ 12
strang@@ 12
prison, 12
Cassius 12
Lord's 12
ally 12
run 12
heart. 12
Caesar@@ 12
these, 12
bore 12
see@@ 12
serve 12
Beth@@ 12
assembly, 12
sound 12
ver@@ 12
Di@@ 12
sc@@ 12
accordingly 12
!@@ 12
matters 12
field 12
ous. 12
Barnabas 12
disobedi@@ 12
James, 12
ve 12
country, 12
learn 12
prepare 12
ill 12
sing 12
parable 12
Jew@@ 12
bringing 12
touch 12
words. 12
return 12
ple@@ 12
here, 12
hum@@ 12
did, 12
wal@@ 12
public 12
ER 12
lam@@ 12
light. 12
Pe@@ 12
Israel. 12
law. 12
name. 12
demons 12
Mar@@ 12
using 12
tor@@ 12
OM@@ 12
consider 12
greet 12
ME@@ 12
ful, 12
gen@@ 12
spir@@ 12
obtained 12
ful. 12
mu@@ 12
ed@@ 12
o 12
there@@ 12
I'm 12
gift 12
out. 12
release 12
officers 12
sin@@ 12
light, 12
demons. 12
god@@ 12
Athens 12
fortune 12
col@@ 12
Joseph, 12
determined 12
evil. 12
He@@ 12
feast 12
God! 12
ch 12
but, 12
married 12
prophe@@ 12
place. 12
it? 12
dwell 12
lifted 12
glory, 12
doub@@ 12
thousand, 12
citizens 12
although 12
prophes@@ 12
servants, 12
spirit. 12
boast@@ 12
word. 12
ce@@ 12
wrong 12
Baptiz@@ 12
il, 12
man's 12
walking 12
hair 12
feet, 12
ch, 12
ment. 12
who, 12
judg@@ 12
them; 12
spent 12
k? 12
ds, 12
eyes, 11
bread, 11
ted, 11
prove 11
generals 11
ance, 11
des 11
ying 11
ang@@ 11
lu@@ 11
occasion 11
ey@@ 11
land, 11
able, 11
's, 11
kings 11
fourth 11
praise 11
har@@ 11
inherit 11
thou 11
report 11
Judea, 11
ns 11
x@@ 11
ce, 11
course 11
possessed 11
arrived 11
day@@ 11
summer 11
Th@@ 11
fig 11
ordered 11
woman, 11
fine 11
Brothers, 11
fo@@ 11
OR@@ 11
know@@ 11
large 11
EN@@ 11
teach@@ 11
ver 11
themselves. 11
others. 11
Con@@ 11
general 11
believe, 11
ke@@ 11
struck 11
work. 11
commanding 11
war, 11
E 11
island 11
sick 11
). 11
cha@@ 11
om. 11
fire. 11
Gentiles, 11
be, 11
AG@@ 11
ba@@ 11
respect 11
CLE@@ 11
US@@ 11
side, 11
apostles, 11
However 11
not, 11
Pharisees, 11
pl@@ 11
ess 11
ground 11
itself 11
friend 11
p 11
circumci@@ 11
eat. 11
asking 11
poured 11
Romans 11
ses, 11
pieces 11
as. 11
natural 11
decei@@ 11
common 11
comfor@@ 11
linen 11
gr@@ 11
brothers. 11
te@@ 11
Ze@@ 11
flesh. 11
ho@@ 11
falling 11
seem 11
9@@ 11
subjection 11
work, 11
loaves 11
Simon, 11
ate. 11
Tell 11
grew 11
aren't 11
wished 11
head, 11
Re@@ 11
flo@@ 11
afraid. 11
ruler 11
formed 11
able. 11
gra@@ 11
suffered 11
too, 11
lor@@ 11
Great 11
understan@@ 11
tr@@ 11
of@@ 11
at. 11
Apollo 11
hone@@ 11
EL@@ 11
seize 11
are, 11
According 11
midst 11
betray 11
Me@@ 11
indicates 11
brings 11
feet. 11
king. 11
woe 11
prophets, 11
sake. 11
be? 11
Philip, 10
exhort 10
marched 10
reward. 10
drop@@ 10
sy 10
ously 10
RO@@ 10
sion, 10
b 10
quickly 10
disease. 10
moved 10
done. 10
weak@@ 10
alone 10
power. 10
necessary 10
Beloved, 10
chang@@ 10
ari@@ 10
p, 10
Mount 10
heavens 10
ved, 10
open@@ 10
anxious 10
six 10
sky, 10
blood. 10
IP@@ 10
PA@@ 10
ke 10
years. 10
continue 10
hol@@ 10
forgiven 10
righteous@@ 10
Z@@ 10
EU@@ 10
IDA@@ 10
Elijah 10
unbeli@@ 10
profit 10
Persons 10
AM@@ 10
glad 10
ve. 10
symptom. 10
ght, 10
nes@@ 10
opposite 10
perfe@@ 10
short 10
message 10
mountain, 10
See 10
ies 10
st 10
’s 10
ys 10
priest, 10
sail 10
es? 10
journey 10
gods, 10
Scripture 10
Question 10
sitting 10
fear@@ 10
rest, 10
CRA@@ 10
DA@@ 10
hour, 10
caught 10
worked 10
stretched 10
worth@@ 10
boast 10
letter 10
pains 10
ves. 10
grow 10
prayer 10
th 10
ast@@ 10
tongue 10
change 10
dr@@ 10
mystery 10
c. 10
Another, 10
de 10
lac@@ 10
please 10
stones 10
wasn't 10
ain, 10
i, 10
paid 10
wanted 10
enemy. 10
with@@ 10
feared 10
prophet. 10
cross 10
apostle 10
share 10
worl@@ 10
Tro@@ 10
crow@@ 10
e-@@ 10
care 10
ter 10
nature 10
PO@@ 10
offered 10
glory. 10
ven@@ 10
ction. 10
gospel, 10
cre@@ 10
other, 10
pray, 10
forward 10
hands. 10
pati@@ 10
wait 10
righteousness. 10
e: 10
herself 10
ter. 10
fast 10
ge 10
thing, 10
alone. 10
Sil@@ 10
go, 10
est. 10
point 10
Judas 10
some, 10
Rejo@@ 10
den@@ 10
ains 10
obedience 10
equal 10
sancti@@ 10
le. 10
sufficient 10
thy 10
died, 10
offering 10
anim@@ 10
anything, 10
ces, 10
need@@ 10
sig@@ 10
say@@ 10
les, 10
,@@ 10
ship, 10
hidden 10
appear 10
flower 10
ans 10
supervening 10
Timoleon 10
der 10
meet 10
difficult 10
or; 10
nation, 10
persuaded 10
aside 10
bu@@ 10
willing 10
further 10
reign 10
have, 10
nam@@ 10
council, 10
especially 10
Galile@@ 10
thi@@ 10
easily 10
Israel, 10
en. 10
Magdal@@ 10
apostles@@ 10
DES 10
desired 10
tribe 10
defi@@ 10
foolish 10
often 10
book 10
working 10
Their 9
pi@@ 9
near, 9
sky 9
clothing, 9
lose 9
besides 9
form@@ 9
da@@ 9
bodies 9
ver. 9
down. 9
let's 9
defile 9
's. 9
act 9
seen, 9
3. 9
believed. 9
proclaimed 9
ble 9
god 9
earth@@ 9
life? 9
oath 9
thank 9
ev@@ 9
demons, 9
parti@@ 9
1. 9
Make 9
more. 9
Marth@@ 9
se; 9
forever. 9
ders 9
coming, 9
door 9
4. 9
ever@@ 9
divided 9
neighbor 9
holy, 9
Le@@ 9
ANAX@@ 9
goes 9
forever 9
S, 9
chronic 9
Gentiles. 9
beg@@ 9
purg@@ 9
st. 9
sending 9
fresh 9
persecuted 9
attended 9
ked 9
table 9
answer@@ 9
Spir@@ 9
mouth. 9
tion, 9
fathers 9
becoming 9
yes, 9
by, 9
showed 9
CH@@ 9
LY@@ 9
De@@ 9
First 9
whenever 9
acceptable 9
twelve, 9
cho@@ 9
John's 9
heavy 9
infantry 9
bread. 9
gold, 9
practice 9
ck. 9
love. 9
considered 9
village 9
mat@@ 9
food. 9
head@@ 9
brother. 9
br@@ 9
do? 9
son. 9
Isn't 9
os@@ 9
nation 9
evil, 9
men; 9
qu@@ 9
sixth 9
Woe 9
com@@ 9
age 9
over, 9
calls 9
wise, 9
(for 9
ath@@ 9
commandment, 9
many, 9
mercy, 9
5. 9
lost 9
asks 9
sn@@ 9
makes 9
mute 9
market@@ 9
boat, 9
filled. 9
TO 9
stands 9
faith@@ 9
end, 9
house@@ 9
ors, 9
blin@@ 9
begin 9
beloved, 9
asi@@ 9
ill@@ 9
James 9
boldness 9
merci@@ 9
t? 9
sword 9
ants, 9
removed 9
press 9
bitter 9
'He 9
age. 9
ently 9
tomb. 9
corrup@@ 9
broke 9
example 9
called, 9
Israel 9
revelation 9
evening 9
go@@ 9
throne 9
convul@@ 9
custom 9
alone, 9
les. 9
has, 9
ing@@ 9
mi@@ 9
marriage 9
field, 9
fe@@ 9
ris@@ 9
many. 9
trouble 9
ons 9
offen@@ 9
buried 9
Macedonia, 9
baskets 9
fever, 9
fallen 9
others, 9
sleep, 9
ness; 9
z@@ 9
fear, 9
rever@@ 9
sed 9
then? 9
ir@@ 9
us@@ 9
while, 9
ground, 9
win@@ 9
AL@@ 9
nations 9
matter 9
bought 9
alo@@ 9
t; 9
in. 9
afraid, 9
image 9
Ano@@ 9
fin@@ 9
sprink@@ 9
h, 9
gre@@ 9
her@@ 9
Thessal@@ 9
outside, 9
ated, 9
ox@@ 9
younger 9
wi@@ 9
su@@ 9
pure 9
joy, 9
male 9
immorality, 9
Jo@@ 9
Persians 9
d! 9
hearts, 9
sen@@ 9
teaching, 9
x 9
Elija@@ 9
accomplish 9
say. 9
fa@@ 9
now. 9
Now, 9
synagogue 9
off, 9
Shall 9
ged 9
Did 9
blessing 9
us? 9
Mary, 9
Others 9
enough 9
child. 9
justi@@ 9
el 9
gh@@ 9
ves 9
fil@@ 9
shown 9
ty. 9
DAS 9
mother. 9
ates 9
moist@@ 9
don@@ 9
bi@@ 9
husband. 8
went, 8
patient 8
Lord; 8
song 8
fire, 8
winter 8
yourselves, 8
mb@@ 8
UC@@ 8
stumbling 8
Here 8
veil 8
sacrifices 8
caused 8
rest. 8
loss 8
dwelling 8
blam@@ 8
obtain 8
win 8
MUS 8
favor 8
affli@@ 8
flu@@ 8
casting 8
ching 8
ceased 8
near. 8
leg@@ 8
fer@@ 8
arise 8
die. 8
cat@@ 8
it! 8
acute 8
chosen 8
fullness 8
centurion 8
ents, 8
ry. 8
crucified. 8
low@@ 8
danger. 8
AND@@ 8
seemed 8
-3@@ 8
prisoner 8
risen 8
ati@@ 8
talking 8
cease 8
committed 8
endures 8
weeping 8
tree, 8
am, 8
ily, 8
Another 8
behalf 8
adultery, 8
comfort 8
clothed 8
lin@@ 8
ow@@ 8
ships, 8
Athens, 8
disp@@ 8
Jacob 8
Egypt, 8
letters 8
withdrew 8
hungry, 8
men's 8
sel@@ 8
Li@@ 8
year, 8
offer 8
counsel 8
repentance 8
added 8
ordained 8
baptism 8
,' 8
mal@@ 8
vessels 8
allies, 8
ea 8
puts 8
bas@@ 8
YR@@ 8
els 8
wrath, 8
Barabb@@ 8
today 8
barbarians 8
Am@@ 8
yours 8
fevers, 8
ment, 8
shed 8
ears, 8
'What 8
Timothy, 8
learning 8
knowledge, 8
Galati@@ 8
face, 8
For, 8
finding 8
darkness 8
hour. 8
cr@@ 8
superior 8
b. 8
compassion 8
reasoned 8
summoned 8
Father's 8
will@@ 8
Sadduce@@ 8
confess 8
bondage 8
test 8
But, 8
for, 8
holding 8
horses 8
forces 8
only, 8
remission 8
decided 8
judgment. 8
In@@ 8
du@@ 8
desire, 8
him! 8
early 8
ored 8
de. 8
judgment, 8
covenant, 8
ts. 8
Everyone 8
works. 8
hasn't 8
ages 8
fulfilled, 8
children. 8
der, 8
ard@@ 8
weep@@ 8
righteous, 8
cloud 8
David, 8
denied 8
Sicily, 8
Our 8
St@@ 8
ch. 8
ved. 8
tly, 8
wickedness, 8
ly@@ 8
thor@@ 8
garm@@ 8
trav@@ 8
part@@ 8
feast, 8
showing 8
ility, 8
commits 8
appears 8
ance. 8
ct, 8
ure@@ 8
dness 8
ant 8
is. 8
refused 8
Get 8
ities, 8
seems 8
hate 8
Ca@@ 8
fies 8
altar 8
witness 8
clear 8
dead? 8
mother@@ 8
contr@@ 8
synagogue, 8
ann@@ 8
fight 8
Loo@@ 8
amazed 8
symptom@@ 8
ef, 8
likewise 8
fish 8
join 8
Pray 8
beautiful 8
however 8
ard 8
aw@@ 8
enemies, 8
grow@@ 8
saved. 8
assemblies. 8
land. 8
weak 8
labor 8
rejoiced 8
depart 8
sh, 8
lust@@ 8
attacked 8
swears 8
see? 8
master 8
n. 8
Saul, 8
nothing, 8
ant, 8
light@@ 8
wilderness 8
collectors 8
continued 8
fighting 8
wherever 8
governor 8
fevers 8
No@@ 8
mor@@ 8
self-@@ 8
talked 8
Scriptures 8
est@@ 8
covenant 8
flow@@ 8
cause, 8
waiting 8
clean. 8
root 8
stumbl@@ 8
appropriate 8
int@@ 8
cured 8
before, 8
firmly 8
ot@@ 8
call@@ 8
cour@@ 8
dark@@ 8
friends, 8
sister, 8
ctions 8
ble@@ 8
hated 8
drawn 8
clothing 8
iled 8
disciple 8
sinn@@ 8
ers; 8
ward 8
strong. 8
eye, 8
fied, 8
cam@@ 8
excellent 8
gu@@ 8
occur 8
arms, 8
home, 8
Ah, 8
att@@ 8
esti@@ 8
read@@ 8
new@@ 8
purging 8
Lord? 8
thin@@ 8
true 8
father. 8
wives 8
idolat@@ 8
heal@@ 8
believing 8
29 8
possible, 8
subje@@ 8
il 8
Sat@@ 8
declare 8
conscience 8
ye 8
despise 8
ea. 8
h 8
bapti@@ 8
Sabbath. 8
pe 8
entering 8
Honor 8
haven't 8
roo@@ 8
corruptible 8
sown 8
proper 8
sinners 8
perils 8
ds; 7
fain@@ 7
weak, 7
Watch 7
pus 7
swear 7
divi@@ 7
loo@@ 7
confes@@ 7
parts, 7
ury 7
supp@@ 7
kidne@@ 7
hic@@ 7
str@@ 7
sight, 7
add 7
lives. 7
Athens. 7
vineyard 7
washed 7
ite 7
Upon 7
spoken, 7
Sparta, 7
stop@@ 7
ons, 7
victory 7
grace, 7
freely 7
prayed 7
pur@@ 7
regard 7
after, 7
shar@@ 7
surrounding 7
troubled, 7
earnestly 7
ut@@ 7
trem@@ 7
bling 7
persuade 7
likewise. 7
king@@ 7
pleas@@ 7
alliance 7
seeks 7
ely 7
ake, 7
whereof 7
dam@@ 7
rebu@@ 7
suddenly 7
back, 7
drink, 7
beginning. 7
speak@@ 7
Sal@@ 7
this: 7
yourself. 7
ef. 7
DI@@ 7
likeness 7
know. 7
o, 7
kne@@ 7
thirst 7
becomes 7
row 7
human 7
wisdom, 7
fig@@ 7
water. 7
bow@@ 7
strike 7
ly; 7
ef@@ 7
wrapped 7
gl@@ 7
empty 7
Fest@@ 7
pressed 7
other. 7
cl@@ 7
ct. 7
mar@@ 7
multitudes, 7
Greek 7
ned, 7
sen. 7
mur@@ 7
ts, 7
grain 7
these. 7
Sid@@ 7
en't 7
going? 7
invited 7
ANDER 7
ear@@ 7
quickly. 7
reward 7
angels, 7
disobedient 7
Peace 7
bro@@ 7
souls. 7
Damas@@ 7
IA@@ 7
hair, 7
putting 7
warned 7
faith? 7
establish 7
continu@@ 7
'Lord, 7
ad 7
fruit. 7
lame 7
provoke 7
wife. 7
temple. 7
govern@@ 7
mine 7
yours, 7
yn@@ 7
question 7
council 7
quite 7
pe@@ 7
So@@ 7
mon@@ 7
officer 7
assemblies 7
ned. 7
dece@@ 7
supply 7
ence; 7
TES 7
Plato 7
Only 7
truce 7
proved 7
worshiped 7
punished 7
worse 7
assembly. 7
Bring 7
handed 7
row@@ 7
this? 7
perceived 7
endure 7
covet@@ 7
we, 7
oc@@ 7
consci@@ 7
faith; 7
fre@@ 7
Lev@@ 7
fish, 7
instead 7
he? 7
est, 7
astonished 7
crisis 7
mercenaries 7
departed. 7
praying 7
here. 7
desires 7
zealous 7
ard. 7
camp 7
Zeus, 7
s), 7
ily 7
exalted 7
proclaim 7
eager 7
cannot 7
ene 7
marveled 7
ce; 7
understanding 7
baptiz@@ 7
dry 7
ck@@ 7
synagogues 7
honored 7
silver 7
wilderness, 7
nouri@@ 7
sh 7
ce. 7
heaven@@ 7
Rep@@ 7
Woman, 7
deeds 7
teaching. 7
fitting 7
parents 7
devil. 7
void 7
fact 7
prepar@@ 7
gain 7
wat@@ 7
top 7
gent@@ 7
Scriptures, 7
left. 7
poor, 7
divor@@ 7
armies 7
Scrip@@ 7
multi@@ 7
revealed, 7
couldn't 7
pra@@ 7
powers 7
carrying 7
leads 7
old, 7
Melchizede@@ 7
another; 7
bidding 7
gained 7
sta@@ 7
money. 7
Isaac 7
promise. 7
flesh@@ 7
ban@@ 7
res@@ 7
ter, 7
given, 7
thirty 7
ges 7
Savior, 7
sts 7
dly 7
attention 7
discipl@@ 7
j@@ 7
dilig@@ 7
forbid 7
kill@@ 7
art 7
ak@@ 7
relatives 7
bri@@ 7
recei@@ 7
paraly@@ 7
impossible 7
cruci@@ 7
prophets. 7
rul@@ 7
sight. 7
ility 7
rev@@ 7
well-@@ 7
secure 7
liness 7
lusts, 7
was. 7
pen@@ 7
re 7
remembered 7
cted. 7
lovers 7
swift 7
other@@ 7
odi@@ 7
Judea 7
denari@@ 7
Mat@@ 7
pha@@ 7
Jews. 7
hot 7
judges 7
careful 7
Christ's 7
hates 7
first. 7
per, 7
vi@@ 7
places 7
ings. 7
Tru@@ 7
ps 7
grows 7
shes 7
him@@ 7
griev@@ 7
sprang 7
Lazar@@ 7
hat@@ 7
hostile 7
telling 7
dear 7
eating 7
demon@@ 7
assembled 7
ates, 7
ded. 7
el, 7
Ah 7
Hebre@@ 7
ood 7
ce 7
Syracusans 7
less, 7
suffering 7
swe@@ 7
keeps 7
urine 7
ways 7
slain 7
diarrho@@ 7
sav@@ 7
ces. 7
k; 7
unto 7
middle 7
ene, 7
apostles. 7
really 7
father's 7
healed. 7
finds 7
cal 7
Concerning 7
oil 7
farm@@ 7
der@@ 7
drunken 7
humb@@ 7
bears 7
ents. 7
As@@ 7
end@@ 7
idols, 7
length 7
prison 7
affe@@ 7
il. 7
ster@@ 7
sl@@ 7
ked, 7
ce? 7
fruit, 7
years, 7
bed 7
aged 7
perish 7
ice, 7
times. 7
V. 7
disciples. 7
thinks 7
partakers 7
forgiven@@ 7
felt 7
cles 7
lan@@ 7
drin@@ 7
fed 7
Moses, 7
removes 7
myself, 7
Roman 7
advantage 7
salvation, 7
hu@@ 7
tomb, 7
leaving 7
colle@@ 7
Follow 7
circumcision, 7
is@@ 7
scribes, 7
which, 7
gospel. 7
spirits 7
cy 7
credit 7
produces 7
accuse 7
one@@ 7
condemned 7
moisture 7
ili@@ 6
easy 6
steadfastly 6
admonish 6
support 6
ms, 6
hym@@ 6
ae@@ 6
Thracian 6
river 6
boldly 6
said. 6
emp@@ 6
flow 6
fat@@ 6
ignor@@ 6
tre@@ 6
guide 6
uration 6
ute 6
bal@@ 6
ation; 6
compassion, 6
pet@@ 6
upper 6
lies 6
favor@@ 6
af@@ 6
listened 6
hope, 6
nations, 6
Sir, 6
sorrow@@ 6
fellowship 6
on; 6
ess. 6
eve 6
sealed 6
destruction, 6
fying 6
replied, 6
der. 6
le; 6
elders, 6
bearing 6
ces@@ 6
speech@@ 6
affection 6
Ac@@ 6
declared 6
fit 6
ran@@ 6
ians 6
os 6
sixty 6
kno@@ 6
troubled 6
withered 6
AGES@@ 6
descended 6
curse 6
ou@@ 6
stone, 6
6. 6
ened 6
soul, 6
eat, 6
Passover 6
cu@@ 6
accord 6
witnesses 6
fulfill 6
ja@@ 6
ens 6
enter@@ 6
thing@@ 6
separated 6
ig@@ 6
2. 6
Jer@@ 6
kinds 6
Whatever 6
action 6
ative 6
infirm@@ 6
assuredly, 6
ence, 6
gn@@ 6
Can 6
oli@@ 6
spring 6
reap 6
sub@@ 6
stan@@ 6
stumble 6
ses. 6
party 6
Ther@@ 6
battle, 6
nat@@ 6
ped. 6
prostit@@ 6
bowels 6
Remember 6
proceed 6
ies, 6
Solom@@ 6
obedient 6
le? 6
Hav@@ 6
endured 6
name's 6
two, 6
’ 6
passing 6
sale, 6
cri@@ 6
mouth, 6
granted 6
round 6
law? 6
happen@@ 6
ities 6
bosom@@ 6
friend, 6
Pharise@@ 6
ready, 6
pain, 6
saint@@ 6
defeated 6
stus, 6
ach@@ 6
expedition 6
OU@@ 6
Y 6
business 6
ar, 6
aeus, 6
gar, 6
fever@@ 6
produce 6
gift, 6
be! 6
(I 6
ored, 6
weren't 6
pers 6
'Behold, 6
complete 6
reached 6
mighty, 6
Egypt 6
Poly@@ 6
pli@@ 6
distres@@ 6
join@@ 6
sailing 6
thir@@ 6
Joseph 6
Pilate, 6
ched 6
pursu@@ 6
Let's 6
na 6
jo@@ 6
clean 6
coloni@@ 6
imitators 6
IAS 6
eling 6
den 6
that. 6
service, 6
Aren't 6
ninth 6
dev@@ 6
widow@@ 6
fully, 6
Nazare@@ 6
ty 6
crossed 6
room 6
ren@@ 6
spar@@ 6
testifies 6
marveled, 6
resurre@@ 6
ashamed 6
saved, 6
mercy. 6
taber@@ 6
nacle 6
treat@@ 6
ship@@ 6
utter@@ 6
wishing 6
r 6
burned 6
measure, 6
observed 6
less@@ 6
pu@@ 6
ber@@ 6
Rabbi, 6
Arise, 6
building 6
own. 6
crowd 6
Was 6
zz@@ 6
whereas 6
tyrant 6
Why, 6
En@@ 6
So, 6
home. 6
answer, 6
sure 6
aid 6
witness, 6
earnest 6
lovely 6
them? 6
overcome 6
returned, 6
ourselves, 6
ctions, 6
try 6
Te@@ 6
iness 6
purpose 6
Theseus 6
Whose 6
pray@@ 6
strife, 6
treaty 6
Does 6
Ste@@ 6
remained 6
dar@@ 6
lives, 6
um. 6
cit@@ 6
guilty 6
teacher 6
all@@ 6
extreme 6
stirred 6
husband, 6
camp. 6
a; 6
gro@@ 6
alive. 6
thing? 6
ture, 6
deca@@ 6
Zebede@@ 6
CLES 6
Until 6
seated 6
accept 6
wicked 6
alien@@ 6
speak. 6
surnamed 6
race, 6
weep 6
break 6
apt 6
forever, 6
reason@@ 6
ended 6
persecu@@ 6
listens 6
iap@@ 6
mention 6
mock@@ 6
board 6
eli@@ 6
own, 6
heirs 6
prayer, 6
n; 6
Philip@@ 6
Passover, 6
ice 6
ways. 6
plat@@ 6
Jopp@@ 6
honor, 6
disobedient, 6
borders 6
say? 6
Bethany, 6
ity; 6
Argives 6
de, 6
fair 6
yeast 6
About 6
cries 6
I. 6
short, 6
chil@@ 6
sinners, 6
thanks, 6
Sparta 6
soldier 6
heavens, 6
you@@ 6
cor@@ 6
rejoice, 6
et@@ 6
cup, 6
CHUS 6
needs 6
sk@@ 6
dy 6
shut 6
afterwards 6
accepted 6
any@@ 6
cross, 6
glad, 6
ght. 6
Thom@@ 6
dom, 6
before@@ 6
Look, 6
served 6
Iscariot, 6
ungod@@ 6
godly 6
horsemen 6
Jes@@ 6
ius 6
prof@@ 6
lost. 6
conce@@ 6
race 6
ors. 6
gar@@ 6
ob@@ 6
household 6
Dem@@ 6
throwing 6
circumcised 6
accounted 6
as; 6
tal@@ 6
cy, 6
cavalry 6
strangers 6
drove 6
K 6
soun@@ 6
Saul 6
Like@@ 6
vain. 6
Greek, 6
heard, 6
spo@@ 6
finest 6
por@@ 6
vine@@ 6
dried 6
deliri@@ 6
Carthaginians 6
resurrection. 6
Zachari@@ 6
perceiving 6
ons. 6
ae 6
alt@@ 6
drinking 6
Christ? 6
Davi@@ 6
grace. 6
good@@ 6
y-@@ 6
ia, 6
ster 6
itself, 6
Stand 6
firm 6
with. 6
perfect 6
lacking 6
discharges 6
inter@@ 6
eats 6
breast@@ 6
honorable 6
happen 6
foundation 6
refuse 6
whi@@ 6
wore 6
placed 6
opened, 6
keeping 6
er? 6
Pompey 6
After@@ 6
It@@ 6
money, 6
promises 6
ain@@ 6
harm@@ 6
liber@@ 6
were, 6
sons, 6
Moreover, 6
iti@@ 6
protracted 6
re. 6
cted, 6
onia, 6
id@@ 6
visit 6
pped 6
Jew 6
w 6
c 6
strangers. 6
copious 6
cold, 6
months, 6
deep 6
burning 6
ty@@ 6
MEN@@ 6
ches 6
ways, 6
Caesar’s 6
parents, 6
EC@@ 6
encouraged 6
excessive 6
destroyed 6
red, 6
sharp 6
front 6
destruction 6
divine 6
us: 6
CL@@ 6
39 6
wild 6
slave 6
super@@ 6
indicate 6
Then, 6
attack 6
th? 6
fleet 6
zed 6
otherwise 6
serp@@ 6
conscience, 6
wants 6
MENES 6
occasions 6
goo@@ 6
fearful 6
appearance, 6
different 6
off. 6
outw@@ 6
gener@@ 6
mistak@@ 6
itu@@ 6
stumble. 6
Eli@@ 6
fied. 6
command@@ 6
Man@@ 6
soft 6
afterward 6
gates 6
baptized, 6
wash 6
matter. 6
remove 6
ron 6
flee 6
Apollo@@ 6
success 6
long, 6
brid@@ 6
heat 6
char@@ 6
generations 6
ain. 6
TO@@ 6
widow 6
us! 6
ones, 6
saying: 6
Oh 6
san@@ 6
l, 6
Agesilaus 6
swelling 6
judged. 6
sick. 6
Darius 6
fruits 6
surely 6
bab@@ 6
signi@@ 6
iniqu@@ 6
till 6
burden 6
death; 6
slander@@ 6
temper@@ 6
ture 6
need. 6
Finally, 6
trans@@ 6
sorrow 6
drachm@@ 6
tab@@ 6
sof@@ 6
Nature 6
watching 6
lif@@ 5
husban@@ 5
ns, 5
army. 5
cau@@ 5
once, 5
ambassadors 5
former 5
lusts 5
stronger 5
TION 5
slowly 5
inflamm@@ 5
womb, 5
captured 5
watch@@ 5
everything, 5
prayers 5
strange 5
arrested 5
envoys 5
ation? 5
God@@ 5
desires. 5
powerful 5
am. 5
unable 5
ad, 5
move 5
sy, 5
immortal@@ 5
appro@@ 5
wise. 5
Timothy 5
cent@@ 5
bowed 5
fast@@ 5
saints. 5
somebody 5
gri@@ 5
Cru@@ 5
violent 5
per 5
theirs 5
self-control@@ 5
sober 5
greeted 5
sister 5
said: 5
Dion, 5
exi@@ 5
accused 5
coven@@ 5
ar. 5
desiring 5
sis 5
cen@@ 5
agree 5
Boeotians 5
transgres@@ 5
doctrine, 5
Asia 5
intended 5
room, 5
girl 5
tim@@ 5
ys@@ 5
reveal 5
them: 5
turning 5
ei@@ 5
ILA@@ 5
diseases, 5
cas@@ 5
sla@@ 5
earthqu@@ 5
speak, 5
hears 5
follows. 5
advice 5
puri@@ 5
turns 5
goods 5
wall 5
immoral@@ 5
Samarit@@ 5
interpret@@ 5
burden@@ 5
state, 5
fearing 5
circumcision. 5
accoun@@ 5
speaking, 5
explained 5
gifts, 5
reserved 5
ine, 5
purged 5
ind@@ 5
ated. 5
profitable 5
yield 5
yields 5
fleshly 5
discharged 5
ravaged 5
boast, 5
resources 5
treas@@ 5
much. 5
rac@@ 5
Persian 5
Agrippa 5
myself. 5
Tom@@ 5
et. 5
children@@ 5
cru@@ 5
wonders, 5
aside, 5
cros@@ 5
persever@@ 5
going, 5
can@@ 5
ent? 5
leading 5
Death 5
stopped 5
from. 5
medi@@ 5
with, 5
ed! 5
pal@@ 5
again? 5
company 5
while. 5
priest@@ 5
present, 5
ken@@ 5
Judas, 5
Arab@@ 5
II. 5
R 5
PL@@ 5
irs, 5
stand, 5
ter's 5
Corinthian 5
devil 5
seventh 5
thinking 5
swore 5
x, 5
ures 5
jealous@@ 5
virgin@@ 5
Herod, 5
true. 5
sions 5
gods. 5
won@@ 5
abound 5
Into 5
enter, 5
a) 5
deed 5
are. 5
gentle 5
Sicily. 5
ma@@ 5
member 5
harm 5
refre@@ 5
gone, 5
slew 5
chi@@ 5
greets 5
robber@@ 5
examined 5
scour@@ 5
lament@@ 5
sees 5
wilder@@ 5
Savi@@ 5
spirits, 5
indeed, 5
rai@@ 5
bondservants 5
Leave 5
bury 5
face. 5
known. 5
dice 5
fac@@ 5
noble 5
falls 5
live, 5
priests, 5
separ@@ 5
cal@@ 5
beauti@@ 5
independent 5
mixed 5
cer@@ 5
Persians, 5
prisoner, 5
road 5
overthrow 5
approved 5
ston@@ 5
bravery 5
swor@@ 5
bor@@ 5
betra@@ 5
taken, 5
minister 5
freed 5
melancho@@ 5
lic 5
stra@@ 5
sion@@ 5
arm@@ 5
crossing 5
captains 5
done? 5
Heracles 5
grief 5
praising 5
happen, 5
er's 5
Paul. 5
cock 5
Ri@@ 5
arrest 5
'We 5
blind, 5
drunk 5
oppression, 5
che@@ 5
prince 5
ca, 5
La@@ 5
dedicated 5
Apollo, 5
re, 5
shines 5
Consider 5
dea@@ 5
commen@@ 5
John. 5
ging 5
truly 5
act@@ 5
vain 5
issue 5
fled 5
cry, 5
understanding, 5
ant@@ 5
created 5
ali@@ 5
vent@@ 5
envy 5
ffed 5
Master, 5
water@@ 5
Come, 5
inheritance 5
defeat 5
sorrowful, 5
willing, 5
weak. 5
cover 5
trad@@ 5
itions 5
remind 5
established 5
Nevertheless, 5
free, 5
ths 5
apost@@ 5
search 5
crown 5
men? 5
surface 5
lie 5
ousness, 5
marries 5
shing 5
laugh@@ 5
clothe@@ 5
altar@@ 5
han@@ 5
often, 5
Fri@@ 5
ous@@ 5
Cretans 5
troub@@ 5
belongs 5
dominion 5
tongue. 5
Son. 5
meaning 5
(which 5
Ex@@ 5
rich, 5
victory. 5
ess@@ 5
author@@ 5
Athenians. 5
ze@@ 5
boy 5
ying, 5
slow@@ 5
betrayed 5
les; 5
ts; 5
foolish@@ 5
Man, 5
ines 5
Jam@@ 5
ew@@ 5
Demosthenes, 5
abstain 5
where@@ 5
iling 5
sever@@ 5
sacrificed 5
cry 5
numbered 5
summon 5
ies. 5
divorce 5
led; 5
beware 5
difference 5
expect 5
paying 5
array 5
hill 5
ations, 5
worshi@@ 5
robb@@ 5
Fear 5
mirac@@ 5
belong 5
Q@@ 5
letter, 5
ing! 5
condemn 5
you! 5
storm 5
ground. 5
Ar@@ 5
up! 5
shame@@ 5
ance; 5
agre@@ 5
sanctified 5
Laodice@@ 5
owing 5
cust@@ 5
behold 5
possession 5
fiel@@ 5
serious 5
vity 5
ym@@ 5
ο@@ 5
week, 5
intent 5
household, 5
Caesarea, 5
pass, 5
Life 5
Caesar. 5
knowledge. 5
cloth, 5
establi@@ 5
golden 5
companions 5
exhor@@ 5
id. 5
utes, 5
native 5
changed 5
Well, 5
eaten 5
Jord@@ 5
rejects 5
shameful 5
ally. 5
w; 5
particularly 5
Jordan, 5
Abraham@@ 5
openly 5
Wh@@ 5
bade 5
astray. 5
reach 5
measured 5
body; 5
naked, 5
ner 5
not. 5
Im@@ 5
thou@@ 5
sai@@ 5
ward, 5
res 5
umb@@ 5
); 5
territory 5
bold 5
twenty 5
asham@@ 5
to, 5
heart@@ 5
birth. 5
Keep 5
arises 5
ignorant 5
minds 5
hemor@@ 5
older 5
err@@ 5
patience, 5
kingdom. 5
places. 5
om 5
yz@@ 5
esting 5
sound, 5
goal 5
generation 5
Ephes@@ 5
favour 5
differs 5
Jew, 5
freem@@ 5
drinks 5
appoint 5
commander 5
love; 5
ministry 5
prisoners 5
Nic@@ 5
we@@ 5
tore 5
wear 5
black 5
over. 5
tombs 5
several 5
fish. 5
hope. 5
drink. 5
mother's 5
als 5
wronged 5
begins 5
clothes 5
onians 5
Three 5
X. 5
nourishment 5
viol@@ 5
earnes@@ 5
thank@@ 5
alike 5
revolt 5
sting 5
To@@ 5
perceive 5
ant. 5
ware 5
mors 5
Na@@ 5
XL@@ 5
id 5
hardly 5
dig@@ 5
departed, 5
far@@ 5
eous 5
free. 5
appearance 5
ill-@@ 5
sheep@@ 5
ute, 5
Beli@@ 5
ea, 5
in; 5
ring 5
trespasses, 5
means, 5
entrusted 5
gladly 5
increased 5
a’s 5
fab@@ 5
Syracusans, 5
women, 5
addressed 5
Gree@@ 5
lands 5
boasting 5
hoped 5
salvation. 5
et, 5
Mo@@ 5
Apoll@@ 5
utes 5
quantity 5
pleased 5
winter, 5
Dio@@ 5
dishonor 5
nur@@ 5
woman@@ 5
occurring 5
everywhere 5
ysi@@ 5
Socrates. 5
courage, 5
sorcer@@ 5
Cy@@ 5
oun@@ 5
als, 5
wondered 5
passes 5
dge 5
year@@ 5
exceeding 5
arrows 5
book, 5
reco@@ 5
discharge 5
tion; 5
tempted 5
acted 5
lamp@@ 5
n't 5
post@@ 5
Accordingly, 5
dishon@@ 5
times, 5
minded, 5
sexually 5
comes. 5
messenger 5
two. 5
ready. 5
sear@@ 5
Ephesus, 5
flight 5
promis@@ 5
sick@@ 5
ade 5
ask, 5
Yes. 5
receiving 5
revel@@ 5
dog@@ 5
purpose, 5
X 5
army, 5
thr@@ 5
content 5
fr@@ 5
reported 5
murder, 5
hopes 5
subjected 5
Aemilius 5
ess, 5
appropri@@ 5
advised 5
rejo@@ 5
bul@@ 5
wisdom. 5
fication. 5
w, 5
like@@ 5
mountains, 5
inward 5
Sabbath, 5
ence 5
glori@@ 5
baptizing 5
ors 5
Philipp@@ 5
ately, 5
boo@@ 5
eunuchs 5
wol@@ 5
pain 5
Peloponnesians 5
Ephors 5
corrupt 5
battle. 5
have? 5
sun, 5
ding@@ 5
more@@ 5
commandments. 5
plain 5
bel@@ 5
mad@@ 5
liness, 5
anointed 5
Sam@@ 5
come? 5
redemption 5
aning 5
crowd, 5
sh! 5
generally 5
dem@@ 5
released 5
watched 5
oo@@ 5
defen@@ 5
position 5
defe@@ 5
its. 5
remaining 5
Once 5
Lycurgus 5
ward. 5
unclean@@ 5
eye 5
demon 5
treasure 5
struggle 5
language, 5
fruit@@ 5
ins, 5
heal 5
severe 5
greet@@ 5
deb@@ 5
gras@@ 5
to. 5
urine, 5
prosper@@ 5
Sicily 5
sec@@ 5
Greece 5
causes 5
spoke, 5
whom, 5
res, 5
phan@@ 5
ministr@@ 5
sweet 5
out; 5
taste 5
anchor 5
ved 5
joy. 5
right. 5
ini@@ 5
civil 5
Sar@@ 5
Caesar, 5
Ab@@ 5
ited 5
zing 5
Since 5
medicine 5
XXX@@ 5
forgave 5
kindly 5
key 5
sinned, 5
y: 5
mis@@ 5
lord, 5
Rome, 5
te, 5
accomplished 5
more; 5
ge. 5
understood 5
creature 5
so. 5
won 5
Pan@@ 5
hath 5
suppose 5
tation, 5
Nat@@ 5
torment 4
wept 4
buy 4
eat? 4
song@@ 4
sing@@ 4
hail 4
afflicted 4
angry, 4
greater, 4
obedience, 4
armor 4
Alexander 4
if@@ 4
Jacob@@ 4
clim@@ 4
shone 4
aci@@ 4
Str@@ 4
block 4
brother's 4
fall@@ 4
ceased, 4
ition 4
ably 4
Car@@ 4
figures 4
speech, 4
within, 4
arrival 4
burn 4
laws 4
Gentil@@ 4
eless. 4
bestowed 4
These, 4
Thou 4
dest 4
exalt 4
ge, 4
das 4
var@@ 4
garments 4
das, 4
sword, 4
slan@@ 4
yer 4
languages 4
ast 4
region. 4
sional 4
phthi@@ 4
ped, 4
birth 4
abundantly 4
convicted 4
sor@@ 4
country@@ 4
medit@@ 4
feeding 4
town 4
tied 4
ong@@ 4
Ionian 4
road, 4
m, 4
purge 4
cra@@ 4
rolled 4
history 4
language 4
p. 4
resolved 4
dreadful 4
impulse 4
testify, 4
el. 4
Dionysus 4
advers@@ 4
aries. 4
necessarily 4
tain@@ 4
Won@@ 4
tenth 4
fle@@ 4
Her 4
smoke 4
ever. 4
garment 4
G 4
D 4
rob 4
youth 4
dysentery, 4
lem@@ 4
27@@ 4
tells 4
thirst@@ 4
marvel 4
exist@@ 4
outer 4
teeth. 4
secretly 4
stole 4
liberty 4
excuse 4
affairs 4
vine 4
sowed 4
els, 4
exerci@@ 4
dishonest 4
quickly, 4
er; 4
yers 4
desol@@ 4
tus 4
achus 4
perfect, 4
latter 4
van@@ 4
cing 4
langu@@ 4
ages. 4
directed 4
captain 4
else, 4
upward 4
ian 4
thoughts, 4
ders, 4
bled 4
one; 4
compelled 4
Cyrene, 4
Ru@@ 4
ked. 4
ades. 4
tions 4
ry 4
wine. 4
life@@ 4
ides, 4
distressed 4
sea@@ 4
birth@@ 4
present. 4
repay 4
matters. 4
journey, 4
recognized 4
communic@@ 4
Mityl@@ 4
eni@@ 4
Hellenic 4
T 4
Plat@@ 4
Tim@@ 4
Bar@@ 4
road. 4
wife@@ 4
anger 4
Each 4
increa@@ 4
outward 4
wearing 4
drun@@ 4
lie, 4
better. 4
affliction 4
insurre@@ 4
walk, 4
tomor@@ 4
destroying 4
moment, 4
weight 4
ments. 4
Demetrius 4
destro@@ 4
mine, 4
phy@@ 4
patients 4
Ari@@ 4
came. 4
right@@ 4
difficulty 4
sow 4
Pha@@ 4
offspring 4
inhabited 4
Jas@@ 4
sion. 4
agreed 4
crime 4
month 4
excell@@ 4
introduced 4
mas@@ 4
ades 4
houses, 4
nation. 4
des@@ 4
tem@@ 4
staying 4
ning, 4
stru@@ 4
mind. 4
aeus 4
let@@ 4
Ei@@ 4
ass@@ 4
Wher@@ 4
Someone 4
goats 4
Israel@@ 4
apply 4
thrust 4
beat@@ 4
air, 4
division 4
tin@@ 4
meeting 4
yourselves. 4
an! 4
brave 4
p-@@ 4
cou@@ 4
ty, 4
Rabbi@@ 4
comforted 4
authority, 4
ordinance 4
withstand 4
sole 4
Egyptian 4
Epaph@@ 4
farmer 4
viney@@ 4
nature. 4
guarded 4
sand@@ 4
dinner 4
heir 4
verse 4
Oh, 4
hall@@ 4
cel@@ 4
cloak 4
witnes@@ 4
generous 4
You, 4
Capernaum, 4
marvele@@ 4
Rome. 4
first@@ 4
manag@@ 4
ement, 4
ks 4
ctly 4
sides, 4
them! 4
ED@@ 4
confident 4
serves 4
ely, 4
silent. 4
stir 4
point, 4
skin 4
righte@@ 4
elzebul@@ 4
Tit@@ 4
offer@@ 4
accusation 4
hard@@ 4
protr@@ 4
usually 4
es! 4
Hel@@ 4
encamped 4
number, 4
commandments 4
shadow 4
anger, 4
affection, 4
grievous 4
bon@@ 4
departure 4
synagogu@@ 4
will. 4
represent@@ 4
abroad 4
pping 4
night. 4
pers, 4
vision, 4
ys. 4
fathers. 4
marching 4
if, 4
finished 4
furn@@ 4
ones 4
life; 4
pleasing 4
ner@@ 4
Samari@@ 4
Perseus 4
Cho. 4
obeyed 4
tent 4
die, 4
less. 4
corn@@ 4
shame. 4
Hades, 4
slaves. 4
Ven@@ 4
ship. 4
anch@@ 4
dri@@ 4
repent@@ 4
kingdom, 4
Father; 4
footstool 4
feet@@ 4
legions 4
angel@@ 4
authority. 4
Corcyraeans 4
anything. 4
forth, 4
contrary, 4
avoid 4
twice 4
interpreted, 4
hor@@ 4
ation@@ 4
quen@@ 4
justice 4
naturally 4
cover@@ 4
ind 4
observe 4
events 4
rate, 4
fault 4
see. 4
Accordingly 4
Italy, 4
wrong. 4
promise, 4
begun 4
completed 4
masters 4
Scythi@@ 4
sacred 4
portion 4
sil@@ 4
ter; 4
Andrew, 4
Before 4
foo@@ 4
thanks@@ 4
groun@@ 4
opposed 4
accep@@ 4
exactly 4
force, 4
tidings 4
haste, 4
fifteen 4
east, 4
wealth 4
adi@@ 4
mocked 4
listening 4
ed: 4
Hero@@ 4
appear@@ 4
success, 4
then@@ 4
possible. 4
d-@@ 4
bear@@ 4
fication 4
Aemilius, 4
Judah, 4
pp@@ 4
fol@@ 4
thief 4
strengthened 4
endurance 4
reli@@ 4
Will 4
pointed 4
headed 4
main 4
Ma@@ 4
Ele@@ 4
ase 4
taught. 4
Academy 4
Tow@@ 4
confidence, 4
rem@@ 4
count 4
perish, 4
repentance. 4
partly 4
od@@ 4
rela@@ 4
ve? 4
tic 4
Good 4
ANTI@@ 4
synagogues, 4
part. 4
revealed. 4
chains, 4
thirty-@@ 4
eight 4
alike. 4
rejoic@@ 4
stop 4
bre@@ 4
another? 4
tolerable 4
silent, 4
straight 4
beating 4
Very 4
les@@ 4
beli@@ 4
ever, 4
Cep@@ 4
gets 4
femal@@ 4
dwelt 4
Gel@@ 4
attempt 4
wound 4
pas@@ 4
Cassius, 4
Ga@@ 4
gul@@ 4
f. 4
shoul@@ 4
confirm 4
mour@@ 4
chief@@ 4
ited, 4
basis 4
equally 4
red 4
streams 4
til@@ 4
watch 4
ordinances 4
reed 4
per. 4
Two 4
testified, 4
descending 4
previously 4
foreign 4
recl@@ 4
ining 4
Qu@@ 4
goodness 4
superi@@ 4
revi@@ 4
threat@@ 4
ls, 4
violence 4
serving 4
strength, 4
much, 4
you: 4
shaken 4
pouring 4
provided 4
hun@@ 4
Dionysius, 4
Corinth 4
appoin@@ 4
Macedonia 4
servant. 4
bridegroom 4
ages, 4
alum, 4
ped 4
bloody 4
pour 4
cers, 4
thy@@ 4
ts? 4
Asia, 4
straightway 4
rub@@ 4
questioned 4
courage 4
som@@ 4
properly 4
prison. 4
eth 4
hundre@@ 4
small. 4
tes 4
rha@@ 4
clear@@ 4
ery 4
craf@@ 4
tiness, 4
fam@@ 4
pain@@ 4
na@@ 4
ment@@ 4
cow@@ 4
perished 4
dangerous 4
Phocion 4
behalf, 4
easier 4
there; 4
assured 4
seats 4
ened, 4
reasoning 4
Su@@ 4
punishment 4
well@@ 4
ash@@ 4
shed. 4
sin; 4
ia@@ 4
presently 4
cloaks 4
hy@@ 4
au@@ 4
quiet, 4
funeral 4
dec@@ 4
spel 4
strengthen@@ 4
dang@@ 4
teacher, 4
devoted 4
wom@@ 4
le-@@ 4
Phari@@ 4
waited 4
table, 4
found@@ 4
mast@@ 4
villages, 4
invited, 4
idle 4
reproach 4
Com@@ 4
pres@@ 4
wage 4
ony 4
dro@@ 4
profit@@ 4
ah, 4
Lam@@ 4
fled, 4
scattered 4
Abraham. 4
fear. 4
attain 4
vali@@ 4
o. 4
qui@@ 4
voice. 4
Father@@ 4
sword. 4
household. 4
shat@@ 4
of, 4
clothe 4
stir@@ 4
roll 4
acher 4
question, 4
hil@@ 4
tear 4
Chil@@ 4
redeem 4
armed 4
distinction 4
ement 4
ils, 4
ously, 4
indic@@ 4
cold 4
dies 4
called. 4
oph@@ 4
king's 4
sorry, 4
persecut@@ 4
Indeed, 4
eldest 4
motion 4
pie@@ 4
ers? 4
ingly 4
names 4
tan@@ 4
ra, 4
houses 4
born, 4
fish@@ 4
patri@@ 4
low 4
pel@@ 4
bone 4
bad@@ 4
Furthermore, 4
endu@@ 4
vengeance 4
preva@@ 4
gosp@@ 4
Zeus. 4
heav@@ 4
Nazar@@ 4
led@@ 4
hunger 4
writing 4
woo@@ 4
seven@@ 4
Artemis 4
ian@@ 4
retreat 4
feast@@ 4
ministered 4
order. 4
Nor 4
ruined 4
Fortune 4
actions 4
adorned 4
expected 4
triumph 4
ians. 4
sufferings 4
female 4
harvest 4
clothes, 4
aboun@@ 4
fruitful 4
appetit@@ 4
ow 4
seventy 4
amaz@@ 4
Didn't 4
prayed, 4
benefi@@ 4
firstborn 4
rit@@ 4
vom@@ 4
King@@ 4
writes 4
tow@@ 4
red. 4
power@@ 4
attack, 4
Alcibiades 4
loses 4
ins 4
lex@@ 4
charging 4
promi@@ 4
spoke. 4
Nevertheless 4
white, 4
convulsions, 4
ght 4
one? 4
yourself, 4
harden@@ 4
royal 4
imag@@ 4
exclaimed, 4
steps 4
doors 4
raised, 4
Put 4
quiet 4
size 4
flesh; 4
proof 4
serv@@ 4
men! 4
conduct 4
no, 4
figs 4
rich. 4
Other 4
dangers 4
provide 4
deser@@ 4
ides 4
secre@@ 4
sufferings, 4
perplex@@ 4
aware 4
exces@@ 4
Heav@@ 4
hon@@ 4
tuber@@ 4
requi@@ 4
dings 4
tribes 4
Messenger 4
points 4
story 4
Second 4
self 4
thirsty, 4
driven 4
soever 4
boys 4
murder@@ 4
ach, 4
morning, 4
living. 4
III. 4
(that 4
proportion 4
him: 4
repent. 4
Phar@@ 4
daughters 4
Greeks, 4
mediator 4
democracy 4
Byzanti@@ 4
Lacedaemon 4
lift 4
sleep. 4
kes 4
conco@@ 4
ake. 4
husbands 4
wards 4
myster@@ 4
guilt@@ 4
weep. 4
secret 4
approach 4
return. 4
owed 4
aph@@ 4
gold 4
deed. 4
prophecy 4
sides 4
furnished 4
14 4
father@@ 4
y) 4
liv@@ 4
frank@@ 4
animals 4
hood. 4
immor@@ 4
profan@@ 4
vomiting, 4
Anani@@ 4
need, 4
subjects 4
circumstances 4
from@@ 4
general, 4
ented 4
leavened 4
plac@@ 4
Gal@@ 4
misery 4
cle@@ 4
prophesy 4
rich@@ 4
decision 4
dom@@ 4
crimin@@ 4
lad@@ 4
dom 4
maintain 4
laws. 4
favorable 4
ass 4
moderate 4
song. 4
Next 4
animals, 4
ae. 4
fill 4
distin@@ 4
ines, 4
Anti@@ 4
Unless 4
seed, 4
man; 4
proceeds 4
evening, 4
ys, 4
chat@@ 4
Syracuse, 4
appearing 4
revol@@ 4
silver, 4
abund@@ 4
wives, 4
restored 4
colt 4
reti@@ 4
sted 4
did. 4
pollu@@ 4
ices 4
informed 4
rocky 4
engaged 4
vineyard, 4
enjoyed 4
pe, 4
internal 4
necessity 4
Whom 4
bronze 4
restri@@ 4
friends. 4
anoin@@ 4
elect 4
deliver@@ 4
ats, 4
going. 4
hired 4
attained 4
self. 4
Lor@@ 4
judge, 4
et 4
under@@ 4
mid@@ 4
rode 4
spring. 4
ings; 4
tur@@ 4
juice 4
myrrh 4
catch 4
wounds 4
mix@@ 4
consist@@ 4
Bo@@ 4
dead@@ 4
appetite 4
Cyprus, 4
repro@@ 4
tomorrow 4
everybody 4
trying 4
foolish, 4
soldiers, 4
interpre@@ 4
deceived, 4
men: 4
ai@@ 4
ture@@ 4
finished. 4
gather 4
one's 4
Can@@ 4
writ@@ 4
wro@@ 4
abys@@ 4
Pharnabazus 4
ent; 4
numb@@ 4
laying 4
ges, 4
sorry 4
jealousy 4
almost 4
ied, 4
some@@ 4
confirmed 4
perple@@ 4
xed 4
crates 4
upro@@ 4
discer@@ 4
affirm@@ 4
completely 4
reconciled 4
ile 4
strikes 3
ition. 3
disciple, 3
Mos@@ 3
encourage 3
disposition 3
relief 3
flam@@ 3
colony 3
Helots 3
certainly 3
imitate 3
behave 3
trust@@ 3
spoils. 3
dared 3
Pon@@ 3
shepherd 3
equipped 3
terrifi@@ 3
recru@@ 3
intending 3
Passo@@ 3
ctor 3
boats 3
thes, 3
thes 3
miser@@ 3
miserable 3
season. 3
ot, 3
proving 3
sho@@ 3
embassy 3
sts, 3
stumble, 3
indign@@ 3
full@@ 3
ness? 3
light; 3
test@@ 3
dry, 3
deemed 3
said@@ 3
ctions. 3
commended 3
remarked 3
belly, 3
parted 3
later. 3
dispute 3
prayer. 3
cont@@ 3
Sin@@ 3
dissol@@ 3
elements 3
vent 3
bones 3
heralds 3
herd 3
made, 3
surrender 3
dealt 3
sleep@@ 3
ridicul@@ 3
som 3
all; 3
sus, 3
leav@@ 3
Heaven. 3
oracle 3
AT 3
ve; 3
angels. 3
rejected 3
preci@@ 3
Stre@@ 3
deceive 3
prin@@ 3
Further, 3
Xenophon, 3
perform@@ 3
confesses 3
careful@@ 3
cians 3
descri@@ 3
lik@@ 3
oul@@ 3
mer@@ 3
Its 3
effective 3
preparation 3
peace; 3
refu@@ 3
repent 3
upward, 3
Who@@ 3
't 3
villages 3
ids 3
alle@@ 3
accord, 3
choose 3
virtue 3
honour 3
virtue. 3
dysenter@@ 3
Phi@@ 3
order, 3
medic@@ 3
dice, 3
symp@@ 3
tom 3
ashing 3
desert 3
my@@ 3
shepher@@ 3
scat@@ 3
voluntar@@ 3
willing@@ 3
dinn@@ 3
pic@@ 3
treasury, 3
ury. 3
ore@@ 3
insult 3
row, 3
purple 3
surrounded 3
witnesses, 3
dogs 3
escaping 3
abo@@ 3
ve-@@ 3
mentioned 3
ures. 3
Illyri@@ 3
aving 3
Ad@@ 3
uted 3
Gre@@ 3
cian 3
saw, 3
its, 3
Brut@@ 3
dressed 3
example, 3
delay 3
who@@ 3
wrong, 3
oppres@@ 3
Tyre 3
grown 3
including 3
obtain@@ 3
moral 3
journey. 3
ale@@ 3
excu@@ 3
bird 3
kingdom@@ 3
ving 3
given. 3
settled 3
morning 3
death@@ 3
Peloponnese, 3
others; 3
made. 3
says. 3
stripped 3
powers, 3
triumph@@ 3
host@@ 3
‘I 3
inclined 3
listen. 3
Athena 3
regi@@ 3
Phili@@ 3
savage 3
trireme 3
decree 3
Cyprus 3
absent 3
kiss 3
ia. 3
cus. 3
WH@@ 3
AC@@ 3
customs. 3
Every@@ 3
flows 3
crates, 3
certain@@ 3
account. 3
beauty 3
thing; 3
man? 3
evident 3
praet@@ 3
ori@@ 3
guard, 3
bonds 3
Through 3
ally, 3
sincer@@ 3
commanded, 3
privately, 3
murder. 3
argum@@ 3
line 3
confusion 3
aches 3
firm@@ 3
At@@ 3
star@@ 3
Cambyses 3
revolted 3
Samos 3
They, 3
Taking 3
poem@@ 3
aea, 3
knowled@@ 3
effected 3
Thir@@ 3
sow, 3
leaped 3
womb 3
ends 3
Lu@@ 3
advantageous 3
ging, 3
terms 3
concluded 3
Cer@@ 3
Antioch, 3
ministering 3
Simon@@ 3
tou@@ 3
successes 3
trees, 3
whence 3
kindness, 3
approve 3
instructed 3
hypocrites! 3
preten@@ 3
Egyptians 3
announce 3
goodwill 3
decrees 3
mir@@ 3
gam@@ 3
retur@@ 3
nav@@ 3
ots 3
conveni@@ 3
great, 3
weary 3
store 3
officer, 3
exhorted 3
des, 3
Spartan, 3
poo@@ 3
commission 3
Pre@@ 3
paration 3
Day 3
compare 3
customs 3
heard. 3
quick@@ 3
wre@@ 3
ck 3
painful 3
en: 3
cloak@@ 3
dust 3
entreat 3
hastening 3
gall@@ 3
op, 3
naval 3
military 3
staf@@ 3
ake 3
ours 3
parable. 3
Rom@@ 3
For@@ 3
fellow@@ 3
gh 3
utations 3
wife? 3
Mag@@ 3
sow@@ 3
deliberate 3
zeal 3
eyes. 3
failed 3
revolt, 3
yed, 3
mankind. 3
charge, 3
sed? 3
terrible 3
our@@ 3
haz@@ 3
divisions, 3
by. 3
daw@@ 3
doing, 3
ell@@ 3
AX@@ 3
ousness 3
best. 3
cap@@ 3
preceded 3
Lacedaemonians, 3
wages 3
denies 3
Hi@@ 3
sist@@ 3
Pri@@ 3
Ones@@ 3
lust 3
eled 3
asleep. 3
uring 3
diseases. 3
stree@@ 3
servants. 3
sincere 3
reminding 3
king; 3
bles@@ 3
twenty-five 3
Poseid@@ 3
Nasi@@ 3
again@@ 3
relieve 3
indeed. 3
wasting 3
wind, 3
calm@@ 3
occur@@ 3
immediately. 3
accompanied 3
indignant 3
blasph@@ 3
emed 3
heads, 3
ardent 3
slight 3
oration 3
Megab@@ 3
az@@ 3
shame 3
Academ@@ 3
access 3
sanctu@@ 3
doctrines 3
break@@ 3
untying 3
ures, 3
Titus 3
ser@@ 3
questioning 3
rup@@ 3
bows 3
Corcyrae@@ 3
look@@ 3
opening 3
ir. 3
stoned 3
enjoying 3
experience 3
induced 3
wrought 3
marv@@ 3
cleanse 3
spit 3
phes@@ 3
advanced 3
religion 3
memb@@ 3
desired. 3
young@@ 3
execu@@ 3
ill, 3
Hermo@@ 3
bit@@ 3
tered 3
souls 3
corrupti@@ 3
enjo@@ 3
glo@@ 3
Both 3
employed 3
fields 3
arguments 3
incur 3
fourteen 3
fatal 3
pregn@@ 3
dam 3
communion 3
ist@@ 3
earing 3
ered 3
Sit 3
suppli@@ 3
dismissed 3
stars 3
ken. 3
cloud, 3
Listen 3
lear@@ 3
friendly 3
Tiber@@ 3
us) 3
ambassador 3
bol@@ 3
restore 3
Aeginet@@ 3
bru@@ 3
Pyth@@ 3
general. 3
ium 3
design 3
goddess, 3
contain@@ 3
charges 3
Thucydides 3
rejoicing 3
learned, 3
el; 3
Rhegi@@ 3
allies. 3
etus 3
magni@@ 3
dela@@ 3
ven 3
blac@@ 3
ians, 3
Greeks. 3
This, 3
ascended 3
Demetrius, 3
yl@@ 3
cloak, 3
ded; 3
routed 3
reje@@ 3
natural, 3
sooner 3
ely; 3
had. 3
Attica, 3
ned 3
Croesus, 3
mist@@ 3
Cappadoci@@ 3
rises 3
inside 3
wither@@ 3
abundance, 3
(as 3
rejected, 3
Mantin@@ 3
permitted 3
risk 3
Send 3
lod@@ 3
returning 3
testimon@@ 3
bare 3
wheat, 3
me: 3
feeling 3
told. 3
piece 3
coasted 3
doctrine 3
Ah! 3
manage 3
grac@@ 3
eful@@ 3
delayed 3
ended. 3
stones. 3
Fi@@ 3
healing 3
lack 3
distributed 3
nothing; 3
wel@@ 3
rest@@ 3
armour 3
Spart@@ 3
ven, 3
property 3
labor, 3
ently, 3
conceived 3
Isaac@@ 3
dear@@ 3
thee. 3
hab@@ 3
boun@@ 3
promising 3
aim 3
wo@@ 3
ave 3
symptoms 3
sisters 3
toil, 3
progress 3
slow 3
raging 3
sto@@ 3
gged 3
Pra@@ 3
complain@@ 3
Che@@ 3
differ@@ 3
edi@@ 3
drank 3
sanctify 3
cleansed 3
voic@@ 3
time; 3
ly? 3
terrified 3
supposed 3
l. 3
ans; 3
cree@@ 3
ping 3
plundering 3
idol@@ 3
cei@@ 3
religious 3
Moreover 3
Thebans 3
retorted, 3
Thebans, 3
El@@ 3
Er@@ 3
contenti@@ 3
u 3
giver 3
here@@ 3
Red 3
seen. 3
Samoth@@ 3
Ne@@ 3
ments, 3
wasted 3
twelve. 3
tly. 3
either, 3
march 3
skilled 3
ft 3
ure 3
borne 3
sli@@ 3
ugly 3
soul@@ 3
dn't 3
sky. 3
resolution 3
ere@@ 3
neighbors, 3
herald 3
”@@ 3
sacrifice, 3
strong, 3
foot, 3
compet@@ 3
envy, 3
sea; 3
abundant 3
visi@@ 3
daugh@@ 3
that? 3
enough, 3
absolute 3
sup@@ 3
deeds, 3
Tarqu@@ 3
inius 3
price 3
eus; 3
advance 3
prevent 3
abundance 3
enrol@@ 3
ment 3
Syri@@ 3
real 3
fifty 3
back. 3
kind, 3
impe@@ 3
leaders 3
running 3
pe. 3
ointment 3
burial. 3
value 3
fan@@ 3
attached 3
maj@@ 3
mortals 3
fathom@@ 3
surname 3
weakness, 3
lost, 3
perver@@ 3
games, 3
da, 3
bless 3
tus, 3
tus. 3
myrr@@ 3
frankincen@@ 3
ago, 3
tions, 3
strongest 3
leaves, 3
Par@@ 3
removing 3
eri@@ 3
coast 3
vul@@ 3
ency 3
ough 3
triremes 3
Hicetas 3
concerned 3
women@@ 3
star 3
altar, 3
oppression 3
good; 3
astray, 3
ps, 3
physician 3
tossed 3
vein 3
Titus, 3
ashes 3
bodies. 3
big@@ 3
defense 3
Where@@ 3
preparations 3
paral@@ 3
faithful. 3
Earth, 3
loa@@ 3
f 3
ied 3
Antipater 3
court, 3
partial 3
Jon@@ 3
virtuous 3
Alcibiades, 3
imit@@ 3
unjust 3
uncircumcision, 3
an; 3
sense, 3
declaring 3
deeds. 3
pieces, 3
trespas@@ 3
chamber 3
past@@ 3
subjugated 3
besieged 3
Medes, 3
ceas@@ 3
envoy 3
Messal@@ 3
wing 3
asmuch 3
arm 3
information 3
plot 3
long. 3
k-@@ 3
Heracle@@ 3
priestess 3
constant 3
Alexander, 3
lou@@ 3
pt 3
ree@@ 3
asleep 3
sed; 3
scri@@ 3
enslaved 3
drinking, 3
C 3
fight. 3
Aene@@ 3
eleven 3
repeat@@ 3
tw@@ 3
trumpet 3
ble, 3
pear@@ 3
awa@@ 3
Daugh@@ 3
marriage. 3
inscription 3
have. 3
citizen 3
same. 3
ous; 3
scourge 3
Barab@@ 3
contempt 3
ounded 3
Serv@@ 3
masters, 3
leness 3
they, 3
regarding 3
suspected 3
ambitious 3
dream@@ 3
croo@@ 3
generation, 3
ghts 3
found. 3
poor. 3
Coming 3
Tissaphernes 3
hel@@ 3
bread@@ 3
marry, 3
Italy 3
calcul@@ 3
phe@@ 3
shows 3
decep@@ 3
woman. 3
safe. 3
solid 3
here? 3
diment 3
sheep, 3
knew, 3
late 3
perish@@ 3
percei@@ 3
skin@@ 3
hindered 3
itable 3
renewed 3
rho@@ 3
double 3
glorifying 3
amid 3
end. 3
spear, 3
Saul@@ 3
garrison 3
sacrifi@@ 3
Agripp@@ 3
baggage 3
tetr@@ 3
captive, 3
similar 3
onian 3
exhortation, 3
pursued 3
alive, 3
slaugh@@ 3
ances 3
enterpri@@ 3
se? 3
ing-@@ 3
disgrac@@ 3
Tha@@ 3
son’s 3
and@@ 3
larg@@ 3
Art@@ 3
follow@@ 3
horse 3
reputation 3
Brutus. 3
ses' 3
witnesses. 3
silence 3
Amphi@@ 3
complaints 3
perplexity 3
Peloponnese. 3
wars 3
Pr@@ 3
spontan@@ 3
sleeping 3
eagerly 3
ered. 3
Heracleides 3
devi@@ 3
torn 3
sive 3
covered 3
enters 3
whomever 3
sows 3
y's 3
cked 3
maid 3
utterly 3
happened. 3
better, 3
ignorance 3
midst, 3
Ra@@ 3
chast@@ 3
Thebes, 3
obtaining 3
west, 3
enus, 3
ruin@@ 3
Though 3
voi@@ 3
citadel 3
killed, 3
about. 3
wiped 3
supplication 3
murmur@@ 3
enti@@ 3
Sem@@ 3
deadly 3
asleep, 3
Darius, 3
full. 3
fu@@ 3
olive 3
election 3
w. 3
Syracuse 3
danger 3
weapons 3
dire@@ 3
doing? 3
islan@@ 3
recovering 3
fool@@ 3
frequently 3
quick 3
round, 3
higher 3
essing 3
ses? 3
considering 3
safety 3
Miletus 3
mann@@ 3
utter 3
tast@@ 3
men’s 3
sits 3
gation 3
Hellenes 3
finished, 3
pin@@ 3
upright 3
supper 3
jun@@ 3
supper, 3
sort 3
Men@@ 3
bad, 3
forgot 3
inhabitants 3
distance 3
gy 3
destroy@@ 3
strai@@ 3
strongly 3
wind. 3
Andro@@ 3
mention@@ 3
gir@@ 3
ow. 3
proceeded 3
inasmuch 3
pled@@ 3
opinion 3
ruin. 3
breaking 3
determin@@ 3
diseas@@ 3
war; 3
burnt 3
pleasure. 3
creation 3
fri@@ 3
season 3
near@@ 3
hosp@@ 3
oned 3
Archidamus 3
throne, 3
proportion@@ 3
snat@@ 3
Pel@@ 3
awaiting 3
ore 3
wail@@ 3
palace 3
school@@ 3
old. 3
ot 3
ained 3
difficulty, 3
help@@ 3
posses@@ 3
Aut@@ 3
thousand. 3
instru@@ 3
persecute 3
paci@@ 3
vision 3
ken 3
properly, 3
duty 3
rid 3
heaven; 3
ene. 3
defrau@@ 3
hungr@@ 3
delivering 3
kings, 3
citizens, 3
worse, 3
happens, 3
small, 3
fif@@ 3
Without 3
d), 3
commend 3
ding. 3
poet 3
fast, 3
Der@@ 3
little, 3
gor@@ 3
burst 3
seasons, 3
glad@@ 3
ze, 3
tic, 3
nak@@ 3
yoke 3
quiet. 3
wall, 3
Dis@@ 3
division, 3
hearing, 3
note 3
ary. 3
prayers, 3
‘@@ 3
of. 3
spears 3
tar@@ 3
elder 3
unlike 3
decide 3
temptation 3
Hermes, 3
Just 3
avoided 3
hostilities 3
private 3
ded? 3
Paul@@ 3
person. 3
too. 3
mouths 3
gain@@ 3
opportunity 3
discipline 3
particip@@ 3
rob@@ 3
sle@@ 3
custod@@ 3
astoni@@ 3
shed, 3
Young 3
moon, 3
asp@@ 3
bow 3
sh. 3
sians 3
violence, 3
ction@@ 3
ately 3
longing 3
open, 3
intest@@ 3
Oen@@ 3
ments 3
ounding 3
ae, 3
destroyed, 3
Acha@@ 3
dinner. 3
host 3
neighbor@@ 3
loved. 3
assing 3
creatures 3
food, 3
len@@ 3
fulfilled. 3
arch 3
yed 3
mil@@ 3
talents 3
talents. 3
habit@@ 3
sides. 3
shadow@@ 3
Jesus; 3
east 3
brea@@ 3
likely 3
ward; 3
senses 3
stranger 3
tears, 3
Brutus, 3
quarrel 3
fought 3
deserted 3
robbed 3
friend. 3
not@@ 3
Ephesus 3
asked, 3
incense. 3
restricted 3
Boeoti@@ 3
laws, 3
ented, 3
succeeded 3
office, 3
last. 3
dwells 3
encouragement 3
perfected 3
happens 3
Love 3
constrained 3
reconcili@@ 3
expectation 3
wrong@@ 3
oaths 3
Arist@@ 3
pride 3
lee 3
ity! 3
immorality 3
three, 3
six@@ 3
payment 3
closed 3
diligent 3
lep@@ 3
He, 3
onia 3
queen 3
planted 3
repor@@ 3
oath, 3
Besides, 3
glorious 3
dran@@ 3
sold, 3
office 3
Feli@@ 3
mourned 3
rising 3
Aphrodite 3
thed 3
d's 3
beaten 3
Macedonians, 3
shout 3
ke; 3
great@@ 3
arose, 3
pay, 3
had, 3
ppus, 3
heed 3
ination 3
court 3
Col@@ 3
escape. 3
enes, 3
continually 3
fication, 3
her? 3
Bro@@ 3
Children 3
dir@@ 3
chance 3
bs 3
pot@@ 3
relent@@ 3
val@@ 3
captive 3
wret@@ 3
capti@@ 3
complaint 3
assistance 3
Min@@ 3
ult@@ 3
Pamphyli@@ 3
atten@@ 3
walk. 3
chan@@ 3
ct; 3
devoured 3
tran@@ 3
child@@ 3
son@@ 3
pillar 3
gain. 3
ans: 3
later, 3
anti@@ 3
Alas! 3
ens, 3
beneath 3
merchant@@ 3
fortune. 3
stu@@ 3
rist@@ 3
bb@@ 3
precious 3
period 3
daughter, 3
mild 3
bent 3
road@@ 3
wrest@@ 3
learn, 3
Brasidas 3
polis. 3
kiss. 3
aeans 3
blame 3
worn 3
force. 3
spend 3
ows 3
sitt@@ 3
ves@@ 3
forbade 3
expedient 3
hungry 3
ck, 3
unworthy 3
entre@@ 3
forbidden 3
ken, 3
shine 3
aï@@ 3
concei@@ 3
Antio@@ 3
kis@@ 3
schem@@ 3
Out 3
fel@@ 3
lawless 3
day's 3
has. 3
fate 3
ign@@ 3
seat 3
Thracians, 3
Little 3
stus 3
door. 3
intermittent 3
nal 3
tyranny. 3
limb@@ 3
changed, 3
Argos. 3
south 3
attend 3
walled 3
Yet, 3
heads 3
beforehand 3
difficult. 3
inju@@ 3
knees, 3
mortal. 3
dies. 3
stom@@ 3
cial 3
bodies, 3
pon@@ 3
parties 3
lying. 3
Mil@@ 3
ost@@ 3
table. 3
res. 3
eas@@ 3
appealed 3
ancient 3
hypocri@@ 3
affected 3
cts 3
months 3
assigned 3
shared 3
chus, 3
Nico@@ 3
beside 3
Andromache 3
fixed 3
Sital@@ 3
Ter@@ 3
deli@@ 3
popul@@ 3
inner 3
cus, 3
offers 3
sun@@ 3
Cilici@@ 3
free@@ 3
needy 3
boiled 3
liqu@@ 3
vig@@ 3
saf@@ 3
nowing 3
effecti@@ 3
Greece. 3
claims 3
strate 3
ordin@@ 3
reason, 3
pain. 3
teachers 3
shu@@ 3
rig@@ 3
recon@@ 3
cheer 3
unit@@ 3
sing. 3
risking 3
Unti@@ 3
Olym@@ 3
fied 3
quart@@ 3
inv@@ 3
benef@@ 3
find. 3
ry@@ 3
provisions 3
nourished 3
consent 3
inde@@ 3
yes 3
als. 3
shun 3
justly 3
man’s 3
instruct 3
adop@@ 3
regul@@ 3
main@@ 3
workers 3
bladder 3
party, 3
valour 3
spare 3
yielded 3
lar@@ 3
impious 3
nature, 3
jaw@@ 3
long@@ 3
off@@ 3
persons, 3
require 3
difficul@@ 3
province 3
Nothing 3
replied 3
Do@@ 3
danger@@ 3
lend 3
receive, 3
Xenophon 3
penalty 3
fault@@ 3
Ser@@ 3
sends 3
responsible 3
aem@@ 3
blad@@ 3
ition, 3
la, 3
Calli@@ 3
mounted 3
oint@@ 3
languages, 3
dare 3
still, 3
sity 3
ice. 3
heavily 3
tain 3
hei@@ 3
Deli@@ 3
rightly 3
son? 3
pitch@@ 3
memorial 3
lux@@ 3
(the 3
bless@@ 3
cruel 3
goddesses 3
daily 3
dians 3
branches 3
Phrygia, 3
arch@@ 3
hunt 3
virgin 3
deje@@ 3
Enter 3
Char@@ 3
Mene@@ 3
health 3
INGS 3
blow 3
pus, 3
inquire 3
ory 3
foolishness 3
ure; 3
generation. 3
ud 3
absur@@ 3
doors, 3
Wom@@ 3
Euthy@@ 3
corre@@ 3
instruction 3
etern@@ 3
nel 3
that@@ 3
above, 3
walked 3
evacu@@ 3
sorrow, 3
breach 3
bind 3
vict@@ 3
ates; 3
disagree@@ 3
passages 3
months. 2
arity 2
insulted 2
disorder@@ 2
singing 2
praises 2
holds 2
Brasidas, 2
Strymon@@ 2
conducted 2
lessly 2
may, 2
rapidly 2
rebelli@@ 2
wonder 2
attacks 2
Dam@@ 2
instructions 2
vote 2
wish@@ 2
god. 2
tius 2
path 2
days' 2
squ@@ 2
ads 2
ep 2
moder@@ 2
const@@ 2
eful 2
wreath 2
rather, 2
nau@@ 2
submit 2
Hephaest@@ 2
ninety-@@ 2
farmers, 2
chamb@@ 2
ing: 2
read, 2
speech. 2
plainly 2
envious 2
revolu@@ 2
lodged 2
exile 2
corpse 2
right, 2
helle@@ 2
ysenter@@ 2
madness 2
hable 2
conclusion 2
gentle@@ 2
occupation 2
benefactor@@ 2
soon, 2
cheered 2
doing. 2
tas@@ 2
afar, 2
remin@@ 2
widely 2
begging 2
entreat@@ 2
ychi@@ 2
First, 2
occasi@@ 2
redem@@ 2
shame, 2
effect@@ 2
ual 2
ret@@ 2
followed, 2
producing 2
The@@ 2
whe@@ 2
final 2
confirm@@ 2
common@@ 2
ory, 2
ants. 2
Hag@@ 2
gaining 2
refrain 2
auspi@@ 2
cious 2
itting 2
connected 2
yr@@ 2
amb@@ 2
pig@@ 2
pigs 2
secret, 2
port@@ 2
course, 2
fal@@ 2
ther. 2
org@@ 2
determined, 2
door, 2
plain@@ 2
drive 2
goddess 2
our. 2
commendation 2
rites 2
purification 2
Certain@@ 2
madness, 2
passion 2
wan@@ 2
ea@@ 2
forty-@@ 2
fitted 2
give, 2
another's 2
farewell, 2
h! 2
appeared, 2
Cor@@ 2
conten@@ 2
ities. 2
profits 2
arise, 2
age; 2
persuasi@@ 2
aspe@@ 2
Pylos 2
salt 2
tered. 2
pher@@ 2
despised 2
religi@@ 2
bid 2
fare@@ 2
mentioned, 2
stationed 2
bed. 2
oom 2
stat@@ 2
capital 2
lake 2
armies, 2
perform 2
generals, 2
colleagues 2
ches, 2
waters 2
forward, 2
King. 2
natur@@ 2
dress 2
flight. 2
thef@@ 2
wanted, 2
form, 2
aveng@@ 2
striking 2
wear@@ 2
oh! 2
fic@@ 2
prov@@ 2
ability. 2
nighting@@ 2
mony 2
constitu@@ 2
whole, 2
rain@@ 2
mortal@@ 2
Aeolians 2
Cle@@ 2
ipp@@ 2
ator. 2
princi@@ 2
openly, 2
Mae@@ 2
erable 2
be; 2
regar@@ 2
suspicion 2
helped 2
enjoy 2
successful 2
fashion. 2
Cim@@ 2
’@@ 2
occup@@ 2
exc@@ 2
entrance 2
Syr@@ 2
lit 2
remain@@ 2
contributed 2
armament 2
commanders 2
Mac@@ 2
Iso@@ 2
ranks 2
ning 2
brai@@ 2
je@@ 2
env@@ 2
these; 2
nul@@ 2
fav@@ 2
lips 2
selfish 2
deaf 2
Peloponnese 2
Attica 2
affliction, 2
angel, 2
troops 2
tren@@ 2
itself; 2
Lamb@@ 2
las, 2
manly 2
attac@@ 2
Samos@@ 2
es' 2
dence, 2
planned 2
presented 2
abs@@ 2
merchants 2
teenth 2
ge; 2
inflict 2
utmost 2
withdraw@@ 2
Cro@@ 2
greeting 2
cius, 2
experi@@ 2
subsequent 2
tau@@ 2
nation@@ 2
raz@@ 2
rock 2
ks, 2
ordering 2
shouted 2
overthrown 2
twel@@ 2
adding 2
mean? 2
salv@@ 2
acts 2
year. 2
Ap@@ 2
green 2
procur@@ 2
cities. 2
Learning 2
for? 2
secured 2
smaller 2
centuri@@ 2
consu@@ 2
Hy@@ 2
shield, 2
persuasion 2
chann@@ 2
collection 2
rer 2
eupon 2
cus 2
Any@@ 2
depart@@ 2
oracle. 2
reproaches 2
produced 2
individu@@ 2
cul@@ 2
ading 2
kle 2
Wor@@ 2
ak 2
fortune, 2
Leon@@ 2
sett@@ 2
skill 2
Cyrus, 2
f-@@ 2
officers, 2
wandering 2
collecting 2
question. 2
oning 2
ched, 2
black@@ 2
cept 2
confron@@ 2
bac@@ 2
camp, 2
suspicious 2
pretext 2
true, 2
reap@@ 2
storm, 2
inquiry, 2
grand@@ 2
resist@@ 2
author 2
dit@@ 2
wep@@ 2
cti@@ 2
tians, 2
unti@@ 2
tering 2
goodly 2
ard, 2
banished 2
peril 2
Seuthes 2
destined 2
adoption 2
Men 2
exceed@@ 2
ingly, 2
abolished 2
harbor 2
Syracusans. 2
Spe@@ 2
wail 2
piti@@ 2
deci@@ 2
warri@@ 2
quil@@ 2
phor@@ 2
feast. 2
accounts 2
cure 2
presence, 2
reconcile 2
now@@ 2
bed, 2
trap 2
setting 2
Syracu@@ 2
casts 2
fell, 2
eight@@ 2
cauldron 2
aim@@ 2
widows 2
possessions. 2
servi@@ 2
ke, 2
Phthi@@ 2
eighteen 2
thirty-five 2
endur@@ 2
wag@@ 2
Ha@@ 2
cough@@ 2
trumpet, 2
Pausanias 2
ary, 2
hang@@ 2
blu@@ 2
ched. 2
bitter@@ 2
mali@@ 2
ving, 2
ju@@ 2
foot 2
Muses 2
magistrates 2
alliance, 2
assistance. 2
condemnation 2
arranged 2
remember@@ 2
farmers 2
nin@@ 2
freedom. 2
freedom 2
received, 2
commend@@ 2
Caperna@@ 2
ni@@ 2
gent 2
reckoned 2
exercise 2
enabled 2
XX@@ 2
elus 2
maim@@ 2
folk, 2
works; 2
seri@@ 2
trac@@ 2
corn, 2
thre@@ 2
conquer 2
inherit@@ 2
kind@@ 2
What@@ 2
wedding 2
lie. 2
reven@@ 2
ay, 2
cables 2
doubt, 2
plied 2
utation 2
Hera 2
supplic@@ 2
separate 2
guilty, 2
class 2
deliberated 2
ius. 2
Capit@@ 2
dly, 2
husband@@ 2
agreement 2
Leutychides 2
play@@ 2
stra 2
oblig@@ 2
slen@@ 2
yiel@@ 2
Rem@@ 2
beginning, 2
performed 2
gue 2
spies 2
speci@@ 2
winter@@ 2
histori@@ 2
assembly; 2
barley 2
Other@@ 2
thence 2
principal 2
Cari@@ 2
cians, 2
Ionians 2
otherwise, 2
shepherds 2
teacher@@ 2
Jacob, 2
divin@@ 2
tell@@ 2
oti@@ 2
orig@@ 2
flood 2
Artemis, 2
craft@@ 2
results 2
expen@@ 2
enemy’s 2
opposite. 2
asser@@ 2
indepen@@ 2
reduced 2
fancy 2
confounded 2
urge 2
aking 2
invad@@ 2
expecting 2
humili@@ 2
luxuri@@ 2
Pil@@ 2
suppo@@ 2
Heli@@ 2
pit@@ 2
builders 2
When, 2
eia, 2
states 2
reading 2
grain, 2
kind. 2
restr@@ 2
carefully 2
Socrates 2
continues 2
aboard 2
steal@@ 2
fidel@@ 2
adorn 2
anywhere 2
comm@@ 2
consult 2
musi@@ 2
fairly 2
arti@@ 2
superiority 2
numbers 2
secon@@ 2
execution 2
impossible, 2
fortific@@ 2
cli@@ 2
ght@@ 2
fulness 2
below 2
sur@@ 2
av@@ 2
walls, 2
ans’ 2
walls. 2
Lo@@ 2
bodi@@ 2
descend 2
pul@@ 2
ced 2
midd@@ 2
le: 2
top@@ 2
discussion 2
Tor@@ 2
acher@@ 2
Agis 2
entreated 2
failing 2
Lord! 2
commencement 2
strong@@ 2
divisions 2
onicus 2
uni@@ 2
prisoners, 2
notable 2
fing@@ 2
ron, 2
ez@@ 2
abbed 2
Four 2
washing 2
urgent 2
voices 2
ew 2
special 2
evid@@ 2
preced@@ 2
also? 2
thickness 2
tam@@ 2
joy@@ 2
enduring 2
temples 2
What, 2
rank 2
general@@ 2
pe; 2
prize 2
custom, 2
Did@@ 2
mortals. 2
ref@@ 2
where, 2
batt@@ 2
world; 2
greatly, 2
ache@@ 2
kills 2
famil@@ 2
harm. 2
thither, 2
belonging 2
prompted 2
effect 2
suspicions 2
fted 2
us), 2
settle 2
discovered 2
festival, 2
Victory 2
confusion, 2
rushed 2
theat@@ 2
Aristarchus, 2
ared 2
ir 2
serve, 2
chiefly 2
were. 2
Ethiop@@ 2
drachma 2
burning, 2
nim@@ 2
Olympic 2
run, 2
threats 2
they. 2
impl@@ 2
ses@@ 2
Samians 2
friendship 2
refle@@ 2
odds 2
age? 2
mountain. 2
might@@ 2
physician, 2
circ@@ 2
eclip@@ 2
Hellas. 2
fact, 2
head. 2
honourable 2
administration 2
by@@ 2
net 2
opinion, 2
guide, 2
positions 2
narrow@@ 2
afore@@ 2
horse@@ 2
besides, 2
fulfill@@ 2
nostri@@ 2
debt 2
adversary 2
ement. 2
courage. 2
Ital@@ 2
breakfast 2
stretch 2
view 2
orders 2
imposed 2
severity 2
guards, 2
m. 2
pr@@ 2
wickedness 2
purified 2
ly: 2
Although 2
Peloponnesus 2
Lat@@ 2
pious 2
Casca, 2
addressing 2
ahead 2
scales 2
der; 2
poun@@ 2
ol, 2
gar 2
fun@@ 2
pomegran@@ 2
Em@@ 2
Corinthians, 2
furi@@ 2
somewhere 2
intend 2
enemies. 2
proceed@@ 2
diligence 2
Word 2
reported, 2
consul, 2
believed, 2
whisper@@ 2
messengers 2
Eu@@ 2
hes@@ 2
Cin@@ 2
narrow 2
deal 2
gently 2
annul@@ 2
weakness 2
usel@@ 2
containing 2
expected. 2
bride@@ 2
accustomed 2
leaves 2
crisi@@ 2
come; 2
offici@@ 2
ction; 2
supplied 2
akes 2
encountered 2
situ@@ 2
Brother@@ 2
vap@@ 2
vani@@ 2
provisions, 2
action. 2
stand. 2
up; 2
holy. 2
error 2
unjustly, 2
stroke 2
fall. 2
rise, 2
explain@@ 2
Wat@@ 2
age@@ 2
onto 2
bly, 2
avoiding 2
overthrew 2
money-@@ 2
ers' 2
tables 2
complet@@ 2
list@@ 2
greatest, 2
letters. 2
seasons 2
itted, 2
clever@@ 2
rivalry 2
opini@@ 2
senseless 2
around, 2
trial 2
soil 2
non@@ 2
fiery 2
conf@@ 2
hypocrit@@ 2
venge@@ 2
fail 2
embrace 2
wed@@ 2
vanqui@@ 2
know; 2
Hellespont 2
guard. 2
slaves 2
Cimon, 2
Milti@@ 2
Psam@@ 2
mis 2
reigned 2
years; 2
thereafter 2
bit 2
mish 2
master, 2
provo@@ 2
disorder 2
inius, 2
invaded 2
besi@@ 2
mind; 2
ola@@ 2
quar@@ 2
vessels; 2
ep, 2
Blac@@ 2
Dol@@ 2
Thessalians, 2
finally, 2
supre@@ 2
on's 2
way: 2
season, 2
trained 2
e's 2
quarrel@@ 2
fined 2
quarrel. 2
hastened 2
straight@@ 2
belief 2
lion 2
position, 2
dies, 2
trumpe@@ 2
perhaps, 2
fini@@ 2
suitable 2
robe 2
modes@@ 2
expensive 2
educ@@ 2
divide 2
Cornelius 2
alian 2
inherited 2
address 2
ders. 2
accur@@ 2
ext@@ 2
chus. 2
reproach, 2
Pho@@ 2
cae@@ 2
deliber@@ 2
ating, 2
Harpagus 2
lun@@ 2
so? 2
drink@@ 2
greedy 2
cies 2
sweat 2
ascen@@ 2
surpasses 2
stered 2
think, 2
condu@@ 2
safety, 2
abide 2
hem@@ 2
blameless 2
set, 2
abroad, 2
living, 2
Athen@@ 2
agoras, 2
she, 2
building, 2
conversation 2
dea 2
wretched 2
posing 2
passage 2
expedi@@ 2
popular 2
armistice 2
four@@ 2
told, 2
reput@@ 2
maid, 2
peop@@ 2
practic@@ 2
ga@@ 2
devout 2
Whenever 2
gladness 2
accurately 2
vei@@ 2
discour@@ 2
wonderful 2
wn 2
disturb 2
Cre@@ 2
arg@@ 2
itself. 2
water; 2
angui@@ 2
Greek. 2
ach. 2
acropolis. 2
silent 2
prepared, 2
shrink 2
saving 2
soul. 2
invo@@ 2
Api@@ 2
shre@@ 2
Coun@@ 2
Thrace 2
Psammen@@ 2
rebel@@ 2
alli@@ 2
stock 2
Dion. 2
dae@@ 2
eye. 2
Gylippus 2
term@@ 2
conflict 2
oursel@@ 2
ves; 2
suffici@@ 2
chamber@@ 2
fallen, 2
case, 2
toils 2
unjust. 2
principles 2
flowing 2
lesser 2
Alexandri@@ 2
regards 2
loc@@ 2
hid@@ 2
treasures 2
thiev@@ 2
uc@@ 2
polis 2
wast@@ 2
disturban@@ 2
timber 2
character 2
oaths, 2
guests, 2
goes, 2
Tis 2
exercised 2
second, 2
haste 2
Un@@ 2
hidden, 2
sheep. 2
towers 2
rip@@ 2
inus 2
deep@@ 2
lat@@ 2
youth, 2
gate, 2
Rhod@@ 2
answer. 2
V 2
Such, 2
exped@@ 2
sorrow. 2
faces, 2
resist 2
expo@@ 2
ther, 2
write: 2
two-@@ 2
things: 2
orator, 2
ad. 2
mad, 2
senses, 2
Tanag@@ 2
ra 2
Were 2
ble. 2
Well 2
when, 2
exact 2
sac@@ 2
sea-@@ 2
friendship, 2
ep. 2
sou@@ 2
cost 2
wars, 2
counsellor 2
Persians; 2
guided 2
mocking 2
ry, 2
jeal@@ 2
ber, 2
breastplate 2
Acropolis 2
cement 2
Scipio, 2
exal@@ 2
inscri@@ 2
ption@@ 2
mode 2
paths 2
walks 2
sleeping, 2
proclaiming 2
seal@@ 2
ll 2
arriving 2
Ulysses 2
suitors 2
elo@@ 2
fifty-@@ 2
imprison@@ 2
Libyans 2
ury, 2
crisis, 2
stimul@@ 2
asing 2
avenge 2
disciple. 2
ves? 2
them@@ 2
virtu@@ 2
Acarnani@@ 2
was@@ 2
Attica. 2
tasted 2
Pericles 2
Peloponnes@@ 2
hit 2
freedom, 2
magistrates, 2
agit@@ 2
Ephor@@ 2
personally 2
Asi@@ 2
behalf. 2
oath@@ 2
suffer, 2
Asia. 2
Sim@@ 2
Is@@ 2
folly 2
opolis 2
ambi@@ 2
winds, 2
flame 2
convo@@ 2
washed, 2
faul@@ 2
publi@@ 2
explan@@ 2
serve. 2
pleasant 2
moderately 2
dian, 2
examples 2
testifying 2
restrained 2
previous 2
fix@@ 2
cture, 2
gui@@ 2
des. 2
engra@@ 2
tyranny 2
radi@@ 2
ish 2
vehemently 2
ʼ 2
innocent 2
dicted 2
hea@@ 2
wounded 2
Potidaea 2
block@@ 2
thee 2
machus, 2
impli@@ 2
cated 2
plea@@ 2
Assem@@ 2
tion@@ 2
deceit 2
hearts. 2
burn@@ 2
forces, 2
Ver@@ 2
COMPAR@@ 2
sure@@ 2
foes 2
transgress@@ 2
offerings 2
shooting 2
conjectured 2
Carthaginians, 2
offered, 2
urer 2
Heracles, 2
west 2
insul@@ 2
none. 2
Sardis 2
ue 2
plain, 2
seas@@ 2
ile, 2
speed@@ 2
seal 2
twi@@ 2
robbers 2
ahead, 2
sy@@ 2
obe@@ 2
Leader 2
broo@@ 2
hal@@ 2
written. 2
ate; 2
houses. 2
darkness. 2
admiral, 2
Cyrus' 2
yours. 2
uses 2
sul@@ 2
stone. 2
moon 2
conveyed 2
tight@@ 2
prai@@ 2
accusation, 2
Cleomenes 2
confer@@ 2
ences 2
peril, 2
Pow@@ 2
mass 2
coff@@ 2
ours, 2
sojour@@ 2
fru@@ 2
recognize 2
market 2
could, 2
regarded 2
belonged 2
rule, 2
rulers. 2
deceiving 2
enough. 2
hung 2
neck, 2
ani@@ 2
reproach. 2
youth. 2
measuring 2
comparing 2
comic 2
forgotten 2
stead@@ 2
encamp@@ 2
despa@@ 2
control@@ 2
Ü@@ 2
delic@@ 2
astonishing 2
speed 2
our, 2
greatness 2
ely. 2
filling 2
easi@@ 2
preparations, 2
bowl 2
rivers 2
handmaid 2
sparing 2
suming 2
chasti@@ 2
evacuations 2
conference 2
Thus, 2
commenced 2
sion: 2
acquain@@ 2
elling 2
Isthmi@@ 2
already. 2
physicians, 2
blow@@ 2
entrust 2
keeper 2
opens 2
attack. 2
Chei@@ 2
nym@@ 2
Achil@@ 2
past. 2
else@@ 2
heral@@ 2
Thessalian 2
allies; 2
learning, 2
statues 2
pursue 2
ruin 2
ow, 2
es: 2
raising 2
ws 2
cities, 2
absent, 2
uttered 2
understand, 2
politic@@ 2
influence 2
antagoni@@ 2
render 2
negle@@ 2
affairs, 2
fling 2
quiet@@ 2
ornam@@ 2
suppliant 2
justice, 2
woven 2
comp@@ 2
bra@@ 2
falsely 2
ascend 2
lady, 2
fame 2
farm 2
ety, 2
Lamb 2
souls, 2
writings 2
along@@ 2
Jose@@ 2
dae 2
ius, 2
Eubo@@ 2
stomach 2
talk 2
Pyrrhus, 2
kingdom; 2
anchored 2
icus 2
dened, 2
create 2
Arca@@ 2
Athenian, 2
Indeed 2
accompany 2
aius, 2
death! 2
awake 2
longed 2
crown, 2
attend@@ 2
loved, 2
destroyed. 2
crush 2
responsi@@ 2
frequent 2
arri@@ 2
commons 2
armour, 2
intention 2
breath, 2
case. 2
ment; 2
zealously 2
aded 2
reply, 2
ran, 2
choice 2
farther 2
coast, 2
cted; 2
witness. 2
ear 2
stance. 2
spreading 2
ardly 2
cting 2
Old 2
fewer 2
assembli@@ 2
rea@@ 2
proces@@ 2
mourning 2
Aphrodit@@ 2
Py@@ 2
nearest 2
Chal@@ 2
Eretri@@ 2
ax 2
arrived, 2
demus 2
Plato, 2
clou@@ 2
laugh 2
butch@@ 2
lip@@ 2
alas! 2
Paeonians 2
igned 2
assuming 2
lish 2
riding 2
quarters. 2
swept 2
dul@@ 2
parsle@@ 2
Nem@@ 2
ean 2
pine 2
instead. 2
fastening 2
safe@@ 2
conclu@@ 2
big 2
pil@@ 2
comman@@ 2
relieved 2
diligently 2
person, 2
sing, 2
perm@@ 2
exhorting 2
o; 2
Plato’s 2
fier@@ 2
son; 2
On@@ 2
Anaxibius 2
drawing 2
flee@@ 2
ast, 2
studies 2
Parthi@@ 2
sons. 2
Cypr@@ 2
displeased 2
judging 2
true; 2
woun@@ 2
simple 2
agreeable 2
pleasures. 2
Theban 2
panic 2
Hermes 2
knees 2
thunder@@ 2
plant@@ 2
overse@@ 2
nations. 2
gentlen@@ 2
pes, 2
character, 2
hope@@ 2
base 2
achar@@ 2
Cycl@@ 2
ops 2
nus, 2
ners 2
return, 2
Tar@@ 2
atius 2
aeans, 2
master’s 2
fortun@@ 2
lot 2
matter, 2
ander, 2
sym@@ 2
sm, 2
pull 2
reckon 2
corrupted 2
men-@@ 2
Mu@@ 2
flute 2
rules 2
coul@@ 2
approach@@ 2
physici@@ 2
blo@@ 2
tted 2
leisure 2
defense, 2
driving 2
ning; 2
hostility 2
show, 2
necess@@ 2
g, 2
begin@@ 2
pregnant 2
woman; 2
highly 2
oring 2
repl@@ 2
shoo@@ 2
decor@@ 2
bath 2
day; 2
strife 2
You@@ 2
introdu@@ 2
Megara 2
landing 2
feel 2
gh, 2
verti@@ 2
counsel, 2
foot@@ 2
din@@ 2
answ@@ 2
Even@@ 2
loose 2
’t 2
delight 2
grasping 2
naked 2
siege, 2
Demeter 2
associates 2
collected 2
breasts 2
tongue, 2
Lyci@@ 2
brac@@ 2
thick@@ 2
ine 2
escaped 2
village, 2
kindness. 2
deeming 2
ade, 2
grass 2
length, 2
later 2
yesterday 2
question@@ 2
hoping 2
ple. 2
following, 2
nets. 2
calf 2
four-footed 2
trava@@ 2
livelihood 2
clearly 2
Corneli@@ 2
Delphi, 2
rush 2
parent 2
lament 2
strive 2
tears 2
husbands, 2
last, 2
most. 2
sport 2
osthen@@ 2
Galli@@ 2
achievements 2
war? 2
vers 2
helmet 2
report, 2
spot, 2
persuading 2
foreigner 2
pushed 2
thereupon 2
both. 2
pretended 2
dering 2
feed 2
heap 2
effect. 2
consol@@ 2
side@@ 2
motion, 2
excit@@ 2
intelli@@ 2
bid@@ 2
ding; 2
Juda@@ 2
soldi@@ 2
trib@@ 2
ace 2
fears 2
desire. 2
mercenary 2
view, 2
creat@@ 2
empire, 2
apprehen@@ 2
hoplites, 2
meat 2
Sac@@ 2
rifi@@ 2
satisfaction 2
Alas, 2
death? 2
animal 2
guest 2
high, 2
ros@@ 2
rouse 2
accusers 2
afterwar@@ 2
desi@@ 2
Cyrus; 2
indignation, 2
ones. 2
noise 2
murderer 2
wretch 2
partak@@ 2
feigned 2
personal 2
eless, 2
brilliant 2
honoured 2
gold. 2
Tecmessa 2
publicly 2
eag@@ 2
ax@@ 2
three. 2
past, 2
Ta@@ 2
triumph, 2
sailors 2
start 2
trou@@ 2
pes 2
Pol@@ 2
esi@@ 2
Lacedaemon. 2
ive 2
mem@@ 2
-in-law 2
settlers 2
revered 2
killed; 2
veins 2
Dios@@ 2
riders 2
horses@@ 2
Miletus, 2
Miny@@ 2
equipment 2
soil, 2
depth 2
Astyo@@ 2
somehow 2
Cretan 2
owner 2
idea 2
house; 2
Corinth, 2
dug 2
pit 2
all-@@ 2
exter@@ 2
result 2
serpent 2
goddes@@ 2
safe, 2
prophecy, 2
weakened 2
bond 2
smen 2
courts 2
consul@@ 2
obtained, 2
blood@@ 2
throne. 2
oligarchy 2
boy@@ 2
hood, 2
epi@@ 2
friends; 2
conducting 2
heat, 2
women. 2
vil 2
deeply 2
requ@@ 2
ago@@ 2
safely 2
Pompey, 2
doom@@ 2
exhibit 2
costly 2
belly 2
demand 2
too@@ 2
each, 2
replied: 2
spe@@ 2
loving 2
cheer@@ 2
tness 2
government, 2
este@@ 2
blamed 2
Peric@@ 2
selves 2
statue 2
pois@@ 2
ba, 2
Please 2
favour, 2
stained 2
sung 2
nee@@ 2
shout@@ 2
god, 2
differences 2
lea@@ 2
ution 2
forsa@@ 2
ars 2
lines 2
Sci@@ 2
ns. 2
interm@@ 2
demus, 2
stream 2
events, 2
stoo@@ 2
message: 2
branch@@ 2
stores 2
exhau@@ 2
allotted 2
probably 2
way? 2
girt 2
Del@@ 2
Perdiccas, 2
happy 2
Epidamnus 2
multitude. 2
graci@@ 2
woe, 2
manifestation 2
ger 2
breastpl@@ 2
wings 2
rushing 2
Artem@@ 2
onic@@ 2
Sea, 2
disast@@ 2
admon@@ 2
despi@@ 2
Syria 2
poets 2
helping 2
together; 2
it: 2
exposed 2
applied 2
recent 2
ids, 2
half 2
days; 2
fragrant 2
withstanding, 2
proc@@ 2
ening 2
speedily 2
prevented 2
getting 2
humble 2
suffers 2
ian, 2
urging 2
arrayed 2
equip@@ 2
unmixed 2
revenues 2
ery, 2
benefit 2
incapable 2
live; 2
dia, 2
uri@@ 2
language. 2
Timole@@ 2
on’s 2
consi@@ 2
district 2
ye, 2
acropolis 2
confident, 2
sol@@ 2
misfortunes, 2
permit 2
self-control, 2
comb@@ 2
surround 2
fled. 2
unspeakable 2
joint@@ 2
plunder@@ 2
Cas@@ 2
Syracus@@ 2
us' 2
malice 2
hid 2
miles 2
pla@@ 2
cons@@ 2
Au@@ 2
plenty 2
ort 2
calculated 2
height 2
Elizabe@@ 2
tra@@ 2
today, 2
penalt@@ 2
might, 2
Acan@@ 2
thus, 2
Andri@@ 2
vin@@ 2
winter. 2
s’ 2
reasonable 2
ced. 2
appeal 2
distr@@ 2
wanting 2
scarlet 2
Thebes@@ 2
tomb@@ 2
M 2
Pact@@ 2
Arta@@ 2
expelled 2
parasang@@ 2
hatred 2
possessions 2
stored 2
anxiety 2
useless 2
cheerful 2
mourn 2
ability 2
protect 2
accord. 2
meats 2
s) 2
ances, 2
steal 2
Cur@@ 2
homes. 2
recover 2
capture 2
girl, 2
conscious 2
tender 2
vowed 2
Rhodop@@ 2
Mytilene 2
wronged. 2
punished, 2
stood, 2
leap@@ 2
counts 2
branch 2
possibly 2
devast@@ 2
ener@@ 2
obvi@@ 2
self-control 2
sentence 2
followed. 2
poor@@ 2
Surely 2
Epi@@ 2
wealth, 2
numerous 2
deta@@ 2
comparison 2
uses, 2
ants 2
auro@@ 2
whither 2
lepro@@ 2
missil@@ 2
shot 2
ents 2
Hecuba 2
es’ 2
Demeter, 2
thoughts 2
ourselves. 2
marriage, 2
leader. 2
covered. 2
needed. 2
polity 2
aloud 2
Cis@@ 2
watch, 2
experienced 2
ats 2
fleet@@ 2
coming. 2
sided 2
tetan@@ 2
reveal@@ 2
hairs 2
moun@@ 2
qualities 2
convey 2
commandments, 2
lower 2
crowned 2
Some@@ 2
priv@@ 2
state; 2
warm 2
ry; 2
importun@@ 2
behavior 2
way; 2
pledges 2
single 2
forget 2
undertaken 2
narrative 2
sounds 2
mean@@ 2
purpose. 2
shalt 2
friend@@ 2
just@@ 2
praetor@@ 2
seasons. 2
tyrant. 2
e!@@ 2
spac@@ 2
tongu@@ 2
thousands 2
Mes@@ 2
Pontus, 2
word@@ 2
hide 2
Gobry@@ 2
bing 2
nutri@@ 2
frightened 2
terri@@ 2
name? 2
injured 2
increase 2
dence. 2
wine-@@ 2
defiled 2
sat@@ 2
Spartans, 2
decre@@ 2
tened 2
lightning 2
practices 2
deceit@@ 2
let, 2
sus. 2
astray 2
denounced 2
occupy 2
pursuit 2
arr@@ 2
suffi@@ 2
suf@@ 2
Libya 2
heights 2
same, 2
-haired 2
Romans. 2
letter. 2
hip-@@ 2
cke@@ 2
leap 2
utterance 2
Hom@@ 2
sa. 2
Sea 2
hastily 2
conduct, 2
imprisoned 2
family 2
principally 2
grove 2
abuse 2
twisted 2
cried, 2
try, 2
Far@@ 2
ascertain 2
tears. 2
assist 2
lain 2
frenz@@ 2
work; 2
Leuca@@ 2
chase 2
amid@@ 2
um; 2
gathering 2
priz@@ 2
Caspi@@ 2
se: 2
ep@@ 2
hast 2
distrib@@ 2
jealous 2
Ph@@ 2
fair@@ 2
behavi@@ 2
ambition 2
sense 2
cutting 2
Lacedaemon, 2
pleased. 2
mean 2
prosperity 2
happiness. 2
elected 2
rested 2
owners 2
weighed 2
adornment 2
abandoned 2
sovereign 2
restoring 2
below, 2
marry 2
liberty. 2
farmer. 2
Agesilaus, 2
himself; 2
remark@@ 2
Dodon@@ 2
bir@@ 2
strongholds 2
destitute 2
With@@ 2
dogs, 2
Marcius 2
idas 2
deceived 2
hin@@ 2
ls 2
Scy@@ 2
ruling 2
related 2
fly 2
sad 2
supplies 2
river, 2
plant 2
H 2
preserve 2
obvious 2
hearing. 2
kissed 2
seer 2
rewar@@ 2
successive 2
defence 2
ising 2
cattle 2
Locri@@ 2
inhabit 2
forest@@ 2
Silenus 2
Phoebus 2
terr@@ 2
wh@@ 2
consulship, 2
ong 2
lyre 2
Cronos 2
amongst 2
sacrificial 2
Pele@@ 2
Mossynoecians 2
plucked 2
guards 2
resul@@ 2
piteous 2
phro@@ 2
cea@@ 2
ler 2
towns 2
ied. 2
rag@@ 2
bridge 2
neighbors 2
unwilling 2
seal, 2
ence? 2
wish, 2
fastened 2
shore. 2
anxi@@ 2
inheritance, 2
famine 2
strate@@ 2
servant@@ 2
hours 2
Hist@@ 2
seeds 2
birds 2
ech@@ 2
Bithyni@@ 2
fur@@ 2
steadfast 2
uct@@ 2
Peri@@ 2
milk 2
edge 2
Athenian. 2
answering 2
thro@@ 2
Macedonia. 2
aed@@ 2
cles, 2
embraced 2
oppose 2
distress 2
Dar@@ 2
thoroughly 2
required 2
breadth 2
enacted 2
character. 2
silence. 2
pled 2
supposing 2
consulted 2
sent, 2
vo@@ 2
dif@@ 2
Hier@@ 2
robes, 2
draws 2
existing 2
neu@@ 2
Syracusan 2
exchange 2
rate 2
weeping. 2
business, 2
warlike 2
temper 2
campaign 2
slept 2
horns 2
countr@@ 2
Jerusalem@@ 2
terrors 2
remembering 2
herself, 2
act, 2
unnatural 2
dep@@ 2
vis@@ 2
dist@@ 2
happi@@ 2
thorns, 2
evacuated 2
reg@@ 2
ached, 2
covering 2
he. 2
usual 2
ë 2
stormy 2
what@@ 2
desirous 2
τ@@ 2
ρ@@ 2
convenient 2
passa@@ 2
disper@@ 2
forcibly 2
wherein 2
th; 2
examine 2
tun@@ 2
tails 2
whatever, 2
bili@@ 2
spit@@ 2
tly 2
aries, 2
Lacedaemonian 2
Pisistratus 2
vine, 2
trul@@ 1
acquis@@ 1
Boeotian 1
Amphipolis, 1
accomplished, 1
tale 1
poin@@ 1
invented 1
themselves; 1
inci@@ 1
furthermore, 1
nay, 1
captain@@ 1
despon@@ 1
Tissaphern@@ 1
forming 1
reference 1
conced@@ 1
Isaac, 1
ited. 1
Caper@@ 1
persuaded, 1
injustice. 1
Plataea 1
lease 1
excess 1
ae; 1
frontier 1
Aegina. 1
distributing 1
separately 1
efforts, 1
ec@@ 1
acy 1
science 1
wishes 1
state. 1
Leot@@ 1
basen@@ 1
lots 1
take. 1
tting 1
tested 1
Aristom@@ 1
Are@@ 1
te 1
happy, 1
embracing 1
ain 1
ai, 1
Under 1
mel@@ 1
leg, 1
rememb@@ 1
Phocians, 1
treat 1
renounced 1
kin, 1
particular, 1
Vol@@ 1
clam@@ 1
discre@@ 1
Ath@@ 1
summoning 1
sovereig@@ 1
audience 1
stin@@ 1
defin@@ 1
decided, 1
harm, 1
injur@@ 1
beasts 1
zen 1
iter@@ 1
bes@@ 1
soothsay@@ 1
bits, 1
eless@@ 1
behaved 1
Whi@@ 1
ide@@ 1
thigh 1
ING@@ 1
vely 1
anew@@ 1
spy 1
demonstr@@ 1
self; 1
resem@@ 1
flock 1
compul@@ 1
gain, 1
convinced 1
details 1
kets 1
Susa 1
luxury 1
Callicratidas, 1
Diomed@@ 1
deposed 1
exception 1
Adeiman@@ 1
Philo@@ 1
tom@@ 1
Aristo@@ 1
genes 1
varied 1
Ses@@ 1
ostr@@ 1
encam@@ 1
peoples, 1
Antony’s 1
defended 1
Egypti@@ 1
afterwards. 1
acious 1
talents, 1
beast@@ 1
imitated 1
devil, 1
moment 1
healthy 1
territory, 1
inias, 1
sions, 1
accomplish@@ 1
doubt 1
drinking-@@ 1
num@@ 1
forced 1
prejudice 1
elated 1
engagement 1
despat@@ 1
ign 1
ased 1
(and 1
seventy-@@ 1
wealth. 1
Ever 1
reaches 1
cell@@ 1
general; 1
Agath@@ 1
archi@@ 1
das. 1
cavalry, 1
ador@@ 1
convince 1
ester@@ 1
ambition, 1
mission. 1
glory; 1
wheeling 1
succes@@ 1
shoulders 1
Ae@@ 1
pru@@ 1
mourn@@ 1
recall@@ 1
breeze 1
prominent 1
Ty@@ 1
ster, 1
acros@@ 1
Euro@@ 1
Euxine 1
Milesian 1
pat@@ 1
relati@@ 1
auxiliaries 1
acces@@ 1
Sum@@ 1
hollow 1
quarter 1
perish. 1
relatives, 1
depar@@ 1
acknowledge 1
pleased, 1
due. 1
resisted 1
gence, 1
excellence, 1
sain@@ 1
victori@@ 1
Clearchus, 1
reports 1
wonder, 1
prayers. 1
strict 1
emul@@ 1
honours 1
game 1
spor@@ 1
success@@ 1
Siceli@@ 1
scattered, 1
shepherd. 1
crop@@ 1
on? 1
journeyed 1
agree@@ 1
prison@@ 1
hardship 1
reproached 1
treatment 1
pleasures 1
spoils 1
engaging 1
Astyages 1
Median 1
strength. 1
summons, 1
Medes 1
empire 1
tyrant@@ 1
factions 1
bius, 1
acquaintance 1
suited 1
speeches 1
treachery, 1
Lydi@@ 1
advantage. 1
waves 1
os, 1
Libyan 1
soldier, 1
his, 1
c, 1
Thuri@@ 1
namely, 1
honestly 1
pan@@ 1
Phoenici@@ 1
sail. 1
banishment 1
occupying 1
selves, 1
Se@@ 1
Pal@@ 1
flatter@@ 1
galley 1
inflam@@ 1
disaster 1
Argive 1
retired 1
Agis, 1
gaz@@ 1
blockaded 1
guests 1
Catana, 1
grat@@ 1
instant 1
slain; 1
onius, 1
hundred, 1
tripod 1
hex@@ 1
ame@@ 1
awo@@ 1
commonly 1
step, 1
valour. 1
expect@@ 1
another@@ 1
own@@ 1
ree 1
Euphr@@ 1
commander, 1
eighty 1
band 1
aching 1
ries 1
purific@@ 1
views, 1
Corcyra 1
afterwards, 1
tures 1
conver@@ 1
succeed@@ 1
provi@@ 1
accordingly, 1
cursed 1
ours. 1
blessings 1
myri@@ 1
happiness 1
Against 1
majesty 1
pursuit. 1
ms 1
upset 1
vill@@ 1
slowly, 1
speed. 1
Philistus 1
stated 1
refined 1
acher, 1
Thereupon 1
Media 1
slain. 1
legs 1
striving 1
appointing 1
nails, 1
Phy@@ 1
us’ 1
everywhere, 1
om, 1
obscure 1
Mai@@ 1
proves 1
anc@@ 1
precautions 1
Poti@@ 1
daeans 1
Corcy@@ 1
ra. 1
contained 1
foreseeing 1
assure@@ 1
severely 1
wrath. 1
rein@@ 1
tis 1
sand 1
trusty 1
requests 1
notice 1
successor 1
æ@@ 1
enemy's 1
ite, 1
Aeginetans 1
refrained 1
how@@ 1
ised 1
smo@@ 1
fla@@ 1
Cap@@ 1
flute-@@ 1
Polysperch@@ 1
circumstance 1
fat 1
earlier 1
happin@@ 1
obedi@@ 1
injury, 1
talci@@ 1
retor@@ 1
Isra@@ 1
concert 1
Laconian 1
Amomphar@@ 1
herald's 1
exper@@ 1
hindr@@ 1
opportunities 1
Harpag@@ 1
subjug@@ 1
Ionia 1
alien 1
ans' 1
vers@@ 1
shr@@ 1
smen, 1
brother; 1
Joh@@ 1
chee@@ 1
other; 1
swif@@ 1
reconc@@ 1
commun@@ 1
obliged 1
punish 1
stadia 1
jealousy, 1
cted 1
deposit 1
interest 1
oracle, 1
Har@@ 1
explain 1
trouble. 1
sed@@ 1
decisive 1
neighbouring 1
remote 1
barbarians. 1
chariot, 1
Isai@@ 1
lessness 1
hasten 1
thither 1
simply 1
shore 1
Lac@@ 1
cian, 1
silly 1
task 1
attitude 1
represent 1
heroes 1
magnificent 1
reasons 1
experience, 1
orders. 1
noblest 1
opponents, 1
confused 1
emplo@@ 1
yment 1
instruments 1
pointing 1
significant 1
forth. 1
step 1
sobri@@ 1
ety. 1
effecting 1
junction 1
fortified 1
crowning 1
bricks 1
outside. 1
plun@@ 1
decl@@ 1
esty 1
adjudged 1
confiscated 1
goddess. 1
Hades 1
foremost 1
ca 1
smi@@ 1
ics 1
onaeans 1
party. 1
ant; 1
pleased; 1
inquiry 1
spoil 1
nearer 1
persu@@ 1
compelling 1
Barbarians, 1
Per@@ 1
orium, 1
prevai@@ 1
Pythian 1
say; 1
Consi@@ 1
advanced, 1
behind. 1
bird, 1
possessions, 1
services 1
maidens 1
youths 1
captains, 1
meanwhile, 1
list 1
volun@@ 1
tary 1
ainly 1
Melchi@@ 1
Co@@ 1
sam@@ 1
peac@@ 1
poli@@ 1
uncertain@@ 1
dismiss 1
instructing 1
Agri@@ 1
Ec@@ 1
nom@@ 1
passage, 1
democracy. 1
streng@@ 1
physicians 1
blow. 1
overcame 1
procession 1
along, 1
bearer 1
corpse, 1
Acarnanians 1
Demosthenes 1
dream 1
Dari@@ 1
Scythian 1
very@@ 1
meal 1
victim@@ 1
victorious 1
trait@@ 1
foot-@@ 1
breathing 1
slaughter 1
garden@@ 1
ium, 1
suspici@@ 1
Cyrene 1
cro@@ 1
ach 1
favour. 1
ere 1
could; 1
sacrifice; 1
sorrows 1
kins@@ 1
dig 1
ize 1
date 1
baili@@ 1
ffs 1
wheat 1
upon, 1
assemble 1
requital 1
worth 1
litt@@ 1
dove 1
books 1
Si@@ 1
Corin@@ 1
sans 1
contemp@@ 1
seizing 1
passage. 1
Indians 1
gold-@@ 1
Heracleides, 1
justice; 1
revile 1
carries 1
purifi@@ 1
generosity 1
Ob@@ 1
tuously 1
yourselves; 1
river. 1
to-@@ 1
indulgence 1
consists 1
consent. 1
eagle 1
snatched 1
lance 1
body-@@ 1
drop 1
guides 1
nine 1
deception 1
his@@ 1
dagger 1
loudly 1
aid. 1
rec@@ 1
pow@@ 1
gris 1
dil@@ 1
low, 1
pun@@ 1
manner. 1
dram@@ 1
yt@@ 1
Macedonian 1
controlled 1
council. 1
Rhegium, 1
proposals 1
hou@@ 1
set@@ 1
la 1
Sicilian 1
api@@ 1
aled 1
father; 1
trick@@ 1
troubles. 1
murderous 1
houn@@ 1
water-@@ 1
Ery@@ 1
vici@@ 1
slave, 1
egg@@ 1
daring 1
immediate 1
manifest 1
reed@@ 1
indu@@ 1
Athens; 1
nob@@ 1
war-@@ 1
missi@@ 1
whichever 1
paym@@ 1
Wherefore 1
Chersones@@ 1
twenty-@@ 1
fell. 1
advise 1
only. 1
others? 1
barbarian, 1
such, 1
helps 1
indul@@ 1
citizenship 1
mines 1
azus, 1
Persians. 1
can. 1
Strym@@ 1
inhabitants, 1
Egypt@@ 1
Ethiopia 1
Apri@@ 1
height@@ 1
after@@ 1
injun@@ 1
afford 1
sails 1
anywhere, 1
marin@@ 1
Octavi@@ 1
Publius 1
des; 1
z 1
itans, 1
suspect 1
Summer 1
Tr@@ 1
inia 1
anians, 1
ire 1
forms 1
ceremoni@@ 1
avert 1
bier 1
eunuch 1
aliens 1
associ@@ 1
women; 1
raw 1
Clean@@ 1
fut@@ 1
Thence 1
edly, 1
aggres@@ 1
ink@@ 1
mock 1
vessel 1
use, 1
propri@@ 1
letters, 1
repul@@ 1
leisure, 1
Hermione 1
fasten 1
air@@ 1
passer@@ 1
s-@@ 1
lowering 1
Ce@@ 1
bes 1
Thebes. 1
enth 1
Phryni@@ 1
action, 1
slavery, 1
withdraw 1
nevertheless 1
gs 1
furious 1
town@@ 1
band@@ 1
warfar@@ 1
repute, 1
sandals 1
odorus 1
agreements 1
monarchy 1
Sparta. 1
celebr@@ 1
Byzantines 1
losing 1
Miles@@ 1
Chalcide@@ 1
leader 1
poverty, 1
aler@@ 1
gres@@ 1
best, 1
Iphicrates 1
wont 1
terror 1
foes. 1
coast@@ 1
sum@@ 1
consequen@@ 1
confer 1
benefits 1
earliest 1
ancestors 1
inspe@@ 1
intercourse 1
philosopher 1
acquainted 1
famili@@ 1
gifts. 1
presence. 1
deserted, 1
arrive 1
sort. 1
intim@@ 1
approaching 1
visible 1
spect@@ 1
destit@@ 1
inev@@ 1
administr@@ 1
ator, 1
moving 1
praised 1
ed), 1
Cher@@ 1
ished 1
co-oper@@ 1
bounds 1
exten@@ 1
flouri@@ 1
sius 1
leag@@ 1
interpreter, 1
command, 1
clif@@ 1
ily. 1
List@@ 1
disembarked 1
boundaries 1
itus 1
Camby@@ 1
ses; 1
lived, 1
adequate 1
Andre@@ 1
undertake 1
undertaking 1
Liby@@ 1
dder 1
somewhat 1
mountains 1
Cyrus’ 1
cowardice 1
addition 1
incen@@ 1
island, 1
vanished 1
Ag@@ 1
rust 1
Aeolian 1
mainland, 1
situated 1
Artabazus 1
effe@@ 1
hurried 1
disgrace 1
und@@ 1
kindled 1
loaves, 1
Nazareth, 1
betray@@ 1
power; 1
iniquity 1
cold. 1
Fabius 1
axim@@ 1
volunte@@ 1
recently 1
reviled 1
self, 1
arrog@@ 1
impres@@ 1
cowardly 1
politi@@ 1
Boeotia, 1
clearly, 1
guarding 1
tolemus 1
Eum@@ 1
usand 1
chus 1
welcome 1
like. 1
here; 1
welcom@@ 1
circumstan@@ 1
ition; 1
skir@@ 1
wondering 1
commands 1
inqui@@ 1
Pergam@@ 1
respect. 1
overtake 1
aphi@@ 1
town. 1
Tur@@ 1
despots 1
boldness, 1
nor@@ 1
abi@@ 1
insisting 1
oracles, 1
Cicero, 1
rival@@ 1
helme@@ 1
inquiring 1
Delphi@@ 1
grand 1
festival 1
neighb@@ 1
palisa@@ 1
wood 1
baptize 1
residence 1
quarter, 1
Gehen@@ 1
na. 1
Chabri@@ 1
sing; 1
slee@@ 1
pless 1
I'@@ 1
pho@@ 1
substance 1
Pen@@ 1
accomplished. 1
igns 1
tracks 1
numbers. 1
cient 1
inflicted 1
moreover 1
bet@@ 1
ine. 1
innov@@ 1
atives 1
rele@@ 1
lots, 1
hop@@ 1
ended, 1
do; 1
er’s 1
flat@@ 1
tery 1
remnant 1
embass@@ 1
expel 1
aided 1
Atre@@ 1
day’s 1
harves@@ 1
Lacedaemonians. 1
cause. 1
Socrates, 1
drag 1
espe@@ 1
insulting 1
atic 1
mainland 1
tributary 1
pleases 1
improve 1
condition, 1
gif@@ 1
buying 1
deserves 1
differ 1
wheel 1
unarmed 1
tyr@@ 1
uncle 1
Cato, 1
Ptolem@@ 1
further. 1
epha@@ 1
coast. 1
views 1
Theodo@@ 1
used, 1
health, 1
evil-@@ 1
ents; 1
hurt 1
subju@@ 1
Hellenes, 1
de; 1
Alyattes 1
Milesians 1
considerations 1
presents 1
King, 1
Trapez@@ 1
names, 1
Cicero 1
extingu@@ 1
sest 1
border 1
ught 1
Croesus 1
enemi@@ 1
arrows. 1
Would 1
then. 1
spreads 1
sinned 1
ories 1
largest 1
Amphilochi@@ 1
await 1
third, 1
invested 1
cooper@@ 1
ade. 1
minist@@ 1
information, 1
Witnes@@ 1
ached 1
collect 1
inform@@ 1
lamps 1
Thi@@ 1
iting 1
Pharnab@@ 1
azus. 1
insist@@ 1
irs 1
choosing 1
multitu@@ 1
wooden 1
Bras@@ 1
island. 1
splendour 1
march. 1
lau@@ 1
atory 1
Thessali@@ 1
gotten 1
negoti@@ 1
Colchi@@ 1
approach, 1
disturbed 1
reason. 1
expres@@ 1
fleeing 1
surpassed 1
dragon, 1
itus, 1
Amasi@@ 1
theNile@@ 1
usi@@ 1
Cambys@@ 1
Cn@@ 1
emus 1
states, 1
colum@@ 1
exec@@ 1
jest@@ 1
thanks. 1
Agamemnon 1
Achilles 1
Asty@@ 1
Mad@@ 1
Ceras@@ 1
honest 1
warming 1
assur@@ 1
Anaxandri@@ 1
Aegina 1
culp@@ 1
sump@@ 1
armist@@ 1
ign, 1
once. 1
unite 1
viewed 1
acknowledged 1
future. 1
stopp@@ 1
nose 1
onians, 1
competent 1
host. 1
great. 1
bat@@ 1
privately 1
abomination 1
desolation, 1
conces@@ 1
intimate 1
continent 1
spear. 1
dres@@ 1
advancing 1
Hecat@@ 1
don, 1
PAR@@ 1
springs 1
Lydians 1
peoples 1
departure, 1
vicious 1
able; 1
tutor 1
senate 1
conspirators 1
ir, 1
positions. 1
example. 1
completed, 1
grief@@ 1
waves, 1
Alci@@ 1
armament, 1
Mitylene, 1
traitor 1
lead, 1
another’s 1
ate@@ 1
gate 1
walls 1
bound@@ 1
Rhe@@ 1
ph 1
is: 1
invol@@ 1
woes 1
voy@@ 1
injustice 1
suit 1
harmful 1
drow@@ 1
destruction. 1
consent, 1
necessity, 1
proceeding 1
repeat 1
Ariste@@ 1
political 1
parties, 1
derived 1
encour@@ 1
wrongdo@@ 1
circumstances, 1
dost 1
preciate 1
victory, 1
quarrels 1
own; 1
antly 1
ped; 1
ting, 1
tos@@ 1
attention. 1
civic 1
Eury@@ 1
vow 1
swords, 1
shields, 1
hands; 1
agg@@ 1
spite 1
images 1
wilt 1
stream, 1
looks 1
sufficed 1
maintained 1
xi@@ 1
delighted, 1
reject 1
ardi@@ 1
emer@@ 1
Nu@@ 1
nourishing 1
borrowed 1
liable 1
arm, 1
infan@@ 1
quarrel, 1
preferred 1
’ll 1
prevail 1
honour. 1
chariot 1
Perseus, 1
em 1
arms. 1
absolutely 1
family. 1
Peloponnesian 1
Thor@@ 1
Orop@@ 1
shameless 1
State 1
Callimachus 1
Ariston 1
Achae@@ 1
convict 1
contra@@ 1
dict 1
ia 1
contribution 1
following: 1
L 1
Time 1
High 1
Salamis, 1
selling 1
scar@@ 1
Mysi@@ 1
total 1
exact@@ 1
bus@@ 1
camp@@ 1
injury 1
toil 1
tie 1
needed 1
vengeance, 1
struggl@@ 1
mostly 1
vex@@ 1
anno@@ 1
nu@@ 1
accordingly. 1
obstru@@ 1
Carthaginian 1
trirem@@ 1
Xerxes 1
wisely 1
mistakes 1
prudent 1
disembark 1
testi@@ 1
dic@@ 1
potent 1
respon@@ 1
late, 1
discern 1
B 1
befall 1
Roman, 1
speak; 1
lef@@ 1
gymn@@ 1
Eleus@@ 1
asian 1
provoked 1
sally 1
spectacle 1
Cam@@ 1
incited 1
counsel@@ 1
extent 1
Arche@@ 1
shad@@ 1
Phormio 1
oly@@ 1
before. 1
plan, 1
both, 1
admir@@ 1
neck@@ 1
everywhere. 1
teachers, 1
heavier 1
sa, 1
kingly 1
tless 1
Antiochus 1
attention, 1
skirmi@@ 1
weapon 1
manager 1
management 1
mountains. 1
an’s 1
conviction 1
ior 1
hoo@@ 1
f, 1
unsound 1
Megari@@ 1
ascending 1
agreeably 1
original 1
Hiero, 1
despot, 1
extended 1
ago 1
ty; 1
heads. 1
fierce 1
rud@@ 1
strain 1
succeed 1
contend 1
dismis@@ 1
sal 1
entirely 1
growing 1
tumul@@ 1
altogether 1
suits 1
allying 1
fighting, 1
Xan@@ 1
Delphi 1
Demaratus 1
pressing 1
anybody, 1
Thebes 1
Demosthenes. 1
moti@@ 1
scrib@@ 1
seven, 1
ten. 1
Meanwhile, 1
proclamation 1
slave. 1
amounts 1
advantage, 1
rear. 1
sure. 1
pursuing 1
withstood 1
consul 1
ys; 1
mercenaries. 1
preserv@@ 1
accom@@ 1
mod@@ 1
nobl@@ 1
yourself@@ 1
suggestions 1
Epameinondas 1
troops. 1
exercises 1
Sy@@ 1
cel 1
chariot. 1
sca@@ 1
coun@@ 1
charac@@ 1
trophy, 1
Samos, 1
prosecuted 1
fall, 1
nus 1
Callias 1
tunn@@ 1
dain@@ 1
hom@@ 1
sex@@ 1
kindness 1
opportun@@ 1
facts 1
detachment 1
weap@@ 1
garris@@ 1
orator 1
leadership, 1
seduced 1
sack@@ 1
bod@@ 1
insist 1
principle 1
Quite 1
- 1
dawn 1
confusion. 1
possessing 1
Op@@ 1
med 1
oracles 1
disorder, 1
show@@ 1
Archi@@ 1
ell 1
employ 1
live. 1
critici@@ 1
sm 1
valent 1
mankind 1
mankind, 1
expectation, 1
tious 1
prec@@ 1
lake. 1
lowest 1
sudden 1
dorus, 1
Don’t 1
dish@@ 1
Megabazus 1
(but 1
tra 1
cup@@ 1
instrument 1
hill, 1
mules 1
acts, 1
contri@@ 1
gather@@ 1
exam@@ 1
ples, 1
arsen@@ 1
ache, 1
Mess@@ 1
enians, 1
actor@@ 1
pad@@ 1
enough@@ 1
Heges@@ 1
istr@@ 1
atus 1
aug@@ 1
Dei@@ 1
fared 1
relat@@ 1
Lesbos 1
Hellespont. 1
announced 1
effort 1
wounds, 1
satisfac@@ 1
tory 1
points, 1
despatched 1
Antony 1
ol 1
Macedoni@@ 1
ption 1
rum@@ 1
interview 1
across 1
Cilicia 1
My@@ 1
occasion, 1
facts. 1
wind@@ 1
ket 1
demanded 1
policy 1
strif@@ 1
kindred 1
fee@@ 1
embassies 1
prizes 1
sim@@ 1
lake, 1
birds, 1
rop@@ 1
childless 1
misery. 1
property. 1
hereafter 1
thom@@ 1
camped 1
inscription: 1
philosoph@@ 1
geome@@ 1
prev@@ 1
Atheni@@ 1
Thirty 1
theus, 1
Clazomen@@ 1
buried. 1
Helen 1
distress, 1
songs 1
Wi@@ 1
Piraeus 1
often@@ 1
Fa@@ 1
precinct 1
pressure 1
acu@@ 1
affor@@ 1
decreed 1
size, 1
oared 1
galleys, 1
fered 1
road-nets 1
hayes 1
tal 1
cords 1
Troy 1
uncertain 1
poet@@ 1
Eurip@@ 1
dents 1
Anax@@ 1
agoras. 1
plag@@ 1
ues, 1
weather, 1
mant@@ 1
select 1
business. 1
Barnab@@ 1
included 1
fancied 1
advan@@ 1
lei@@ 1
play 1
destru@@ 1
ctive 1
result, 1
malign@@ 1
bonds. 1
Egyptians, 1
ensla@@ 1
failure 1
conceive 1
conferred 1
Mytil@@ 1
after. 1
concern 1
perpetual 1
hardships 1
condition 1
gence. 1
denounce 1
voted 1
ugh@@ 1
taining 1
lifetime 1
indignation 1
absor@@ 1
entire 1
peltasts 1
shoot 1
rang@@ 1
antly, 1
alas, 1
troubles@@ 1
vert 1
ava@@ 1
ters 1
sounding 1
engage 1
night@@ 1
pride, 1
now? 1
volunteers 1
killing 1
aur@@ 1
joint 1
ator 1
smallest 1
cks 1
consulting 1
begu@@ 1
pattern 1
reasonably 1
envi@@ 1
surr@@ 1
satisfied 1
abandon 1
enhan@@ 1
outraged 1
arts 1
vil@@ 1
eness 1
phra@@ 1
rewarded 1
Dion’s 1
valuable 1
ü@@ 1
youngest 1
nurse 1
swiftly 1
moreover, 1
celebrated 1
Smyr@@ 1
landed 1
every@@ 1
honour@@ 1
harder 1
measure. 1
crew 1
prime 1
descendant 1
Tisamen@@ 1
preparing 1
colonists 1
kings. 1
opportunity, 1
-in-@@ 1
considerations, 1
afforded 1
calm 1
assisted 1
foun@@ 1
rock, 1
runs 1
er-@@ 1
Tyndar@@ 1
eus, 1
Creon 1
appear, 1
fairest 1
tally 1
outrage 1
command. 1
Thrasybulus 1
vari@@ 1
mingled 1
distur@@ 1
Oro@@ 1
rist 1
visited 1
Hippias 1
rule. 1
government 1
god-@@ 1
ruled 1
real@@ 1
Tyn@@ 1
dae, 1
govern 1
Cicero’s 1
best@@ 1
praise, 1
truce, 1
deserters 1
anyone, 1
spring, 1
debtor 1
ax, 1
stratus, 1
incredible 1
weal@@ 1
behin@@ 1
retire. 1
oe, 1
troubles 1
sis, 1
Sardis, 1
array, 1
saluted 1
badly 1
edy 1
trag@@ 1
assaults 1
valiant 1
bin@@ 1
Persian, 1
purposed 1
Justice 1
fashi@@ 1
famed 1
Fur@@ 1
destin@@ 1
could. 1
vessel, 1
Cleombrotus 1
suspe@@ 1
conje@@ 1
trench 1
peri@@ 1
hang 1
feeble 1
suggestion 1
stones, 1
wood, 1
autumn, 1
thy, 1
plo@@ 1
attempted 1
Hellas, 1
ity? 1
wholly 1
distribution 1
itude 1
distribute 1
Clearchus 1
owe 1
dragged 1
trees 1
occurred 1
Cambyses, 1
againstEgypt 1
ff 1
beam 1
Perhaps 1
fifth 1
ome, 1
passion@@ 1
companions, 1
pos@@ 1
Iscari@@ 1
igning 1
turn, 1
Zac@@ 1
import@@ 1
methods 1
cure, 1
lasting 1
abandoning 1
Themistocles 1
Pericles, 1
situation 1
Themistocles, 1
ding, 1
cla@@ 1
Athena. 1
tire@@ 1
sease 1
fulfil 1
emperor, 1
cred@@ 1
gratify 1
sanctuary 1
allo@@ 1
use@@ 1
cep@@ 1
adopted, 1
initi@@ 1
ilities 1
ships. 1
sy. 1
ics, 1
dol@@ 1
neck 1
seiz@@ 1
desponden@@ 1
affection. 1
Peloponnesians, 1
sir@@ 1
convi@@ 1
hoped, 1
satisfy 1
javelins 1
Massa@@ 1
conquest 1
en; 1
pa@@ 1
crim@@ 1
acting 1
sentries 1
foreign@@ 1
convention 1
imenes 1
prou@@ 1
hot, 1
bearers 1
still. 1
proud 1
grounded 1
capture@@ 1
Hal@@ 1
Hect@@ 1
swi@@ 1
actually 1
Philip’s 1
Otan@@ 1
Alyatt@@ 1
ition@@ 1
term 1
omin@@ 1
avari@@ 1
greed 1
P 1
aand 1
arming 1
throng@@ 1
dirge 1
dash 1
exclu@@ 1
theirs. 1
help. 1
phi@@ 1
oxen 1
fox@@ 1
reve@@ 1
memory 1
breastplates 1
iron. 1
chariots, 1
t-@@ 1
opoli@@ 1
shining 1
ath 1
errors 1
loaded 1
regre@@ 1
mistaken 1
distru@@ 1
city? 1
weaker 1
necessar@@ 1
praying, 1
tered, 1
trophy 1
hymns 1
agreement, 1
thought@@ 1
regions 1
contributions 1
welcomed 1
tokens 1
Darius' 1
abli@@ 1
Nicias 1
lines, 1
general’s 1
bronze, 1
expose 1
constantly 1
equ@@ 1
bron@@ 1
acquire 1
degree 1
aer@@ 1
appli@@ 1
ears. 1
ced@@ 1
half-@@ 1
quant@@ 1
mac@@ 1
gradually 1
positi@@ 1
extrem@@ 1
bottom@@ 1
claimed 1
cheri@@ 1
gulf, 1
Phormio, 1
Pan 1
beast 1
den, 1
wander@@ 1
lets 1
ory. 1
Egyptians. 1
arguing 1
accru@@ 1
commander. 1
disease, 1
utting 1
winds 1
successfully 1
pir@@ 1
acy, 1
murdered 1
mastered 1
daughter. 1
illu@@ 1
packed 1
Lycurg@@ 1
comely 1
fright@@ 1
misfortune 1
extra@@ 1
marvellous 1
cultiv@@ 1
ators 1
Eleans 1
supporting 1
Arcadians, 1
seem, 1
paras@@ 1
ang 1
quarters 1
scho@@ 1
displeas@@ 1
care@@ 1
laughed 1
blessed. 1
Hundred 1
gains 1
self@@ 1
tradition 1
elders. 1
surrendered 1
Peloponnesus. 1
odorus, 1
fleet. 1
erated 1
responsib@@ 1
else. 1
fierce, 1
train 1
pyramid 1
bees 1
position. 1
freed@@ 1
spoil, 1
tius, 1
thought, 1
lacked 1
opportunity. 1
gift. 1
founded 1
nearly 1
adm@@ 1
union 1
abomin@@ 1
mom@@ 1
dying 1
ger@@ 1
bright@@ 1
favours 1
imp@@ 1
g 1
occasion. 1
absence 1
furlong@@ 1
repel 1
tormented 1
deed@@ 1
)@@ 1
ghtway 1
Olympian 1
Archidam@@ 1
summer, 1
Chalcidians 1
autum@@ 1
emergen@@ 1
shed@@ 1
libations 1
Diony@@ 1
manu@@ 1
Scythians 1
Bac@@ 1
dissen@@ 1
formerly 1
Pelasgians 1
argument 1
Babylon, 1
lightly 1
ο 1
dragon 1
confli@@ 1
sion; 1
Earth 1
immediately, 1
cent 1
remark 1
affair 1
Pylo@@ 1
Council 1
Assembly 1
Fau@@ 1
father’s 1
rash@@ 1
minds, 1
dagg@@ 1
Ith@@ 1
present@@ 1
composed 1
inferior 1
tines, 1
rol@@ 1
dividing 1
land; 1
clas@@ 1
inten@@ 1
wars. 1
stages, 1
ochi@@ 1
Parys@@ 1
Artaxerxes, 1
complicated 1
spiration 1
splendid 1
view@@ 1
yris 1
Dorians 1
request, 1
Besides 1
Val@@ 1
unfortunate 1
tains 1
reverence 1
cowardi@@ 1
dishonourable 1
stoc@@ 1
ks. 1
sell 1
Theb@@ 1
managing 1
affairs. 1
worthless 1
useful 1
Salamis 1
Theop@@ 1
ce: 1
compani@@ 1
mak@@ 1
provision 1
Crete 1
lev@@ 1
elled 1
grati@@ 1
prot@@ 1
intentions 1
guarante@@ 1
offer, 1
invite 1
hesit@@ 1
she@@ 1
law; 1
Potidae@@ 1
cared 1
faces 1
irus, 1
summer. 1
susp@@ 1
boys, 1
magnitude 1
evils 1
Des@@ 1
solemn 1
battle; 1
fill@@ 1
pity 1
ily; 1
triumph. 1
sen 1
ots, 1
detach@@ 1
bitterly 1
philus 1
Naupactus, 1
confidently 1
duties, 1
station 1
advance, 1
pron@@ 1
shrine 1
consecrated 1
dence 1
enable 1
invade 1
lands. 1
quali@@ 1
addres@@ 1
everything. 1
mission, 1
cun@@ 1
devised 1
itnes@@ 1
breast 1
diverted 1
horses, 1
aging 1
proposal 1
Cir@@ 1
wall. 1
aring 1
add@@ 1
dered 1
expense. 1
changes 1
Arcadian 1
encamping 1
plunder 1
esteemed 1
away; 1
exer@@ 1
taken; 1
inferi@@ 1
ority 1
merchandi@@ 1
answer: 1
Batt@@ 1
Arces@@ 1
ila@@ 1
Lox@@ 1
ias 1
kingship 1
Cyren@@ 1
advi@@ 1
bequeathed 1
revolt. 1
assembling 1
province, 1
hills, 1
magn@@ 1
itude, 1
consideration 1
Achaeans 1
uno@@ 1
art, 1
distri@@ 1
colon@@ 1
infli@@ 1
wra@@ 1
careless 1
Phrygia 1
married, 1
ric@@ 1
disea@@ 1
treatment. 1
mourning, 1
Asia; 1
peltast@@ 1
price. 1
Soldi@@ 1
succ@@ 1
heap@@ 1
bands 1
sian 1
stronghold 1
tear@@ 1
confid@@ 1
about, 1
throw@@ 1
hospitality, 1
lover 1
fair, 1
fitt@@ 1
course. 1
peril@@ 1
soon@@ 1
defend 1
continual 1
Histiaeus 1
fir@@ 1
swa@@ 1
neighboring 1
islands 1
Belo@@ 1
burial 1
forth@@ 1
excellence 1
honor. 1
eighth 1
ined 1
Adra@@ 1
depra@@ 1
passion, 1
pierced 1
standing, 1
official 1
picked 1
Macedonians 1
youthful 1
valour, 1
gleaming 1
gilded 1
magnific@@ 1
promp@@ 1
array. 1
buri@@ 1
yst@@ 1
al; 1
cost@@ 1
authorities 1
wit@@ 1
expedition. 1
countri@@ 1
deserving 1
inviting 1
furnish 1
Byzantium 1
Speusi@@ 1
agency 1
conceal@@ 1
intelligence 1
plea, 1
tyrants 1
retribution 1
ered, 1
marshalled 1
throat 1
poison 1
merely 1
thousan@@ 1
Ambraciots 1
amazed, 1
ght; 1
stumbled 1
wee@@ 1
repute 1
philosophers 1
account, 1
ning. 1
pretex@@ 1
Parthians, 1
ites, 1
spirited 1
ins. 1
tired 1
important 1
duties 1
troublesome 1
prey 1
ung 1
Gobryas 1
Magus 1
helpless 1
Cleander 1
arrangements 1
home@@ 1
other's 1
mine. 1
ths, 1
league 1
divisi@@ 1
Ep@@ 1
why, 1
Sel@@ 1
nes 1
ph, 1
tresp@@ 1
rain 1
terror, 1
tumult 1
hur@@ 1
disaster@@ 1
unknown 1
forged 1
torture 1
strove 1
Pi@@ 1
ety 1
Ctesi@@ 1
proposed 1
lori@@ 1
associate 1
closing 1
design@@ 1
readers 1
dance 1
god’s 1
staff 1
concluded, 1
Aemili@@ 1
writers 1
enrolled 1
summ@@ 1
ack 1
amount 1
Methym@@ 1
proposal, 1
urena 1
Cras@@ 1
disaster. 1
Vic@@ 1
tory, 1
violation 1
bits 1
thal@@ 1
prosperous 1
achiev@@ 1
ements. 1
swiftness 1
furlongs 1
snow 1
illed 1
forces. 1
orac@@ 1
dominions 1
Perdiccas 1
white@@ 1
Fabri@@ 1
Pyrrhus 1
inus, 1
smitt@@ 1
Cha@@ 1
barely 1
capable 1
requires 1
fro@@ 1
draw@@ 1
whom@@ 1
obey. 1
ter? 1
claim@@ 1
runners 1
Olympia, 1
jah 1
fingers 1
deserting 1
sive, 1
disaster, 1
red; 1
leaders, 1
constr@@ 1
Epipol@@ 1
travel 1
compel 1
exacting 1
Demetri@@ 1
quantities 1
Antony, 1
aver@@ 1
cleared 1
lion, 1
gap@@ 1
coo@@ 1
highest 1
honors 1
Marius 1
Cel@@ 1
worth, 1
allegiance 1
legi@@ 1
anian 1
promised, 1
ling@@ 1
school 1
Cyrus. 1
	@@ 1
measure@@ 1
voyage, 1
Asp@@ 1
vanquished 1
Leu@@ 1
posted 1
Zacyn@@ 1
spot 1
lus 1
ilius 1
aked 1
prowess 1
Hor@@ 1
elous 1
disa@@ 1
submitting 1
shrew@@ 1
Ni@@ 1
escort 1
dra@@ 1
dian 1
sank 1
besieging 1
stock@@ 1
attacking 1
missiles 1
assaul@@ 1
conquer@@ 1
blood; 1
Lacedaemoni@@ 1
timus, 1
Stro@@ 1
Por@@ 1
Epic@@ 1
Volsci@@ 1
misfortunes 1
their@@ 1
siege 1
reared 1
run@@ 1
fer 1
companion 1
itude. 1
rivers, 1
xing 1
habit 1
Arax@@ 1
channel 1
sail, 1
pillars 1
accusing 1
orial 1
tribunal 1
asle@@ 1
eyed 1
ess; 1
Fortune, 1
postpon@@ 1
displeasure 1
comple@@ 1
crit@@ 1
Pat@@ 1
Herm@@ 1
formation 1
Af@@ 1
Porci@@ 1
suddenly, 1
counsels 1
what, 1
invasion 1
mysteries 1
Heaven, 1
Amaz@@ 1
ord@@ 1
Ten@@ 1
mus 1
daybreak 1
effects 1
frequ@@ 1
glor@@ 1
wreck@@ 1
fortunes 1
befell 1
manner, 1
ambassadors, 1
spending 1
Gor@@ 1
silver. 1
punishment, 1
escaped, 1
Egypt. 1
ain; 1
hypo@@ 1
than@@ 1
ks; 1
light-armed 1
Hellas 1
at-@@ 1
hundred. 1
merchant 1
accus@@ 1
ired 1
cely 1
argue 1
subver@@ 1
fulfil@@ 1
Corinthi@@ 1
Plataea, 1
mud 1
cohor@@ 1
invitation, 1
oblige 1
apparently 1
neglected 1
Dionysi@@ 1
willingly 1
teaches 1
Dan@@ 1
Hand@@ 1
maid@@ 1
ens@@ 1
tened, 1
travelling 1
stumb@@ 1
enjoyment 1
Archidamus, 1
disc@@ 1
counting 1
apparent 1
grounds 1
theirs, 1
refusal 1
ming@@ 1
sea-fight 1
obstin@@ 1
sci@@ 1
talent 1
cultivated 1
b, 1
dog 1
wall@@ 1
plenti@@ 1
few@@ 1
next, 1
captives 1
ransom@@ 1
tyrant, 1
demands 1
Eudam@@ 1
charm 1
contributing 1
hospital@@ 1
doom 1
marri@@ 1
Vir@@ 1
tu@@ 1
evil@@ 1
truth; 1
Eurybiades 1
want@@ 1
given@@ 1
straits 1
yb@@ 1
someone, 1
Callippus 1
treati@@ 1
yearly 1
achievement 1
Neop@@ 1
tole@@ 1
sun. 1
title 1
grateful 1
angry 1
voyage 1
Cleop@@ 1
milder 1
Thermopylae, 1
enterprise 1
cks, 1
plundered 1
guest-@@ 1
overseers 1
reduce 1
islanders 1
confederacy. 1
Hipparchus 1
famous 1
considerable 1
wed 1
stream@@ 1
mistake, 1
Tarent@@ 1
Democedes 1
ton 1
COM@@ 1
eep 1
aiding 1
matters, 1
palace. 1
Argos, 1
king’s 1
Pelasgi@@ 1
blame. 1
counten@@ 1
Xerxes, 1
battles 1
formidable 1
cool 1
Po@@ 1
news, 1
eti@@ 1
tas 1
hapless 1
wife’s 1
Africa 1
Cato 1
Gaul@@ 1
good-@@ 1
provin@@ 1
sea-fight, 1
lasted 1
unched 1
fare 1
strongholds, 1
institutions 1
describe 1
system 1
bravest 1
scene 1
stage 1
represented 1
unpleasant 1
tracks, 1
shoc@@ 1
unaware 1
Cephi@@ 1
Aetoli@@ 1
cy. 1
plains 1
wealthy 1
where. 1
Dorian 1
Argos 1
hill. 1
Stymph@@ 1
ll@@ 1
stic 1
river@@ 1
ymph@@ 1
Pae@@ 1
stand@@ 1
shouting 1
proclam@@ 1
can, 1
cattle. 1
catt@@ 1
fame, 1
institu@@ 1
adversaries 1
Sailing 1
Chi@@ 1
os. 1
gy@@ 1
lli@@ 1
Miletus. 1
Gaul 1
cut@@ 1
ine@@ 1
ering 1
And, 1
sacrificing 1
bull, 1
high@@ 1
resi@@ 1
stance, 1
precau@@ 1
odium 1
envo@@ 1
conditions 1
lodge 1
countries 1
discuss 1
Chios, 1
Lesbos, 1
Corcyra, 1
observe, 1
shade 1
Phoe@@ 1
enchre@@ 1
safe 1
stic@@ 1
recover@@ 1
Chrysantas 1
a? 1
listen@@ 1
snow, 1
gates, 1
bel 1
im 1
itions, 1
palac@@ 1
Phrygi@@ 1
issu@@ 1
injuring 1
arbitr@@ 1
secute 1
trial. 1
ug@@ 1
arrangement 1
recogni@@ 1
choo@@ 1
guardians 1
celebrate 1
honor@@ 1
pare 1
besought 1
Arch@@ 1
Tel@@ 1
Hell@@ 1
horsemen. 1
emn@@ 1
nas@@ 1
places; 1
tranqu@@ 1
Achaia, 1
Artembar@@ 1
on-@@ 1
shri@@ 1
deep, 1
chant 1
discipline, 1
illeg@@ 1
governors 1
words; 1
noticed 1
inspired 1
outlying 1
lot, 1
flowed 1
perished. 1
Hearing 1
fail@@ 1
dut@@ 1
Zen@@ 1
questions 1
sweet-@@ 1
agr@@ 1
produ@@ 1
defici@@ 1
Lucius 1
mone@@ 1
aced@@ 1
meals 1
redu@@ 1
Perdic@@ 1
empty, 1
ver, 1
leaping 1
streaming 1
calamities 1
Bosp@@ 1
orus 1
Samians, 1
Darius. 1
memori@@ 1
ized 1
orders, 1
Atti@@ 1
traitor. 1
favour@@ 1
Argives, 1
impose 1
Epidauri@@ 1
sent@@ 1
writt@@ 1
cking 1
forthwith 1
-eat@@ 1
worship@@ 1
medd@@ 1
played 1
wretche@@ 1
Them@@ 1
so; 1
Thu@@ 1
hounds 1
unwashed 1
subdued 1
promises, 1
procure 1
expul@@ 1
shrin@@ 1
readily 1
Greece, 1
visible, 1
will; 1
cov@@ 1
barric@@ 1
impression 1
Ch@@ 1
uproar, 1
harbour 1
slaver@@ 1
e’s 1
penalty. 1
dotus 1
ff@@ 1
Sun@@ 1
excep@@ 1
stratag@@ 1
abominable 1
Babyl@@ 1
There, 1
Tele@@ 1
high. 1
thick 1
il; 1
treacher@@ 1
harmoni@@ 1
bry@@ 1
shield 1
farthest 1
propose 1
sail@@ 1
iron, 1
rendering 1
observ@@ 1
Prote@@ 1
atMemphis 1
ease 1
ch; 1
left, 1
rati@@ 1
journe@@ 1
accepting 1
abroad. 1
figh@@ 1
longer. 1
ount 1
yon@@ 1
elephan@@ 1
sued 1
offices 1
contingents 1
Xen@@ 1
colleag@@ 1
ues. 1
lies, 1
bran@@ 1
children’s 1
sions; 1
ply 1
truce. 1
betook 1
princes 1
large, 1
passed, 1
cups, 1
vessels, 1
Inste@@ 1
indicating 1
loss, 1
Cot@@ 1
colleague 1
entreaties 1
Sen@@ 1
tis, 1
compri@@ 1
jointly 1
Timotheus 1
anians 1
Magnes@@ 1
danced 1
so-called 1
pae@@ 1
uttering 1
licen@@ 1
ach; 1
outr@@ 1
hearers 1
mou@@ 1
scythe-bearing 1
chariots 1
extraordinary 1
device 1
tained 1
Areopag@@ 1
spear 1
deman@@ 1
playing 1
Cret@@ 1
range 1
Rho@@ 1
dians, 1
versed 1
inging 1
lead@@ 1
just. 1
just, 1
elus, 1
Lesbo@@ 1
month, 1
perio@@ 1
avoi@@ 1
thians 1
fire; 1
venture 1
Ili@@ 1
’s, 1
plea 1
bulus 1
states@@ 1
eminent 1
Nau@@ 1
associated 1
Aegina, 1
sore 1
Pirae@@ 1
Τ@@ 1
terribly 1
lace 1
Ares 1
regiment 1
meanwhile 1
rival 1
advoc@@ 1
Aege@@ 1
fortunate 1
Claudius 1
succeeding 1
wil@@ 1
dign@@ 1
awaited 1
distance, 1
harmed 1
crip@@ 1
handsom@@ 1
Crete, 1
Romans, 1
Alcibiades. 1
War 1
Platae@@ 1
oft 1
false@@ 1
sounded 1
managed 1
ude 1
Epidaurus, 1
Ages@@ 1
idas. 1
hard, 1
shut@@ 1
orators 1
rely 1
mount 1
horses. 1
manifold 1
Gent@@ 1
relate 1
treaty, 1
rocks 1
lag@@ 1
lamp 1
lady 1
injure 1
def@@ 1
completion 1
Potidaea, 1
st; 1
even@@ 1
onius 1
Perse@@ 1
thirsty 1
centre 1
opponents 1
slaughter, 1
victorious, 1
questions. 1
security 1
Euboea 1
cond@@ 1
itions. 1
through, 1
thic@@ 1
origin 1
enmity 1
purposes, 1
actu@@ 1
sume 1
happen. 1
match 1
natures 1
id, 1
fellow, 1
blows 1
license 1
Phil@@ 1
olo@@ 1
Ner@@ 1
eus 1
pas, 1
faced 1
shment 1
Asia@@ 1
sway 1
tribute 1
compulsion 1
bloo@@ 1
tres@@ 1
ations. 1
north 1
gates. 1
bribe 1
interests. 1
conspir@@ 1
acy. 1
order@@ 1
precipit@@ 1
barle@@ 1
eld 1
ley 1
rough 1
smoo@@ 1
silence, 1
etus, 1
tas, 1
subject@@ 1
ic 1
use. 1
wipe 1
streets 1
lineage 1
adopt 1
view. 1
Fortun@@ 1
atus, 1
four-@@ 1
three-@@ 1
gg@@ 1
assail@@ 1
ashed 1
ters. 1
how, 1
dious 1
suppose, 1
clad 1
hill@@ 1
garment, 1
fortress 1
border, 1
treachery 1
besieg@@ 1
nets 1
chooses 1
poverty 1
congen@@ 1
ial 1
possession, 1
itors 1
tes, 1
supported 1
fleet, 1
ars, 1
beasts, 1
glut@@ 1
ton@@ 1
grud@@ 1
service. 1
mid 1
ras@@ 1
Aristagoras 1
shoes 1
has@@ 1
n’t 1
previ@@ 1
unning 1
Clau@@ 1
ink 1
Euboe@@ 1
treating 1
cerem@@ 1
plotting 1
chanting 1
ack@@ 1
horr@@ 1
unhappy 1
Clear@@ 1
trophy. 1
lowly 1
Alexan@@ 1
nowhere 1
inEgypt 1
expected, 1
plu@@ 1
Nym@@ 1
assa@@ 1
privy 1
ic, 1
Bri@@ 1
rights 1
deprived 1
necessaries 1
drachmas 1
posed 1
united 1
rowed 1
stadia, 1
boat@@ 1
bitterness 1
springing 1
thereby 1
descendants 1
mn@@ 1
adae, 1
edly 1
wick@@ 1
centurion, 1
estate, 1
smiled 1
beh@@ 1
Perseph@@ 1
grou@@ 1
ber 1
soil. 1
disposed 1
Apol@@ 1
ank 1
universal 1
ush 1
ick@@ 1
chief, 1
direct 1
hospitality 1
entertained 1
amis@@ 1
high-@@ 1
crag@@ 1
Cau@@ 1
spear@@ 1
angered 1
Eleusi@@ 1
kee@@ 1
Eleusis, 1
girl@@ 1
isi@@ 1
winged 1
words: 1
domini@@ 1
daggers 1
weather 1
hurry 1
surprise, 1
converse 1
hostil@@ 1
Oth@@ 1
o’s 1
Vitelli@@ 1
clouds 1
ostensibly 1
planning 1
examining 1
ze 1
aining 1
cove@@ 1
sacrifices, 1
Arr@@ 1
mov@@ 1
acquit 1
credit@@ 1
exemp@@ 1
banded 1
discourse 1
probabil@@ 1
directly 1
distingu@@ 1
preservation 1
absurd 1
relation 1
resemblance 1
rought 1
endeavor 1
cherish 1
ws, 1
qualified 1
presume 1
φ@@ 1
ή@@ 1
/ 1
η@@ 1
ῦ@@ 1
ν@@ 1
preserved 1
circum@@ 1
air 1
prompt 1
examination 1
opinion. 1
scr@@ 1
ching. 1
probable 1
oper@@ 1
vered 1
ges. 1
cess@@ 1
capacity 1
ee@@ 1
again; 1
speedy 1
escape, 1
wanted. 1
nobody 1
satis@@ 1
sir, 1
cles; 1
cloth 1
simil@@ 1
show. 1
Mel@@ 1
contention 1
complained 1
called@@ 1
ose, 1
depos@@ 1
joints, 1
wanton 1
Wo@@ 1
concealed 1
repa@@ 1
extor@@ 1
raises 1
snatching 1
beauty, 1
withdre@@ 1
trusted 1
attendants, 1
contribute 1
gone. 1
endeavour 1
colony, 1
route 1
Corcyraean 1
interrup@@ 1
efforts 1
dissuade 1
claim 1
chr@@ 1
steadfast@@ 1
offended 1
cher@@ 1
seat, 1
imperi@@ 1
demanding 1
Spithrid@@ 1
Paphlag@@ 1
(he 1
ungodly 1
expedition, 1
desolate, 1
confin@@ 1
Things 1
Tyr@@ 1
citizen, 1
Ul@@ 1
lim@@ 1
iz@@ 1
preference 1
coward 1
hopes, 1
taxes 1
sight@@ 1
forti@@ 1
onymus 1
worst 1
Sab@@ 1
armed, 1
dwell@@ 1
prefer@@ 1
sounded, 1
sign@@ 1
adul@@ 1
contests 1
rewards 1
hurri@@ 1
rain, 1
plagues 1
killed. 1
Cri@@ 1
tut@@ 1
poses 1
alarmed 1
possibility 1
method 1
capturing 1
consor@@ 1
t’s 1
conquering 1
harsh 1
Among 1
eting 1
preju@@ 1
indulge 1
prefer 1
auri@@ 1
Agathyr@@ 1
si, 1
Bu@@ 1
fellow-@@ 1
neglect 1
counc@@ 1
surpass 1
discus@@ 1
perfectly 1
pair 1
contempl@@ 1
combined 1
wept, 1
thou, 1
dine 1
virg@@ 1
exul@@ 1
award 1
sum 1
combat@@ 1
est; 1
Hippocrates 1
remembr@@ 1
Nest@@ 1
lius 1
kin@@ 1
permission 1
alarm 1
dened 1
does@@ 1
brave. 1
Grac@@ 1
ious 1
avi@@ 1
remar@@ 1
aloud, 1
reception 1
tral 1
resolu@@ 1
punishment. 1
yester@@ 1
spon@@ 1
testimony. 1
tee@@ 1
plying 1
victim 1
Furi@@ 1
spell 1
lyre, 1
deed, 1
nac@@ 1
ould 1
famine, 1
scal@@ 1
ell, 1
Plataeans 1
ests 1
Cat@@ 1
danger, 1
calamity, 1
wei@@ 1
Athenians; 1
admiration 1
squadron 1
Thespi@@ 1
infantry, 1
Plataeans, 1
back@@ 1
hateful 1
insol@@ 1
haught@@ 1
money; 1
remo@@ 1
que@@ 1
ask@@ 1
but@@ 1
thru@@ 1
width. 1
fought, 1
respects, 1
increasing 1
earth; 1
