καὶ 4800
δὲ 2152
ἐν 1508
ὁ 1468
τοῦ 1234
τὸ 999
τὸν 917
τὴν 898
εἰς 895
τῶν 825
οἱ 728
ὅτι 670
τῆς 663
τῷ 661
γὰρ 628
μὴ 604
τὰ 559
ἡ 553
τοὺς 525
οὐκ 476
πρὸς 467
τῇ 464
τοῖς 440
οὐ 416
αὐτοῦ 408
ἐπὶ 392
αὐτῷ 372
ἐκ 367
αὐτὸν 357
μὲν 334
τε 332
ὡς 328
ἵνα 321
διὰ 308
οὖν 306
ἢ 292
εἶπεν 288
αὐτοῖς 265
ἀλλὰ 259
εἰ 251
ἀπὸ 245
τὰς 239
καὶ@@ 227
ἐπι@@ 226
. 225
, 224
Καὶ 220
κατὰ 218
περὶ 218
ν@@ 211
ἐ@@ 209
ὑμῖν 207
αὐτῶν 206
θεοῦ 197
Ἰησοῦς 197
τί 189
τοῦτο 182
μου 180
μετὰ 179
ἐστιν 177
τις 175
ὑμῶν 173
ς, 171
ς. 171
ἀπο@@ 169
ἦν 165
σιν 160
ἀ@@ 158
ταῦτα 157
ἂν 156
ὑμᾶς 155
ρ@@ 155
λέγει 152
ἀλλʼ 149
κατα@@ 148
ὑπὸ 148
· 146
ς@@ 146
δʼ 143
δια@@ 142
ἡμῶν 139
ν. 139
τε@@ 137
πάντα 135
ἐγὼ 131
αὐτοὺς 130
ἀνα@@ 129
; 128
ἐὰν 127
ς 126
ἐς 126
ἐκ@@ 126
σου 125
μ@@ 125
ἐξ 125
νο@@ 123
δέ 122
σεν 121
γ@@ 119
ταῖς 118
ἔ@@ 116
Ἰησοῦ 116
ὃ 116
μεν 115
ν, 114
ν· 112
π@@ 112
αἱ 112
οὕτως 111
ι@@ 110
ἐν@@ 109
ς; 109
μοι 107
παρα@@ 107
τ@@ 106
πάντες 106
σ@@ 106
μα@@ 105
ται 105
παρὰ 104
θεὸς 104
ἄ@@ 104
διʼ 103
με@@ 103
αὐτοῦ. 103
τι 102
κε@@ 102
με 101
προ@@ 100
ι, 100
ρα@@ 100
τε, 100
Ὁ 99
κο@@ 99
ὑμεῖς 99
ν 99
αὐτὸς 99
αὐτοῦ, 98
οὐδὲ 96
σα@@ 96
ς· 95
ὃς 95
λε@@ 94
κ@@ 93
σαν 92
λα@@ 91
πο@@ 91
ύ@@ 91
λ@@ 90
ὑπὲρ 90
σε 90
ἐστὶν 89
ι. 88
τοῦ@@ 87
δε@@ 87
κα@@ 85
λέγων 85
τότε 85
Τί 85
πα@@ 84
θ@@ 84
σα 84
ἐπʼ 83
ἔφη 83
ἐγένετο 83
ί@@ 83
σι 82
σιν, 82
νῦν 82
ἡμᾶς 80
νε@@ 80
καθὼς 80
πε@@ 80
τι@@ 79
μᾶλλον 79
δ@@ 79
να@@ 79
Χορός 79
σι@@ 78
ὃν 78
συν@@ 78
πάλιν 78
περι@@ 78
πάντων 77
οὐχ 77
σαι 77
ν; 77
ἡμῖν 76
ῶν 75
λέγοντες 75
λι@@ 75
ται, 74
τε. 73
εὐ@@ 73
ίαν 72
δὲ@@ 72
ρο@@ 72
σε@@ 72
θε@@ 72
α 71
διε@@ 70
νό@@ 70
σας 70
τη@@ 70
φ@@ 70
ίας 70
αὐτόν. 70
ο@@ 70
τίς 69
το@@ 69
τί@@ 69
λυ@@ 69
να 69
σθε 68
ρι@@ 68
πό@@ 67
σοι 67
Ἀ@@ 67
λέγω 67
σὺν 66
σὺ 66
ἐμ@@ 66
σω@@ 66
εἷς 66
ἔστιν 65
προσ@@ 65
δύο 65
ις 65
ξ@@ 65
χ@@ 64
κυρίου 64
μετʼ 64
Χριστοῦ 64
σθαι 64
ᾧ 64
ρε@@ 64
ἕως 64
θεοῦ, 64
μέ@@ 64
οὗ 64
υ@@ 64
β@@ 64
ἃ 63
γα@@ 63
ὧν 63
ντας 63
ἀπε@@ 63
εἶναι 62
ω@@ 62
γε@@ 62
ἡμεῖς 61
ἠ@@ 61
πῶς 61
σιν. 61
ά@@ 61
γάρ 61
θη@@ 61
μένους 61
ὅταν 60
ον 60
μά@@ 60
μη@@ 60
ἀπʼ 59
ντος 59
ται. 59
οὐδὲν 59
αὐτόν, 58
ῖς 58
ἐξε@@ 58
ἔσται 58
Μὴ 58
ώ@@ 58
το 58
ἤδη 58
δο@@ 58
κό@@ 58
οὗτος 57
ἐφʼ 57
ρί@@ 57
ντες 57
ε@@ 57
δό@@ 57
οὔτε 57
ἰδοὺ 56
εἶπαν 56
τέ@@ 56
τα@@ 56
τὸ@@ 56
Ἐ@@ 56
ὑμῖν, 56
φα@@ 56
αὐτῇ 56
ὶ 56
πνεῦμα 56
λη@@ 56
χο@@ 55
ἡμέρας 55
λόγον 55
ό@@ 54
γο@@ 54
ντα 54
μα 54
ἄρ@@ 54
λύ@@ 54
τούτῳ 54
μαθηταὶ 54
σο@@ 53
νη@@ 53
Κεφ. 53
ἣν 53
μο@@ 53
ἔτι 53
ὑπο@@ 53
σῃ 52
πέ@@ 52
πι@@ 52
δεῖ 52
ί 52
ὸν 52
μου, 52
ῖ@@ 52
μι@@ 52
συνε@@ 51
ίου 51
τον 51
εὐθὺς 51
Σ@@ 50
λο@@ 50
δι@@ 50
δα@@ 50
δέ@@ 50
στα@@ 50
ἦσαν 49
αὐτὴν 49
ὅτε 49
κατʼ 49
ἀποκριθεὶς 49
ων 49
ρω@@ 49
θεοῦ. 49
ι 49
ὸς 49
τά@@ 49
αὐτοὶ 48
κατε@@ 48
νί@@ 48
βα@@ 48
στ@@ 48
ὁ@@ 48
ὦ 48
η@@ 48
κέ@@ 48
παρε@@ 48
θέ@@ 48
αὕτη 47
ρη@@ 47
Κύριε, 47
θεῷ 47
ὶ@@ 47
πάντας 47
ξε@@ 47
ίας, 47
τὴν@@ 46
έ@@ 46
αὐτὸ 46
βο@@ 46
ῃ 46
πά@@ 46
σθε, 46
μεν. 46
σεν, 45
ἐπε@@ 45
ζο@@ 45
ντες, 45
τῆς@@ 45
πρῶτον 45
ντο 45
ῆς 45
τοῖσι 45
ἢν 45
φο@@ 45
α@@ 45
ἐστιν. 45
δου 45
δὴ 45
Οὐκ 45
ις, 45
ῳ 45
εἴτε 45
ὑμᾶς, 44
αἰ@@ 44
ἔχων 44
μηδὲ 44
ἐκεῖ 44
ται@@ 44
υἱὸς 44
σί@@ 44
ὥστε 44
ι· 44
οὐδεὶς 44
ὴν 44
μετα@@ 44
νος 44
δυ@@ 44
κεν 44
τούτων 44
νι@@ 44
ίᾳ 43
παρʼ 43
ῶ 43
Ἰησοῦν 43
ὅπως 43
κα 43
ἔχει 43
ἄνθρωπος 43
ἀνε@@ 43
τος 43
μένων 43
ἐμοὶ 43
ἡ@@ 43
μένου 42
Π@@ 42
ου@@ 42
Κα@@ 42
μή 42
ῦ@@ 42
ψ@@ 42
νή@@ 42
ἐστίν. 42
σει 42
ἀνέ@@ 42
ή@@ 41
ἀδελφοί, 41
ὥσπερ 41
νται, 41
σθαι. 41
ἦλθεν 41
πατὴρ 41
ἡμέρᾳ 41
κατέ@@ 40
νται 40
ντι 40
τὸν@@ 40
αὐτῷ. 40
κύριος 40
εἰς@@ 40
ρον 40
λω@@ 40
ὀ@@ 40
Πέτρος 40
ἔλεγεν 40
τό@@ 40
μενος 40
πᾶς 40
Κ@@ 40
καθʼ 40
ων. 40
κρι@@ 40
Ἐν 40
θυ@@ 40
ίας. 40
μό@@ 39
σαν. 39
αὐτῶν. 39
μεν, 39
ην 39
συμ@@ 39
πί@@ 39
ρα 39
οὐ@@ 39
κρα@@ 39
ρά@@ 39
θῆναι 39
ρή@@ 39
ἀπεκρίθη 39
συνέ@@ 39
ων, 39
Χριστῷ 39
φω@@ 39
καί 39
σιν@@ 38
Ο@@ 38
γέ@@ 38
θα@@ 38
αὐτῶν, 38
ἔλεγον 38
ἑαυτὸν 38
Οὐ 38
προσε@@ 38
ἐμοῦ 38
μαι 38
νέ@@ 38
τοῦτον 38
της 38
δί@@ 38
ἵνα@@ 37
πόλιν 37
Δ@@ 37
ἐπέ@@ 37
Ε@@ 37
ἥ@@ 37
σω 37
ὑμῶν. 37
λί@@ 37
μάλιστα 37
κρί@@ 37
μή@@ 37
ἔξω 37
ίαν. 36
λά@@ 36
λόγος 36
ά 36
ποι@@ 36
ζω@@ 36
τινος 36
οὗτοι 36
και@@ 36
σις 36
ἴ@@ 36
πολλὰ 36
μενον 36
Λ@@ 36
πρὸ 36
ις. 36
αὐτοῦ@@ 36
τος, 36
ῇ 36
νά@@ 36
οὕτω 35
θεὸν 35
μαρτυ@@ 35
σαν, 35
ἀντι@@ 35
ων@@ 35
θη 35
πᾶν 35
φά@@ 35
Ἰδοὺ 35
ξα@@ 35
ὅτι@@ 35
χε@@ 35
Ἔ@@ 35
οὓς 35
ὅ@@ 35
ντες@@ 35
ἐμὲ 35
χάρις 35
ζε@@ 35
νον 34
σά@@ 34
λέ@@ 34
νοῦ@@ 34
του 34
ίαν, 34
νω@@ 34
τή@@ 34
βά@@ 34
εἶ@@ 34
Οἱ 34
ἑ@@ 34
ἐγ@@ 34
ἀνθρώπου 34
ῶν, 34
σθαι, 34
ῳ@@ 34
σθ@@ 34
πολλοὶ 34
ὅπου 34
μου. 34
γε 34
Τ@@ 34
ἀκούσαντες 34
τε· 34
ρος 34
ἐξέ@@ 34
οἷς 34
συ@@ 34
ςκαὶ 33
μὴ@@ 33
σκο@@ 33
ἐνε@@ 33
ἀρ@@ 33
πατέρα 33
τω@@ 33
ρων 33
μόνον 33
μον 33
τα 33
τε; 33
μενοι 33
ἰ@@ 33
γυνὴ 33
ζη@@ 33
τὰ@@ 33
φυ@@ 33
τέ 33
ὑμῶν, 33
ψα@@ 32
ἄν 32
Ι@@ 32
ἐνώπιον 32
ῷ 32
τῷ@@ 32
λέγουσιν 32
ἧς 32
ὰ 32
ἡμῶν, 32
το. 32
ία 32
μήτε 32
ίων 32
μου@@ 32
στά@@ 32
ση@@ 32
τω 32
κυ@@ 32
ὺς 32
Ἰουδα@@ 32
στο@@ 32
ὑμῖν. 31
εἶ 31
αὐτῷ@@ 31
εἰ@@ 31
ντ@@ 31
τυ@@ 31
ου 31
ἀλλήλους 31
ται· 31
κἀγὼ 31
σιν· 31
τῇ@@ 31
νόμου 31
πνεύματος 31
κύ@@ 31
γνω@@ 31
ὄνομα 31
στε@@ 31
θή@@ 31
ἐπεὶ 31
ἐποίησεν 31
σεν. 31
αὐτοῖς. 31
ήσας 31
μένη 31
ἀπέ@@ 31
βασιλεία 31
νας 30
ιο@@ 30
νται. 30
βασιλεὺς 30
τʼ 30
ντων 30
ἐξῆλθεν 30
ί, 30
ω 30
ἅ@@ 30
βε@@ 30
Α@@ 30
υἱὸν 30
αὐτῆς 30
σῶμα 30
πλη@@ 30
ἁ@@ 30
Εἰ 30
ἦ@@ 30
ποτε 30
δύναται 30
μεθα 30
ἤ@@ 30
γά@@ 30
γὰρ@@ 30
πᾶσα 30
δόξαν 30
νων 30
ρας 29
δ’ 29
ᾶ@@ 29
δύνα@@ 29
ἓν 29
φό@@ 29
ὀνόματι 29
δέ, 29
χωρὶς 29
θεὶς 29
ρέ@@ 29
ρ 29
κου@@ 29
εἰσὶν 29
εἴ 29
ἔδωκεν 29
ἕ@@ 29
ᾶς 29
ἀγ@@ 29
ὰς 29
ντος, 29
Φαρισαῖοι 29
δος 29
ρό@@ 29
πίστεως 29
ἄρα 29
τῶν@@ 29
Σὺ 28
ἑαυ@@ 28
θύ@@ 28
γῆν 28
Μ@@ 28
οὐκέτι 28
κυρίῳ 28
ΟΣ 28
κακ@@ 28
σαντες 28
ἐστιν, 28
ήσει 28
σον 28
μενοι, 28
ὅ 28
χρόνον 28
οἶδα 28
σου. 28
τούτου 28
θήσεται 28
στη@@ 28
δώδεκα 28
Ἡ 28
πᾶσαν 28
γη@@ 28
χα@@ 28
ιν@@ 28
πονη@@ 28
ία, 28
ἐγέννησεν 28
ἔρχεται 27
γενέσθαι 27
Κυρίου 27
Τότε 27
μένον 27
ον. 27
ῖ 27
τοι 27
πη@@ 27
ῶν. 27
ἑαυτοῦ 27
κακόν. 27
κά@@ 27
ε 27
λή@@ 27
ῶ@@ 27
ντα@@ 27
Γ@@ 27
ίοις 27
ματα 27
συνα@@ 27
νόμον 27
πνεύματι 27
ρώ@@ 27
ἄνθρωπον 27
ρῶν 27
δω@@ 27
εἴ@@ 27
ζό@@ 27
μί@@ 27
δά@@ 27
καλὸν 27
αὐτοῖς, 27
δη@@ 27
αὐτούς 26
τέκνα 26
ιν, 26
ύο@@ 26
ίας@@ 26
ἀνθρώπων 26
οἱ@@ 26
σαι@@ 26
ντὸν 26
ντες. 26
ζωὴν 26
μηδὲν 26
Ἰ@@ 26
ἀπό@@ 26
ί. 26
ης 26
Θωμᾶς 26
μάτων 26
γό@@ 26
θο@@ 26
ἐσ@@ 26
σμ@@ 26
των 26
μω@@ 26
τρι@@ 26
τινα 26
σκό@@ 26
βασιλείαν 26
ἐξ@@ 26
χω@@ 26
νει 26
λλ@@ 26
παντὶ 26
σθη 26
θά@@ 26
διά@@ 26
ὰ@@ 26
γῆς 26
φί@@ 26
κη@@ 26
κλη@@ 26
ἰδὼν 25
πρό@@ 25
ὧδε 25
ζ@@ 25
σκε@@ 25
αὐ@@ 25
νῃ 25
πάσῃ 25
σατε 25
μεν@@ 25
λό@@ 25
ῶς 25
θέντες 25
ία@@ 25
ρῳ 25
ού@@ 25
Πειλᾶτος 25
ἐκεῖνος 25
Χριστὸς 25
Τί@@ 25
ῇ, 25
πατρὸς 25
ἦλθον 25
εἶναι, 25
χεῖρας 25
Β@@ 25
του@@ 25
μεῖ@@ 25
δώ@@ 25
πᾶσιν 25
νθ@@ 25
αἷμα 25
ἐκεί@@ 24
μένοις 24
μεθʼ 24
ίο@@ 24
μὴν 24
ῳ, 24
Εἲς 24
τας 24
πολλῶν 24
ἀφʼ 24
θητε 24
ζων 24
Παῦλος 24
εἰσιν 24
ἥτις 24
ἰδόντες 24
νους 24
οὐρανοῦ 24
ἐκεῖ@@ 24
ματι 24
θανάτου 24
πιστεύ@@ 24
ποιοῦ@@ 24
νην 24
Πα@@ 24
φε@@ 24
ουσιν 24
ἀρχιερεῖς 24
Μα@@ 24
εἶδεν 24
ἤρξατο 24
φι@@ 24
ις@@ 24
μένοι 24
διέ@@ 24
τινες 24
ῶν@@ 24
σουσιν 24
ᾷ 24
ἑαυτοὺς 24
μαθητῶν 24
κι@@ 24
καλῶς 24
σθε@@ 24
νυκτὸς 24
τεῖ@@ 23
τοῖς@@ 23
ᾗ 23
Ἀβραὰμ 23
ἀλλὰ@@ 23
ναι 23
ὡς@@ 23
παρέ@@ 23
ὑμᾶς. 23
μεί@@ 23
μενοι@@ 23
δοκεῖ 23
Ἄ@@ 23
ὸς@@ 23
βου@@ 23
σάμενος 23
ιν 23
λου@@ 23
οἵτινες 23
Ἰησοῦς@@ 23
ραν 23
καρδίας 23
κακο@@ 23
νου@@ 23
μένῳ 23
ἐξουσίαν 23
σεν@@ 23
ως 23
ρχο@@ 23
ἕνα 23
ἑπτὰ 23
ᾖ 23
σὲ 23
ος 23
αὐτοῦ· 23
ἕκαστος 23
ου, 22
πέντε 22
ἄνδρας 22
τερον 22
μην 22
ἀνὴρ 22
ἄλλοι 22
ὰν 22
Ἐγὼ 22
σου, 22
Πο@@ 22
φρο@@ 22
θεν 22
κρά@@ 22
ψυχ@@ 22
τέλος 22
αὐτὰ 22
πατ@@ 22
γέγραπται 22
ον, 22
τόπον 22
αὐτόν· 22
μαι, 22
οὗτός 22
ός 22
ποιή@@ 22
μίαν 22
αὐτόν 22
ῖς, 22
εἰσ@@ 22
οἳ 22
πυρε@@ 22
Ἰωάνης 22
γυναῖκα 22
ταύτην 22
λέγειν 22
οἶκον 22
πρὸς@@ 22
ῷ@@ 22
ῇ@@ 22
εἶπεν, 22
εὐθέως 22
τοὺς@@ 22
δα 22
ἐπα@@ 22
ἄνδρες 21
ήσε@@ 21
Ἀθηναίων 21
σε. 21
ναι, 21
Ἀθηναῖοι 21
ἐπ@@ 21
σκ@@ 21
ῃ, 21
Μωυσῆς 21
ῆ 21
πολλῷ 21
ξ 21
πυ@@ 21
ῆσαι 21
σαι, 21
παρά@@ 21
ήσα@@ 21
Ἰησοῦ. 21
χάριν 21
ἔφη, 21
μία 21
λον 21
ἀπ@@ 21
νεκρῶν 21
θῇ 21
ους 21
νόμος 21
φύ@@ 21
θησαν 21
πον 21
υ 21
ἀμὴν 21
ἱ@@ 21
δύ@@ 21
λει@@ 21
Τίς 21
ντο, 21
μα, 21
σεως 21
σέ@@ 21
κω@@ 21
αὐτούς. 21
λόγῳ 21
οὐχὶ 21
κας 21
ἔχοντες 21
ἑαυτῶν 21
ρου@@ 21
ι; 21
ἡμέραν 21
πιστεύε@@ 21
διὸ 21
οῦ@@ 21
δυνα@@ 21
α, 21
κού@@ 21
βαπτι@@ 21
λέγει@@ 20
τοι@@ 20
ὑ@@ 20
ρυ@@ 20
παρ@@ 20
ψεν 20
μαθηταῖς 20
ἡμῶν. 20
ῇ. 20
ἡμέραις 20
ῳ. 20
βό@@ 20
την 20
νες 20
ποιῶν 20
το, 20
φῶς 20
τον, 20
οἴδατε 20
ὅσον 20
ἀκο@@ 20
σοῦ 20
ρού@@ 20
μέν@@ 20
ἀντὶ 20
ᾳ@@ 20
ζειν 20
ἐστίν, 20
αὐτῆς. 20
σύ@@ 20
νης 20
Σα@@ 20
πίστις 20
περιτο@@ 20
σεις 20
λέγω, 20
ρεῖ@@ 20
ἔχομεν 20
μέγα 20
πρός 20
ικ@@ 20
πλὴν 20
εἰσῆλθεν 20
Ὁκόσοισι 20
δει@@ 20
ἔργον 20
πόλει 20
ἀν@@ 20
ἄχρι 20
Ποῦ 20
ἔχειν 20
εἰσε@@ 20
μυ@@ 20
με. 20
σαν@@ 20
πει@@ 20
ματος 20
μοῦ@@ 20
νη 20
εὗρον 20
Ἀμφιτρύων 20
πειρα@@ 20
ξαν 20
κρίνε@@ 20
τρο@@ 20
ἰσχυ@@ 20
ὴς 20
κύριον 19
ζοντες 19
λευ@@ 19
εἶπε 19
νυ@@ 19
ὅσα 19
ζόμενοι 19
ρχ@@ 19
ἀρχ@@ 19
σῃ, 19
η 19
σθη@@ 19
τῳ 19
κοι@@ 19
ὄ@@ 19
όντων 19
ροῦ@@ 19
στή@@ 19
χάρι@@ 19
λου 19
ῃ. 19
νῶν 19
μενος, 19
λαβὼν 19
θῆ@@ 19
ὠ@@ 19
μενοι. 19
ναι. 19
θη, 19
ὢν 19
Χ@@ 19
σι, 19
ἔπειτα 19
συνή@@ 19
Γαλιλα@@ 19
Ἰησοῦ, 19
ἄνδρα 19
μένην 19
εἶπον 19
ἔθνη 19
ἐγγὺς 19
ἀγαθ@@ 19
ἀκούσας 19
ποῦ 19
πω@@ 19
σθε. 19
νεἰς 19
κακῶς 19
χό@@ 19
σι. 19
ἐλθὼν 19
καρ@@ 19
ταύτῃ 19
Ἰωάνην 19
σώ@@ 19
ροις 19
πρόσωπον 19
κί@@ 19
ταί 19
ἐστε 19
μένος 19
ᾶν 19
ίαις 19
ὴ 19
Χριστοῦ, 19
με, 19
τρέ@@ 19
τα, 19
Φ@@ 19
Θ@@ 19
ύσα@@ 19
πάντοτε 19
ἐλπί@@ 19
βασιλε@@ 19
ὅσοι 19
Ἑ@@ 19
θεόν, 19
ζει 19
να, 19
Διὸς 18
σητε 18
ὑπʼ 18
γενόμενος 18
εὔ@@ 18
νος, 18
μεν· 18
ἀνά@@ 18
ἐλθ@@ 18
διακο@@ 18
δόξης 18
σθαι@@ 18
ήσαντες 18
κει@@ 18
κεν. 18
ᾳ. 18
Ἀνα@@ 18
ον@@ 18
σσ@@ 18
χρε@@ 18
ᾷ, 18
ἀκούε@@ 18
ʼ 18
ῆ@@ 18
θεω@@ 18
θεοῦ· 18
αὐτῷ, 18
ἐάν 18
Σ 18
ἁμαρτίας 18
τῆ@@ 18
ντο. 18
ἔργων 18
θεός, 18
ἀγαπη@@ 18
γενομένης 18
ἀφ@@ 18
Ἐγένετο 18
τυφ@@ 18
Ἐὰν 18
ως, 18
ἅμα 18
λος 18
εἰμὶ 18
σοι, 18
πόλις 18
δεί@@ 18
εἴη 18
Δαυεὶδ 18
λέγοντος 18
μήτηρ 18
Συ@@ 18
ὸν@@ 18
τῶ@@ 18
περιπατοῦ@@ 18
εὐαγγελί@@ 18
λέγε@@ 18
ῃ@@ 18
ἔργα 18
τι, 18
ξυμ@@ 18
Ἰουδαῖοι 18
ἑαυτοῖς 18
καθα@@ 18
ντι@@ 18
ᾳ, 18
εἰρήνην 18
τιμ@@ 18
όν 18
γέγονεν 18
,@@ 18
οὖ@@ 18
ἀνθρώποις 18
εἰρήνη 18
τύ@@ 18
ἀκού@@ 18
Κύριος 18
μοι. 18
χρη@@ 18
αὐτὸν@@ 18
χεῖ@@ 18
χρείαν 18
ρὸς 18
ἁγ@@ 18
μων 18
Ν@@ 18
νι 17
οἴδα@@ 17
εἶδον 17
τρα@@ 17
θέλημα 17
νοι@@ 17
ἰδεῖν 17
εἶτα 17
κεί@@ 17
ια@@ 17
Διδάσκαλε, 17
θεῷ, 17
χά@@ 17
ζῶ@@ 17
πεί@@ 17
λαβ@@ 17
Καὶ@@ 17
προσελθὼν 17
παι@@ 17
τῃ 17
σῃ@@ 17
αὐτῷ· 17
σάμενοι 17
πόδας 17
ΩΝ 17
ᾳ 17
ἐλθεῖν 17
ἐπαι@@ 17
ἀδελφοί 17
κον 17
γνῶ@@ 17
στόμα 17
νεῖ@@ 17
φέρει 17
οἴ@@ 17
δοῦναι 17
δοῦλος 17
μαι. 17
πλου@@ 17
ις; 17
γρα@@ 17
φωνὴ 17
που@@ 17
κατη@@ 17
ἄλλη 17
ὄντες 17
ρίας 17
ἀδελφὸν 17
ἀπέστειλεν 17
ἔχ@@ 17
τρεῖς 17
σου@@ 17
Ὁκόσοισιν 17
λεν 17
ἀνθρώπους 17
ὕστερον 17
οι 17
ἀγαθο@@ 17
φη@@ 17
εὖ 17
Ἰωάνου 17
ρισ@@ 17
ῖν, 17
τρ@@ 17
ρῶ@@ 17
λοι@@ 17
ντων, 17
ντο@@ 17
σώμα@@ 17
Τὸ 17
πρ@@ 17
νται· 17
ιν. 17
αὐτήν, 16
Ἰησοῦ@@ 16
θεῖ@@ 16
ψά@@ 16
ἡμᾶς, 16
ῆς, 16
μος 16
γω@@ 16
ήν, 16
ῷ. 16
ρὸν 16
στον 16
νος. 16
ὼ@@ 16
λος, 16
ἅγιον 16
ἱμάτια 16
ἐνέ@@ 16
Θε@@ 16
λογ@@ 16
νῶ@@ 16
ἐξα@@ 16
δύναμιν 16
αἱ@@ 16
ποιεῖ@@ 16
ἔλεγε 16
α. 16
ἡμέραι 16
ύειν 16
λη 16
ίους 16
Υ@@ 16
λῶ@@ 16
ντοῦ 16
παραβο@@ 16
θῶ@@ 16
ῷ, 16
ἱκα@@ 16
ἔσονται 16
τούτους 16
ιος 16
περιε@@ 16
πᾶ@@ 16
κτί@@ 16
σπα@@ 16
πίστιν 16
καρπὸν 16
μοι, 16
σίν 16
μου· 16
χέ@@ 16
ὑπερ@@ 16
Εὐ@@ 16
ψαι 16
σχ@@ 16
ἔχοντα 16
Καίσαρος 16
νδ@@ 16
ρα. 16
κεν@@ 16
Χριστοῦ. 16
ὼν 16
χειρὸς 16
(@@ 16
ὀπίσω 16
τόν 16
υἱ@@ 16
μένα 16
φων@@ 16
νόμῳ 16
σημεῖα 16
κώ@@ 16
τητι 16
Ἰωά@@ 16
ῖς. 16
ρου 16
ῖον 16
μέντοι 16
οὔπω 16
χθη 16
οἰ@@ 16
λαβόντες 16
ἀγάπη 16
ἕτερον 16
προφή@@ 16
τρό@@ 16
ρος, 16
νεῖ 16
Τοῦτο 16
καλ@@ 16
ὄχλος 15
οὐρανὸν 15
ους, 15
νοις 15
πλα@@ 15
πρότερον 15
ὁδὸν 15
τετρα@@ 15
γενέσθαι, 15
ήσεται 15
σήμερον 15
σσο@@ 15
θό@@ 15
τος@@ 15
νικ@@ 15
τοῦτο@@ 15
ντα, 15
προσα@@ 15
5. 15
ας 15
ἐργά@@ 15
Ἀθηναίοις 15
γῆ 15
ου. 15
κόσμον 15
ρίαν 15
ἐλάλησεν 15
λόγου 15
λογι@@ 15
λέγετε 15
διὰ@@ 15
μένης 15
ποιῆσαι 15
σάρ@@ 15
πρόβατα 15
ἐπί@@ 15
προε@@ 15
οι@@ 15
σαι. 15
μαρτύ@@ 15
ἄλλ@@ 15
ἀρχιερεὺς 15
ζή@@ 15
ἀφε@@ 15
δή@@ 15
ὅλον 15
χον 15
νου 15
ϊ@@ 15
προφήτου 15
ἔχο@@ 15
ντας, 15
φιλο@@ 15
Χριστ@@ 15
ἐστὲ 15
νεν 15
πόλεως 15
ἄλλα 15
ἐξή@@ 15
ίαν@@ 15
ξεν 15
ρα, 15
σοὶ 15
ἄρτι 15
πτο@@ 15
ποιήσα@@ 15
μν@@ 15
ρίων 15
ἀπῆλθεν 15
σει@@ 15
οἴδαμεν 15
τός 15
χριστ@@ 15
ἀγαθὸν 15
οἰκοδο@@ 15
ὁμοίως 15
φωνὴν 15
ζον 15
ιαν 15
ῃς 15
σάρκα 15
διότι 15
σα. 15
χώ@@ 15
τω. 15
αὐτήν. 15
Η@@ 15
σύγκρισις 15
πλῆθος 15
να. 15
ξύ@@ 15
εἰμι 15
κατά@@ 15
ἔχετε 15
νκαὶ 14
ί· 14
ἀσθε@@ 14
πνευμα@@ 14
τερος 14
ρει 14
ἄγγελος 14
ντι, 14
γίνεται, 14
ω. 14
ὥρα 14
λλα@@ 14
σις, 14
οἰκ@@ 14
9. 14
δας 14
Πά@@ 14
φή@@ 14
ντος. 14
δουλε@@ 14
περί@@ 14
σία@@ 14
Οὐ@@ 14
σιον 14
νὸς 14
λόγους 14
θεοῦ@@ 14
μεγάλη 14
τους 14
ἔδω@@ 14
Διὰ 14
πλησίον 14
ἄλλων 14
τοῖσιν 14
γει@@ 14
μένει 14
Εἶπεν 14
καυχ@@ 14
ἦν. 14
ὄχλον 14
δέκα 14
σιν; 14
οὐδʼ 14
ὄρος 14
ὴν@@ 14
πάντα@@ 14
αὐτ@@ 14
τὰς@@ 14
ἔχω 14
στό@@ 14
ἐκείνου 14
ὅλην 14
Τὸν 14
σίας 14
ὺ@@ 14
ως@@ 14
ζεται 14
δόξα@@ 14
τελευ@@ 14
ζωῆς 14
ίας· 14
ὡσεὶ 14
ἄνευ 14
θεῷ. 14
ὑμᾶς@@ 14
Ἰησοῦν. 14
ἅγ@@ 14
λαὸς 14
νοι 14
ρός 14
καιρὸν 14
λῶν 14
τὸς 14
βή@@ 14
δεῖν 14
σθέντες 14
δοῦ@@ 14
πλοῖον 14
μαθητὰς 14
ἱε@@ 14
γεῖ@@ 14
ᾷ@@ 14
ιον, 14
μοι@@ 14
δικα@@ 14
γραμματεῖς 14
ἐρωτηθεὶς 14
ύει 14
τα. 14
ἀεὶ 14
μώ@@ 14
ντί@@ 14
ρᾳ 14
Ἰσραὴλ 14
ἔκ@@ 14
θεο@@ 14
ἐγώ 14
εἶναι. 14
μενος@@ 14
ἰα@@ 14
μέν 14
μὸν 14
παῖς 14
ὑπε@@ 14
δῶ@@ 14
εὕ@@ 14
πρά@@ 14
ἀπα@@ 14
ἐξη@@ 14
αὐτῶν@@ 13
ἔχεις 13
θαλάσσης 13
γεν@@ 13
εἰδότες 13
σμο@@ 13
κος 13
μεθα, 13
βη@@ 13
καιν@@ 13
ίαις, 13
Ρ@@ 13
δόξα 13
χρόνῳ 13
νού@@ 13
χος 13
Ἥ@@ 13
ύσαντες 13
νται@@ 13
γει 13
κόσμου 13
σίαν 13
αὐτοῖς@@ 13
μνή@@ 13
στέ@@ 13
λλε@@ 13
καλέ@@ 13
γί@@ 13
ἡμέρα@@ 13
Σίμων 13
εἶχον 13
δοκ@@ 13
ις· 13
λον, 13
ψας 13
ἁγίου 13
τώ@@ 13
κτε@@ 13
κληρο@@ 13
ῥήματα 13
Ἰερουσαλήμ, 13
ο 13
ὄχλοι 13
Χριστὸν 13
ἔτη 13
ἀγγέ@@ 13
γεν 13
ἐστιν@@ 13
λόγ@@ 13
ἀδελφὸς 13
τιν@@ 13
εἰπὼν 13
ἐγγί@@ 13
ἄνδ@@ 13
εἴπῃ 13
ρίου 13
θεν. 13
θησαν. 13
σσε@@ 13
πρῶ@@ 13
δων 13
ἐξελθὼν 13
τίνα 13
Φαρισα@@ 13
Ταῦτα 13
μέσῳ 13
ἐπίστα@@ 13
ταύτης 13
κει 13
ἑτέ@@ 13
ψυχὴν 13
σαν· 13
γένηται 13
λοὶ 13
ἡμῖν, 13
ποιεῖν 13
ἁγίων 13
τινὲς 13
πάσης 13
Γα@@ 13
μενος. 13
ἁγί@@ 13
λέγ@@ 13
ἔθνος 13
αἰτίαν 13
πίστει 13
δούλους 13
πων 13
ύε@@ 13
ἁμαρτία 13
σωσιν 13
ον· 13
θεραπε@@ 13
ντων. 13
ἄλλους 13
καθε@@ 13
ἀγαπ@@ 13
γῇ 13
θάνα@@ 13
ἔμπροσθεν 13
μεγάλῃ 13
σθε· 13
δοθήσεται 13
μα. 13
πολλοὺς 13
ἐκείνῃ 13
δώσει 13
Μετὰ 13
ὶ, 13
ὑμῖν; 13
τει@@ 13
πρῶτος 13
πλά@@ 13
σώματος 13
ιοι 13
καλύ@@ 13
πρα@@ 13
ἐλεύθε@@ 13
προσέ@@ 13
σάν 13
θέλω 13
μενο@@ 13
Πῶς 13
γῆς, 13
Με@@ 13
καμεν 13
ποιεῖτε 13
προσευχ@@ 13
τινὰ 13
υἱοῦ 13
πάρε@@ 13
ντας. 13
ψευδο@@ 13
ἁμαρτω@@ 13
ἔλαβεν 13
ἀπήγγειλαν 13
μῶν 13
χαρ@@ 13
θάνατον 13
σημαίνει. 13
σαρκὸς 13
ντα. 13
μαθη@@ 13
ἀθε@@ 13
νομί@@ 13
ἀφι@@ 13
ντὴν 13
λαβεῖν 13
ξέ@@ 13
πολυ@@ 13
δύνασθε 13
Περὶ 13
κατὰ@@ 13
χρή@@ 13
Ἰεροσόλυμα 13
τούτοις 13
ἔργοις 13
καλοῦ@@ 12
χαῖρε, 12
πλή@@ 12
ἄρτον 12
ἔλαβον 12
πιά@@ 12
βουλόμενος 12
σημεῖον 12
λον. 12
γῆ@@ 12
οἴκῳ 12
τρί@@ 12
ἐπειδὴ 12
ᾱς 12
ἐθνῶν 12
ἀγαθόν. 12
ίρε@@ 12
λέγο@@ 12
ποιήσας 12
ουσιν, 12
Ἅ@@ 12
μνη@@ 12
διη@@ 12
λημ@@ 12
Ἦν 12
ἐκείνοις 12
λων 12
πάντων, 12
ψευ@@ 12
ντε@@ 12
σαρκὶ 12
Λυ@@ 12
ή 12
ἑνὶ 12
πληρώ@@ 12
ΚΑΙ 12
ΡΙ@@ 12
προφήτης 12
ὤφθη 12
ἀκούειν 12
νει@@ 12
αὐτῶν· 12
ἐστιν· 12
ἐλα@@ 12
μεν; 12
μαι@@ 12
ἤρ@@ 12
πόλεμον 12
ἀμ@@ 12
πορ@@ 12
κεῖ@@ 12
Γε@@ 12
λαβε@@ 12
ἀναστὰς 12
ῖοι 12
μῶ@@ 12
ἐλάλει 12
θη. 12
διαλογι@@ 12
ἐπαγγελίας 12
ὄντα 12
καλεῖ@@ 12
λαοῦ 12
μέχρι 12
μύ@@ 12
ἁμαρ@@ 12
βλασφη@@ 12
τερο@@ 12
τήσα@@ 12
Χα@@ 12
ἐπο@@ 12
ντος@@ 12
τες 12
ῦ 12
Πό@@ 12
τοιαῦτα 12
δικαιοσύνην 12
πόλεις 12
ὄχλου 12
φανε@@ 12
ὁμο@@ 12
προσελθόντες 12
πολέ@@ 12
διώ@@ 12
κων 12
δρα@@ 12
ἀσπάσασθε 12
ἐπηρώτησεν 12
φέ@@ 12
προέ@@ 12
σης 12
τά 12
ἀδελφό@@ 12
ταὶ 12
δε 12
εν 12
οὐδένα 12
ζεσθαι 12
’ 12
λθ@@ 12
ἀδικ@@ 12
Σαταν@@ 12
θεόν. 12
ὅστις 12
νεκροὺς 12
ριον 12
συνά@@ 12
λεῖ@@ 12
υἱοὶ 12
ἢ@@ 12
χωρί@@ 12
ὴ@@ 12
αἵματος 12
καθάπερ 12
ουσιν. 12
παλαι@@ 12
δεξι@@ 12
δέξα@@ 12
πως 12
ἁμαρτιῶν 12
ἄλλος 12
όμενος 12
σασθαι 12
του, 12
στρατε@@ 12
σε, 12
μους 12
ξί@@ 12
παρο@@ 12
τοιάδε. 12
ζωὴ 12
πεν 12
φωνῇ 12
τι. 12
ντας@@ 12
εἶχεν 12
μῳ 12
μοῦ 12
δεξιῶν 12
χι@@ 12
καθη@@ 12
ργ@@ 12
σφα@@ 12
λόγων 12
ἐπά@@ 12
ΠΡΟΣ 12
ὦτα 12
πολὺ 12
νευ@@ 12
μένο@@ 12
κηρύ@@ 12
σὰρξ 12
ἀγα@@ 12
Φίλιππος 12
ἀληθείας 12
ίαν· 12
ἐθ@@ 12
Ἰωσὴφ 12
της, 12
ῶν· 12
ἰσχ@@ 12
γον 12
ἔχει. 12
ῶν; 12
Ἡρῴδης 12
κεφαλὴν 12
δες 12
φίλους 12
δυνάμει 12
ξας 12
ξη@@ 12
ὕ@@ 12
βλε@@ 12
σατο 12
βλέπε@@ 12
ντη@@ 12
λῳ 12
πλ@@ 12
ὥρας 12
πλείους 12
ἑαυτῷ 12
ὲ 12
λα 12
μετέ@@ 12
νἐν 12
γυναικὸς 12
θι@@ 12
νον, 12
λίαν 12
χριστοῦ, 12
τέκ@@ 12
βαπτί@@ 12
ροῦντες 12
βασι@@ 12
κινδύ@@ 12
ἤγγι@@ 11
ὀφθαλμοὺς 11
ρεῖ 11
ἐσθ@@ 11
ἐσμὲν 11
τρυ@@ 11
ἀπολέ@@ 11
ὕδατος 11
θρό@@ 11
σχη@@ 11
ματι@@ 11
αἴ@@ 11
ζωο@@ 11
ρήσα@@ 11
μηδενὶ 11
ίνο@@ 11
2. 11
εἰσελθὼν 11
ὑμῖν· 11
θεντο 11
ἑκάστῳ 11
σῶ@@ 11
μόνος 11
σίαν, 11
ἐργα@@ 11
πέμψα@@ 11
γνοὺς 11
ταύ@@ 11
στεί@@ 11
μερί@@ 11
αἰώνιον 11
χριστὸς 11
στοι@@ 11
καυ@@ 11
σει, 11
Ῥ@@ 11
κοινω@@ 11
γενε@@ 11
ἐστ@@ 11
λού@@ 11
ιν; 11
ξά@@ 11
πρώτη 11
ἀπά@@ 11
μέλλ@@ 11
πᾶσι 11
τοῦτʼ 11
γενό@@ 11
πολλο@@ 11
λὰς 11
ες 11
μῆ@@ 11
ὅθεν 11
δού@@ 11
πατρὶ 11
ἀνέβη 11
Ἀμὴν 11
ἄλλον 11
όντες 11
′. 11
αὐτο@@ 11
πύ@@ 11
Διὸ 11
μει@@ 11
Λέ@@ 11
ρεύ@@ 11
Αἰ@@ 11
μισθ@@ 11
ηὐ@@ 11
ῖς@@ 11
χη@@ 11
στῶ@@ 11
ὑμῖν@@ 11
ὄχ@@ 11
ἡμῖν. 11
εἰσιν. 11
ργο@@ 11
ὲ@@ 11
χει@@ 11
σια@@ 11
κακὸν 11
καθαρί@@ 11
οὖν, 11
ξιν 11
νεκρῶν, 11
στί@@ 11
δόντες 11
κεν, 11
ἀσπά@@ 11
Ἤ@@ 11
ήσατε 11
μεῖν 11
νας, 11
σμα 11
γινώσκε@@ 11
νεκρο@@ 11
ύς, 11
σω, 11
ται; 11
ῶμεν 11
ἔθη@@ 11
τρά@@ 11
ἁμαρτία@@ 11
οἵ 11
κρυ@@ 11
ἤγειρεν 11
ἐστε@@ 11
ἀρχὴν 11
σθαι· 11
λους 11
ρᾶς 11
κλι@@ 11
Μά@@ 11
ἀδελφοὺς 11
γίνεται 11
νώ@@ 11
φορ@@ 11
ςἐν 11
λόγο@@ 11
όμενοι 11
ταῦτα@@ 11
ἐμο@@ 11
σεν· 11
ἤκουσα 11
ταῦτα, 11
ἐπιστο@@ 11
υσ@@ 11
ἔχε@@ 11
χή@@ 11
ει 11
πολλ@@ 11
δευ@@ 11
νες, 11
Ἡ@@ 11
ξαι 11
μακάριοι 11
ῥή@@ 11
αὑ@@ 11
εἰδό@@ 11
ἱερῷ 11
Μαρία 11
πρώ@@ 11
γυναικὶ 11
θησαυ@@ 11
λεύ@@ 11
βέ@@ 11
κλ@@ 11
ξει 11
βασιλέα 11
στὰς 11
ρια@@ 11
σχο@@ 11
Ἐγώ 11
σύμ@@ 11
βω@@ 11
περισσε@@ 11
βυ@@ 11
ίαι, 11
μένη, 11
ζώ@@ 11
τεσσεράκοντα 11
ἑνὸς 11
ὸ@@ 11
ἀναστ@@ 11
Ἰουδαίων 11
ἐπὶ@@ 11
ἐλθόντες 11
τουτέοισι 11
λλο@@ 11
ψω@@ 11
ἀπει@@ 11
λῆς 11
μεγάλην 11
γραφὴ 11
δικαίω@@ 11
ὑμῶν@@ 11
ὑμῶν· 11
καρδίαις 11
πίστει, 11
φέρε@@ 11
φυλῆς 11
κεφα@@ 11
ταῦτα. 11
μενον, 11
αι 11
λευκ@@ 11
νυνὶ 11
ἄνω 11
τω, 11
ᾳ· 11
ρους 11
μασιν 11
πότε 11
δι 11
βί@@ 11
νῆ@@ 11
πή@@ 11
λώ@@ 11
Τα@@ 11
γυναῖ@@ 11
γεγραμ@@ 11
6. 11
ὥρᾳ 11
οἵ@@ 11
ἅπαξ 11
κατή@@ 11
μάτων, 11
ἔξεστιν 11
ἥψατο 11
ἐπιθυ@@ 11
ἀρε@@ 11
αὐταῖς 10
σμὸς 10
παί@@ 10
ἄρτους 10
ἀνή@@ 10
καρδίᾳ 10
γι@@ 10
ἀγγέλων 10
δυνάμεως 10
τινὸς 10
βλέπετε 10
μι 10
ὑπακο@@ 10
δίδω@@ 10
Ἰσαὰκ 10
Ν 10
περιέ@@ 10
ρῃ 10
φυλακ@@ 10
7@@ 10
η, 10
ἐστίν· 10
έσθ@@ 10
στι@@ 10
ἐκείναις 10
νήσα@@ 10
χυ@@ 10
Λακεδαιμόνιοι 10
ἐνταῦθα 10
πτω@@ 10
ἀνδρὶ 10
μεθα· 10
λαν 10
μετά@@ 10
κλῆ@@ 10
πειρά@@ 10
ἀσπα@@ 10
σα, 10
βουλευ@@ 10
ῦσαι 10
καθεύ@@ 10
ἀντί@@ 10
Δι@@ 10
σεαυτὸν 10
πρὶν 10
ὀργ@@ 10
ἐπάνω 10
δε. 10
παραι@@ 10
καθ@@ 10
γε, 10
νου. 10
θέλει 10
μετανο@@ 10
νην, 10
ὁκόσα 10
ὀνόματί 10
βαστά@@ 10
αἰῶ@@ 10
ἱμάτιον 10
Παύ@@ 10
Ἠλείας 10
τις@@ 10
εἰσελθεῖν 10
ζεν 10
λῇ 10
ΗΣ 10
διψ@@ 10
λεῖ 10
μά 10
σθήσε@@ 10
νιον 10
τινας 10
τεὅτι 10
ρκ@@ 10
παυ@@ 10
νος· 10
πόρ@@ 10
Ἑλλήνων 10
νοι, 10
Ἰακὼβ 10
τον· 10
παντὸς 10
δῆ@@ 10
ὄνομά 10
πιστεύο@@ 10
ντι. 10
λει 10
σθεὶς 10
Ὑμεῖς 10
ἐδόξα@@ 10
ων; 10
πληρωθῇ 10
ἄγγελον 10
λοιδο@@ 10
σώματι 10
πνεύματι, 10
πᾶσαι 10
νειν 10
τος. 10
πλο@@ 10
ὥραν 10
σονται 10
βαλεῖν 10
δεδε@@ 10
σε· 10
τρίτῃ 10
Μαριὰμ 10
ἔλα@@ 10
Δη@@ 10
ναὸν 10
χάριτος 10
πλείο@@ 10
λέγου@@ 10
ουσι 10
οἰκο@@ 10
λαλεῖν 10
γν@@ 10
θει 10
ἐντολὴ 10
παιδ@@ 10
ᾶ 10
μον@@ 10
ω· 10
αἰων@@ 10
λεί@@ 10
κἀκεῖ@@ 10
ἀκούσα@@ 10
Λευ@@ 10
Μή@@ 10
λόγον, 10
καιρῷ 10
καλε@@ 10
ῖν. 10
γίνονται 10
ωνι 10
οὖν@@ 10
των, 10
τοιοῦ@@ 10
περ@@ 10
μένου@@ 10
νετο 10
πέμ@@ 10
κολα@@ 10
μάρτυ@@ 10
Ἰησοῦς, 10
νια 10
γίνε@@ 10
Παύλου 10
Ὀ@@ 10
ἐφώνη@@ 10
ἔχει, 10
πός 10
πολὺν 10
ταξεν 10
νοντες 10
θί@@ 10
σθησαν, 10
τίνος 10
καταβα@@ 10
ίου@@ 10
Ἐπι@@ 10
ἀγάπης 10
Πε@@ 10
ζητοῦ@@ 10
ματα@@ 10
ὑφʼ 10
μηκέτι 10
ῖν 10
ιν· 10
ΡΑ@@ 10
ρʼ 10
Πίστει 10
νηστε@@ 10
ἀναστάσεως 10
ποτα@@ 10
το· 10
πορεύ@@ 10
ω, 10
ιοι, 10
στησεν 10
ντων@@ 10
εὐχαριστ@@ 10
δαπα@@ 10
εἰδὼς 10
ὐ@@ 10
Βηθα@@ 10
οἰκίᾳ 10
μενον@@ 10
γενο@@ 10
μένη@@ 10
μʼ 10
ἀπόστολοι 10
ραν@@ 10
κοπι@@ 10
βρα@@ 10
Εἰ@@ 10
ἴδιον 10
ναἰ@@ 10
ρῷ 10
βαίνε@@ 10
σταυ@@ 10
τοι, 10
πάντο@@ 10
βλέ@@ 10
ἐρήμῳ 10
σαι· 10
ᾱ@@ 10
ἐστὶ 10
Ἰερουσαλὴμ 10
λατρε@@ 10
ἀπέστει@@ 10
ἔλεος 10
γού@@ 10
ῳ· 10
πολύ@@ 10
σῃς, 10
τευ@@ 10
νίας 10
ἡμᾶς. 10
φθο@@ 10
κλά@@ 10
ζόμενος 10
μέγας 10
ξο@@ 10
τον. 10
κτη@@ 10
προφητε@@ 10
τού@@ 10
ῷ· 10
στους 10
πεμ@@ 10
ψε@@ 10
μείζων 10
κυρίῳ. 10
ὰς@@ 10
καιρὸς 10
πέμψας 10
κἂν 10
τίνι 10
ἴδε 10
οὐαὶ 10
ἐποίη@@ 10
εἶπεν@@ 10
ἐδόθη 9
μῆνας 9
ἄνθρωπον. 9
σωμεν 9
πορευο@@ 9
νου, 9
τους, 9
νῶν, 9
διάκο@@ 9
ἄνε@@ 9
πατήρ 9
σται 9
νων, 9
ὦν 9
ὁκόσοι 9
ἀπόλλυ@@ 9
τοῦθεοῦ 9
ὁμολογ@@ 9
αὐτός 9
όμενον 9
μενα 9
γμα@@ 9
πάσχα 9
ῶσιν 9
ὀφθαλμοὶ 9
ἠκολούθησαν 9
ἡμερῶν 9
φαι@@ 9
ἄνθρωποι 9
ἔλθῃ 9
καρδίαν 9
λῶ 9
λοι 9
ζεται, 9
σου· 9
νὴ 9
βού@@ 9
ρον, 9
ίνε@@ 9
ἐθνῶν, 9
νεί@@ 9
δοκιμά@@ 9
ἐκκλησίαν 9
λέγω@@ 9
ἀπώλε@@ 9
ζονται 9
βεβα@@ 9
πιστε@@ 9
προσδοκ@@ 9
ρθ@@ 9
ὶν@@ 9
μετὰ@@ 9
σὶν 9
υό@@ 9
δαιμονι@@ 9
ρων. 9
ἁμαρτίαν 9
χώραν 9
Ἴδε 9
ἀπέθανεν 9
δοὺς 9
χριστὸν 9
ιον 9
γένηται, 9
νύ@@ 9
μένον, 9
λίθον 9
χε 9
γος 9
αὐτούς· 9
ἵ@@ 9
ὑπέστρε@@ 9
σταυρω@@ 9
ἐμέ@@ 9
ἀνάγκη 9
λας 9
ἀφῆ@@ 9
δοξά@@ 9
φον 9
πλήρω@@ 9
νόμο@@ 9
χριστοῦ. 9
Ποῖ 9
ἀφαι@@ 9
μακρ@@ 9
ΠΑΥΛΟΣ 9
ὑπέ@@ 9
παιδε@@ 9
ρας, 9
ἄνθρωπος@@ 9
θῇ@@ 9
τῇσι 9
εὐαγγέλιον 9
ἧ@@ 9
ἐκβά@@ 9
δυνάμε@@ 9
ἐχο@@ 9
ἀπῆλθον 9
θανάσιμον. 9
πλού@@ 9
Περ@@ 9
τρίτον 9
κλέ@@ 9
δυνά@@ 9
νῃ@@ 9
μαρτυροῦ@@ 9
ὑμᾶς· 9
βασιλέ@@ 9
Μη@@ 9
κοινὸν 9
ρουν 9
ως. 9
ὸν, 9
Βροῦτος 9
ος@@ 9
ἀνθρώπων, 9
ἀκολου@@ 9
μένειν 9
ἐνιαυ@@ 9
ἔθνεσιν 9
ναῦς 9
πλεῖ@@ 9
τελε@@ 9
χετε 9
ἕκαστον 9
νε 9
ἀκρο@@ 9
ῥηθὲν 9
ἐκκλησίας 9
ναν 9
ἀπέστειλαν 9
πολέμου 9
Ἰούδας 9
στόματος 9
ροι@@ 9
οἰκίαν 9
μένε@@ 9
ἀνδρὸς 9
Ἰσραήλ. 9
ύς 9
χθ@@ 9
ἀφῆκεν 9
ἀγάπη@@ 9
κέν 9
πτωχο@@ 9
δαιμόνια 9
λεγο@@ 9
κατεργά@@ 9
ρίᾳ 9
ἐβαπτί@@ 9
Πέτρον 9
ἡγεμό@@ 9
ροι 9
αὐτῆς, 9
σμένο@@ 9
δώδεκα, 9
προσκαλεσάμενος 9
ῖος 9
ὅλης 9
ξυνέ@@ 9
λαλῆσαι 9
Ἀσπάσα@@ 9
Ἀσπά@@ 9
ἀδελφο@@ 9
ρους, 9
γνώ@@ 9
σώματος, 9
ΤΩΝ 9
ὄχλους 9
λογί@@ 9
Ὑ@@ 9
κέναι 9
θεῶν 9
ἀδελφ@@ 9
τό 9
Ἰουδαίων, 9
θεοῦ; 9
σμα@@ 9
πόλι@@ 9
μικρ@@ 9
ὺν 9
συνείδη@@ 9
φόβος 9
ἐντολὴν 9
ἐκεῖνοι 9
γένω@@ 9
ψη@@ 9
ἐντ@@ 9
ιαν, 9
ρως 9
ἔρχο@@ 9
ντὸ 9
πιστ@@ 9
οὔ@@ 9
τοσοῦτον 9
μτοῦ 9
ρης 9
θυμ@@ 9
μ, 9
σῃ. 9
Κορίνθιοι 9
πατρός 9
νεἶ@@ 9
οἶ@@ 9
νδὲ 9
φωνῆς 9
ἐλά@@ 9
ὼς 9
ὲς 9
ᾶσθαι 9
πλούσιος 9
διδάσκων 9
ἐντῷ 9
ἐρχόμενος 9
πάνυ 9
πε 9
καλου@@ 9
πεποι@@ 9
ἐρυ@@ 9
νεφέ@@ 9
θει@@ 9
όν, 9
Δαυείδ@@ 9
θησαν, 9
γὴ 9
μεγα@@ 9
νον@@ 9
προσεύχε@@ 9
Προ@@ 9
λαὸν 9
ντές 9
ἀγαπᾶτε 9
φαγεῖν 9
νῳ 9
εἰςτὸ 9
ἑορ@@ 9
ἤρξαντο 9
ἄνθρωπο@@ 9
ρεσ@@ 9
γαστρὶ 9
θῆναι, 9
κομί@@ 9
κοῦ@@ 9
ἐκεῖ. 9
συντε@@ 9
κλα@@ 9
ἐτῶν 9
πτε@@ 9
ρχε@@ 9
μεγάλα 9
Ὡς 9
Ἀθηνα@@ 9
φιλή@@ 9
σωτηρίας 9
ριά@@ 9
ἔγνωσαν 9
ἀνδρῶν 9
σό@@ 9
χοι 9
αἰα@@ 9
ιος, 9
μικρὸν 9
ἁγια@@ 9
λῃ@@ 9
μού@@ 9
ρὰ 9
ἐπιζητοῦ@@ 9
θανάτῳ 9
τοῖ@@ 9
μέσον 9
τη 9
γρά@@ 9
μεθα. 9
ἀκ@@ 9
Ἀρ@@ 9
διδόναι 9
φιλό@@ 9
διηκό@@ 9
στηρί@@ 9
σʼ 9
σῶν 9
ρευ@@ 9
ΑΙ@@ 9
ἔχοντας 9
ποιήσαντες 9
δου@@ 9
τρόπῳ 9
χρηστό@@ 9
συνο@@ 9
πειν@@ 9
τος· 9
Διονυσίου 9
πλε@@ 9
νοῦν 9
στῆ@@ 9
σπο@@ 9
προσώπου 9
κόσμῳ 9
οὐρανῶν 9
γῆς. 9
οὗ@@ 9
θήσεται. 9
ΐ@@ 9
ρῶν, 9
πλευ@@ 9
εἰπόντος 9
θεν, 9
γυναῖκες 9
ἀνδ@@ 9
λίας 9
ΖΗΤΗΜΑ 9
γυναι@@ 9
ἀρχι@@ 9
ῖς· 9
ε, 9
ήσεως 9
οὐδενὸς 9
Να@@ 9
ἠκολούθει 9
βιβλίον 9
παῖ@@ 9
ἤγαγον 9
ταύτας 9
δίκα@@ 9
μοις 9
θάρ@@ 9
ἦν, 9
ἀνθρώπῳ 9
δικαιοσύνην, 9
διο@@ 9
νός 9
σος 9
πρεσβύ@@ 9
ταῖς@@ 9
ʼ, 9
θήσεται, 9
εὐλογ@@ 9
κρο@@ 9
ὡσαύτως 9
ποιήσω 9
σων 9
μεναι 9
Σε@@ 9
ναι@@ 9
ξῃ 9
τέκνων 9
πατή@@ 9
πορεύεσθαι 9
χεῖρα 9
λίθο@@ 9
παραβολαῖς 9
O@@ 9
ʼ@@ 9
σαββά@@ 9
φίλος 9
μηδεὶς 9
ἆ@@ 9
ἄνα@@ 9
βασανι@@ 8
Φίλιππον 8
εἰρη@@ 8
νουθε@@ 8
κυρίῳ, 8
ἄλλης 8
μισθὸν 8
στρατηγοὶ 8
ἀκούοντες 8
ποί@@ 8
συγ@@ 8
λαμ@@ 8
αὐτούς, 8
ἐφοβήθησαν 8
σώματα 8
ρῶς 8
ἐπανα@@ 8
γίνεται. 8
στρατιωτῶν 8
ἀφέντες 8
σκοντες 8
ἀμπελῶ@@ 8
βλασφημοῦ@@ 8
ρια 8
ἐγένετο, 8
παρρησίᾳ 8
βύ@@ 8
ἐλπίδα 8
Οὕτως 8
ργε@@ 8
Σπάρ@@ 8
δυσεντερί@@ 8
ἠγα@@ 8
Φιλίπ@@ 8
μηδένα 8
ἰδ@@ 8
χειρο@@ 8
Κυρίου, 8
ὅκου 8
ια, 8
ίω@@ 8
καταβὰς 8
ντῆς 8
πτύ@@ 8
ζεσθε, 8
γένος 8
ξάμενος 8
ὅπλα 8
παρρη@@ 8
φανέρω@@ 8
τάδε. 8
κύριος@@ 8
μεριμν@@ 8
χρονί@@ 8
λαλοῦ@@ 8
στὸν 8
χρό@@ 8
σομαι. 8
γινώσκετε 8
ἐὰν@@ 8
δειν@@ 8
ἐπιστρέ@@ 8
τεῖχος 8
λου. 8
εὐαγγελίου 8
κινδύνῳ 8
εἰσίν. 8
ζετε, 8
ΣΙΛ@@ 8
ΕΥ@@ 8
στη. 8
ἦλθ@@ 8
ἐγείρε@@ 8
ίᾳ. 8
ἐμαυ@@ 8
ψαν 8
θην 8
πνεῦμά 8
ὠφε@@ 8
σκλη@@ 8
σῃς 8
ἄνω@@ 8
δοῦλον 8
λόγοις 8
βουλο@@ 8
τόν, 8
κερ@@ 8
κολου@@ 8
τάξα@@ 8
αὐτὴ 8
ἀπι@@ 8
μοιχε@@ 8
δος, 8
ἑώρα@@ 8
κύριε, 8
ψι@@ 8
ἠκούσατε 8
οὐδέποτε 8
δες, 8
σμοὶ 8
τούτων. 8
καθὼς@@ 8
ἐκεῖθεν 8
κεκο@@ 8
νῃ, 8
ωσιν 8
δύναμιν, 8
Σίμωνα 8
ἐρχόμενον 8
ὀφεί@@ 8
τησεν 8
κλε@@ 8
Λάκων 8
ἐπίστευ@@ 8
λειτουργ@@ 8
μένων, 8
Κί@@ 8
λαλοῦντος 8
ῆλθον 8
ρία 8
ὲν 8
ιον. 8
πορευόμενοι 8
διακον@@ 8
παιδίον 8
λος@@ 8
ἔξωθεν 8
αὐτό@@ 8
Βαραββ@@ 8
μένος@@ 8
ιοῦ@@ 8
ρος@@ 8
τοῦτο, 8
γινώ@@ 8
καταστ@@ 8
Ἡρῴ@@ 8
ἀληθή@@ 8
θʼ 8
σθησαν 8
καλούμενον 8
Παῦλον 8
πόνοι 8
γίνονται, 8
σμοῦ 8
ἔχειν. 8
λακ@@ 8
ἀπέθανε@@ 8
Φα@@ 8
αὐτήν· 8
βρέ@@ 8
θάλασσαν 8
σέν 8
ἐκκλησία@@ 8
ἡμῶν@@ 8
κυρίου, 8
χαρᾶς 8
ίαι 8
οὐδε@@ 8
λην 8
προσή@@ 8
δώσω 8
σοι. 8
χεί@@ 8
σωτηρ@@ 8
φροσύ@@ 8
μιᾷ 8
σομαι 8
φίλων 8
νῆες 8
ρες 8
ἦλθαν 8
ζετο 8
Κῦρος 8
ἀνάστασιν 8
θεός. 8
σοφ@@ 8
ἐμοῦ. 8
ταχέ@@ 8
Ἀγαπητοί, 8
γράφω 8
ζετε 8
ροὶ 8
ἰχθύ@@ 8
ποίᾳ 8
ἐξουσίᾳ 8
) 8
ἐξελθόντες 8
κόσμος 8
χρῆ@@ 8
σθε; 8
εὐαγγελι@@ 8
στρατιώ@@ 8
ὑμεῖς, 8
τήν 8
σπά@@ 8
φαί@@ 8
ἔχουσιν 8
ἐσχά@@ 8
ρόν 8
τερα 8
μέλε@@ 8
ἀνθρώπου. 8
σκα@@ 8
κράτος 8
βλέποντες 8
ρε, 8
ἄφεσιν 8
λόγοι 8
σον, 8
Ἔλεγεν 8
ἦν@@ 8
φαίνε@@ 8
ΣΙ@@ 8
ἐπετί@@ 8
μος, 8
ἐπίστευσαν 8
ἐπλήσθησαν 8
εἰςτὴν 8
ματος@@ 8
λέγοντα 8
νταί 8
καθήμενος 8
κτι@@ 8
όν. 8
φώνη@@ 8
ΤΙ@@ 8
μέλη 8
πάντες. 8
λλειν 8
τοῦ, 8
καίπερ 8
ἠθέλη@@ 8
ἐλήλυ@@ 8
λαμβάνε@@ 8
ἐκεῖνον 8
διδάσκα@@ 8
μένους. 8
τροφὴ 8
χόμενος 8
λαμβάνειν 8
ζομεν 8
θήσονται. 8
ἀλήθειαν 8
χριστοῦ 8
υἱός 8
ἀποστό@@ 8
Υἱ@@ 8
πνεῦμα@@ 8
παραδο@@ 8
τάξιν 8
ου· 8
κύριον, 8
ἀπὸ@@ 8
ἐντῇ 8
ωνί@@ 8
Ὅ@@ 8
τοί 8
παρεῖ@@ 8
ιαν. 8
ἔστιν@@ 8
ξαντες 8
ἐρω@@ 8
Λά@@ 8
τινι 8
ἄρχειν 8
Πέτρο@@ 8
θάλασσαν. 8
Ἠσα@@ 8
νος@@ 8
πολί@@ 8
ηὔ@@ 8
ποι 8
ἵππων 8
αἰτί@@ 8
πνεύμα@@ 8
τι· 8
ἀγάπῃ 8
μακροθυμ@@ 8
οὐδεμίαν 8
θλι@@ 8
μένοις, 8
τεί@@ 8
φυλακῇ 8
δόξ@@ 8
Ἰησοῦν, 8
ἐπιστε@@ 8
πίστεως, 8
ὥς 8
μέρος 8
ἄγγε@@ 8
ἔρχονται 8
αυ@@ 8
γενόμενοι 8
ἐστιν; 8
Εἴ 8
ἡμέραν, 8
φρά@@ 8
ταπεινο@@ 8
κρίσεως 8
αὐτῇ. 8
την, 8
ἀδελφοὶ 8
Γαλιλαίας 8
πορεύε@@ 8
ία. 8
ως· 8
χρυσ@@ 8
Λα@@ 8
δικαιω@@ 8
παρακαλῶ 8
πῳ 8
πω 8
ους. 8
ζητ@@ 8
τροφῆς 8
παρό@@ 8
ναι· 8
Οὗτος 8
χριστοῦ@@ 8
ρος. 8
ἔθ@@ 8
χαρὰ 8
Ὅτι 8
πυθό@@ 8
θαρ@@ 8
προσκυ@@ 8
Σικελίας 8
ψυ@@ 8
λύε@@ 8
τριῶν 8
οἰκία 8
προφῆται 8
φυλα@@ 8
τάδε 8
τεροι 8
σμοὺς 8
Ὁ@@ 8
ἐλε@@ 8
στρέ@@ 8
τρε@@ 8
ἔγνω@@ 8
ῇ· 8
μος. 8
Ἆρα 8
λέγοντες@@ 8
Ἕλλη@@ 8
ἐκείνων 8
ἀγάπην 8
πληρω@@ 8
κρείττο@@ 8
ἀποκρι@@ 8
μων, 8
λοῦ@@ 8
εἶ, 8
τοιαύτην 8
ἐπει@@ 8
ῶντες 8
Νε@@ 8
ρά 8
βρι@@ 8
ἔλε@@ 8
μια@@ 8
μὸς 8
τέλος. 8
πῦρ 8
ἀνο@@ 8
πολλάκις 8
ζοντο 8
Ἰω@@ 8
ἱερὸν 8
νουσι 8
θεί@@ 8
χιλιάδες, 8
ἁγίοις 8
σῳ 8
στῆναι 8
ἐντολὰς 8
ἐρεῖ 8
τικὸν 8
ὄφε@@ 8
ἔπεσεν 8
παρέδω@@ 8
ἔσω 8
κρ@@ 8
κοι 8
πιστὸς 8
νον. 8
βλά@@ 8
τουτέοισιν 8
λαλεῖ@@ 8
δέδω@@ 8
πορνε@@ 8
σαρκ@@ 8
λεῖν 8
σις. 8
φεί@@ 8
χόρ@@ 8
οὐδὲ@@ 8
ῖοι, 8
ξα 8
ἐναντ@@ 8
Ζ@@ 8
μετε@@ 8
ἀποκτείνω@@ 7
φάγω@@ 7
ριστ@@ 7
ἀοιδῆς. 7
μένου, 7
ἀγροῖς 7
κτ@@ 7
δωρεὰν 7
ἐφά@@ 7
θαυμά@@ 7
μως 7
πρέσβεις 7
κατανο@@ 7
ἐπετίμησεν 7
λεπ@@ 7
φλε@@ 7
ῖσιν 7
μετρί@@ 7
γόντες 7
σαμεν 7
θέα@@ 7
ποιήσει 7
ντες· 7
σκη@@ 7
ρύ@@ 7
λελάληκα 7
λαλή@@ 7
πατρὸς@@ 7
φθό@@ 7
τούς 7
νεω@@ 7
ζοντας 7
ξυ@@ 7
σκανδαλί@@ 7
μαι; 7
ἐπίστευσεν 7
σπέρμα 7
πνεῦμα, 7
βούλε@@ 7
εἰσί@@ 7
μενός 7
λῃ 7
μα· 7
πλοῦτος 7
βασιλεῖς 7
κυριε@@ 7
ζω 7
ταχέως 7
γ′. 7
θλίψε@@ 7
πρεσβυτέρους 7
ἐκήρυ@@ 7
χρ@@ 7
κοινων@@ 7
ντός 7
τρώ@@ 7
θεὸς@@ 7
κοιλί@@ 7
λέγων@@ 7
κληρονομή@@ 7
γλώσσαις 7
σαμένου 7
αὑτοῦ 7
ἀδελ@@ 7
κατηγο@@ 7
κοιν@@ 7
ρ, 7
θήσονται 7
8@@ 7
περισσοτέρως 7
ἐδέξα@@ 7
μβ@@ 7
παραβά@@ 7
διδασκαλί@@ 7
λὼν 7
μακρὰν 7
εἷ@@ 7
ξύμμα@@ 7
οὐρα@@ 7
κρυπ@@ 7
σμένον 7
λέγεται 7
νᾶ@@ 7
θέλων 7
ποιε@@ 7
στερον 7
μένοις@@ 7
θεα@@ 7
χωρίον 7
Ἁ@@ 7
ψεύ@@ 7
μός. 7
ὃ@@ 7
ψῃ 7
ή, 7
εἰρήνη@@ 7
ΤΑ@@ 7
κοί@@ 7
τινων 7
ἐρε@@ 7
ησο@@ 7
λαλ@@ 7
Ἀβραάμ, 7
ὺς@@ 7
λήμ@@ 7
νης, 7
παῖδες 7
ντὰ 7
ἀναβα@@ 7
νας@@ 7
πέμψαι 7
ἠδυνή@@ 7
ιε@@ 7
φοβού@@ 7
τίθε@@ 7
μορ@@ 7
φὴν 7
ών, 7
Δια@@ 7
ΟΥ@@ 7
ΡΟΣ 7
Κο@@ 7
Ὅτε 7
μῆς 7
ἐγὼ@@ 7
κήρυ@@ 7
πολλὴν 7
πλοίῳ 7
θερί@@ 7
σκανδαλι@@ 7
ἐμὴν 7
ἀπολύ@@ 7
ἀσθενε@@ 7
ἔβα@@ 7
λλον 7
ᾶ, 7
πος 7
σιος, 7
ἤκου@@ 7
ἔφυ@@ 7
ποικί@@ 7
ἀποκρί@@ 7
οὗτοί 7
ψάμενος 7
ος, 7
τει 7
σσα@@ 7
ἦσαν, 7
⟧ 7
δόξῃ 7
Ἴ@@ 7
αὐτοῦ; 7
ἰδίαν 7
γνώμην 7
ἀνθρώπου@@ 7
εἰπών 7
ὡ@@ 7
πρεσβύτεροι 7
νοὐκ 7
ἀπεκρίθησαν 7
αἳ 7
δης 7
ύσας 7
ταχ@@ 7
ἐμοῦ, 7
' 7
‘@@ 7
ἠκούσα@@ 7
θέλετε 7
γάρ, 7
Κε@@ 7
ρεν 7
προση@@ 7
ναυσὶ 7
παρασκευ@@ 7
διον 7
νίαν, 7
Πέτρου 7
ρὰν 7
ἑκάστ@@ 7
ζοντα 7
ἐνδύ@@ 7
κόσμο@@ 7
εὑρέθη 7
ύς. 7
οἰκοῦ@@ 7
ντῷ 7
ἰά@@ 7
σκω@@ 7
στάς, 7
ῆν 7
Ἰησοῦ· 7
ἀλλοτρί@@ 7
Ἰάκωβον 7
λθόντες 7
6@@ 7
λαμβάνων 7
χαρὰν 7
ψεν, 7
ἡμέρα 7
στος 7
αἰεὶ 7
μιμη@@ 7
ξυνε@@ 7
ἀπέλυ@@ 7
λήν, 7
ἐλπίζω 7
ῆς@@ 7
ἔξω, 7
ἀνθ@@ 7
δύναμις 7
πνεύματα 7
ὄντως 7
ἀνάστασις 7
ἄξ@@ 7
περ 7
σονται. 7
ἡλίου 7
κακοῦ@@ 7
θρη@@ 7
ΜΕ@@ 7
ἐσό@@ 7
ζητεῖ@@ 7
ουσιν· 7
μυστήριον 7
νίαν 7
σομεν 7
φροντί@@ 7
κυρίουἡμῶν 7
γων@@ 7
ἀληθῶς 7
κατει@@ 7
σῶμά 7
Χριστῷ, 7
ἀλλήλων 7
Ἰουδαίοις 7
δρά@@ 7
παρακαλοῦ@@ 7
σπε@@ 7
πλέον 7
δους 7
πλανᾶ@@ 7
λασ@@ 7
Πολυ@@ 7
πρωτο@@ 7
ί; 7
πάλαι 7
νεγ@@ 7
πατέρα, 7
στρα@@ 7
Ἐπα@@ 7
ζητεῖτε 7
ἄγγελοι 7
ἀνθρώπων. 7
φύλα@@ 7
ἐκλή@@ 7
ὅπλοις 7
εὑρόντες 7
ύσαντος 7
εὐδοκ@@ 7
σοῦ@@ 7
στρατόπεδον 7
οἴκου 7
χετο 7
Εἰς 7
κρίμα 7
λέκ@@ 7
γε. 7
πάντες, 7
διαθήκης 7
ύειν, 7
κις 7
ὁρῶ. 7
σω· 7
ἴσχυ@@ 7
αἷς 7
ᾶς, 7
Χά@@ 7
διδό@@ 7
πους 7
ἐπαρ@@ 7
οἰκίας 7
διακονίαν 7
Σι@@ 7
ἐτέ@@ 7
ςδὲ 7
ἐμὸν 7
ζου@@ 7
πυρετοῖσι 7
ώδε@@ 7
πατέρα@@ 7
κηρύσσων 7
ἀπελθὼν 7
ἀπή@@ 7
μάχης 7
σθέ@@ 7
σκι@@ 7
πῶλον 7
πολε@@ 7
διδαχ@@ 7
ῆς. 7
αὐτά. 7
φλεβοτο@@ 7
μίη 7
γένηται. 7
ἐδί@@ 7
λουν 7
ργά@@ 7
ἐποίει 7
σαρκί, 7
γρηγο@@ 7
φήτευ@@ 7
πτον 7
τὴ@@ 7
παρὰ@@ 7
σαλευ@@ 7
μέλη@@ 7
λήμψε@@ 7
ἔρχε@@ 7
τες@@ 7
ἀκά@@ 7
θέντος 7
ἀρέ@@ 7
δεῖ@@ 7
τῷ, 7
λθὼν 7
Διό@@ 7
ξὺν 7
γνο@@ 7
εἴπερ 7
κληρονομ@@ 7
3@@ 7
ποιη@@ 7
γραφ@@ 7
πιστεύων 7
δην 7
ἐρωτ@@ 7
νῦ@@ 7
ντέ@@ 7
δυνάμεις 7
ἐστι 7
δὶς 7
γράμματα 7
σπό@@ 7
ἅπα@@ 7
ΠΟ@@ 7
ἐποιήσα@@ 7
ἀγγε@@ 7
βιβά@@ 7
χρημάτων 7
εἰμι. 7
ποιέε@@ 7
μένας 7
ἐνα@@ 7
ταις 7
ἀλήθε@@ 7
ἅπαντας 7
σηται 7
ἐξῆλθον 7
φυλά@@ 7
ἦτε 7
θεῖσα 7
κτο@@ 7
ζα@@ 7
ὼν@@ 7
σθη, 7
νεύ@@ 7
γενη@@ 7
θεν@@ 7
γάρ@@ 7
σεται 7
διακρι@@ 7
σους 7
ρός· 7
ἐκάθισεν 7
ρεῖτε 7
κυρίῳ@@ 7
πνεύματος, 7
πιστεύομεν 7
δοκεῖ@@ 7
ρόν, 7
βια@@ 7
νὸν 7
φοβεῖ@@ 7
ἔπι@@ 7
λου, 7
θοῦ@@ 7
μερι@@ 7
Γο@@ 7
σίν, 7
Γαλιλαίαν. 7
φύσει 7
λόν 7
τριάκοντα 7
ἐκτε@@ 7
ἔλθ@@ 7
χαίρε@@ 7
πάντα. 7
αν 7
μεθ@@ 7
ῆλθε@@ 7
μικ@@ 7
ἐπιθυμίας 7
ποδῶν 7
τινὶ 7
χου 7
ὀμό@@ 7
πρῶτοι 7
ἔσχατοι 7
ῆναι 7
λέγουσα 7
ουσι, 7
πρέ@@ 7
μένοι, 7
πολέμ@@ 7
κή@@ 7
τέλε@@ 7
ἐκλεκ@@ 7
σθέ 7
οὖς 7
πόλιν, 7
καλὰ 7
Τε@@ 7
Ἰορδά@@ 7
εἰμι, 7
ἀντε@@ 7
λύει 7
φοβη@@ 7
⟦@@ 7
αὔριον 7
φοβοῦ, 7
Καίσα@@ 7
εὑρίσκει 7
ροί 7
ὃν@@ 7
στήρι@@ 7
οὐρανῷ 7
ἐκέλευσε 7
πέραν 7
νθα@@ 7
υἱο@@ 7
γεγονό@@ 7
πῳ, 7
γίνονται. 7
κιν@@ 7
σω. 7
πυνθανομένου 7
διδαχῇ 7
σαί 7
ὑμῶν; 7
τῶν, 7
προσδε@@ 7
τοὶ 7
πολλοί, 7
που 7
προα@@ 7
αἱμο@@ 7
ζόμενον 7
Ἄνδρες 7
Πάτερ, 7
παθ@@ 7
ἐτε@@ 7
γυναικῶν 7
λατο 7
ἔργο@@ 7
καταλιπὼν 7
ΟΥΣ 7
ἔνι 7
ἀπήγαγον 7
σμοῦ@@ 7
γινο@@ 7
μένῃ 7
ἀλλήλοις 7
ἔμε@@ 7
γυναῖκας 7
γχ@@ 7
κοιμη@@ 7
κύρι@@ 7
ταί@@ 7
διδάσκαλος 7
ἀδελφῶν 7
ᾷ. 7
ΑΝ@@ 7
ΘΕ@@ 7
οντες 7
σωτηρίαν 7
Δεῦ@@ 7
προφη@@ 7
εὑρέ@@ 7
παρελθὼν 7
ξι@@ 7
ἀπεκρίθη@@ 7
σῖ@@ 7
ζηλοῦ@@ 7
γέγο@@ 7
φρε@@ 7
ἤμην 7
ἰδίας 7
σπερ 7
παρέδωκεν 7
πίστε@@ 7
παῖδα 7
κότα 7
λιον 7
ἐστίν; 7
βρῶ@@ 7
ων· 7
αἰτή@@ 7
ἔφαγον 7
ἐσθίε@@ 7
δίκη@@ 7
μαρ@@ 7
λαλη@@ 7
νόν 7
γινώσκο@@ 7
ἄνθρω@@ 7
ἐπη@@ 7
μόλις 7
πάντα, 7
ἐξουσία 7
στα 7
ποιήσε@@ 7
Χριστοῦ· 7
λιο@@ 7
5@@ 7
δυσ@@ 7
πολλὰς 7
ἐπαγγελία@@ 7
Σάρ@@ 7
αἰτ@@ 7
καί@@ 7
ἥλιος 7
ὶν 7
κτή@@ 7
πάλιν@@ 7
ἐντο@@ 7
δὲεἶπεν 7
Δα@@ 7
μετ@@ 7
οὐρανό@@ 7
βίο@@ 7
πρεσβυτέ@@ 7
μενον. 7
ἀνεπί@@ 7
μενα. 7
οὕτως@@ 7
ἐγνω@@ 7
αἵματι 7
μένων@@ 7
Κάσσιος 7
ἀτι@@ 7
σίου 7
ἔγνω 7
πίστεως. 7
ἀγαθὸς 7
νεν. 7
μιᾶς 7
δίκαιον 7
τρεῖς, 7
σπουδά@@ 7
ἀνθρώποις. 7
λοὺς 7
σία 7
σεμ@@ 7
ἐλεημοσύ@@ 7
συνί@@ 7
αὐτό, 7
χαρι@@ 7
βὰς 7
έ@@ 7
ποτήριον 7
μόν, 7
ποιῆσαι. 7
λλος 7
ἄρχοντα 7
τω· 7
γενομένων 7
οὐραν@@ 7
ζουσιν 7
καν 7
πολὺς 6
ἀγορά@@ 6
εἴρη@@ 6
μαθητὴς 6
πάντας. 6
λαλοῦντες 6
αὐτὰρ 6
χειμῶνος 6
ἀποικ@@ 6
οἰκεῖ@@ 6
νοὐ@@ 6
τοίνυν 6
νιο@@ 6
νους. 6
τριβ@@ 6
τρισὶν 6
φόβον 6
ΠΕ@@ 6
λθεῖν 6
Λύ@@ 6
δα, 6
κε. 6
σκάνδα@@ 6
γιν@@ 6
ἀδικεῖ@@ 6
δεκά@@ 6
ξύμμαχοι 6
ἐγένοντο 6
γεωργο@@ 6
ξενί@@ 6
ἔσωθεν 6
ῡ@@ 6
ἔπει@@ 6
ὃς@@ 6
ἰδίᾳ 6
πυθομένου 6
ὤν, 6
ίνει 6
αἰώνιο@@ 6
ἀμήν. 6
κρατί@@ 6
νομι@@ 6
ἐξου@@ 6
μένῳ, 6
Γαλιλαίας, 6
στει@@ 6
ὴ, 6
σθητε 6
σεως. 6
αἰσχύ@@ 6
σωφρο@@ 6
ὄρους 6
θυσία@@ 6
νδα@@ 6
σπλάγχνα 6
Λακεδαιμονίοις 6
σειν 6
πράξεις 6
ἀποστόλων 6
γήσα@@ 6
προσωπο@@ 6
εἶναι· 6
έτω 6
πατρίδα 6
ρήσε@@ 6
θέρους 6
οὖσαν 6
εἴπας 6
καλέσας 6
ἓξ 6
ἀνακει@@ 6
γερ@@ 6
μεγάλου 6
ίως 6
ἐκάθητο 6
ἐστέ@@ 6
Τὰ 6
ματος. 6
κύριε· 6
με· 6
σ′. 6
σπέρ@@ 6
ἁμάρ@@ 6
ἀδελφός 6
ἄφες 6
πολλά@@ 6
παύ@@ 6
εὐφρα@@ 6
θῆναι. 6
ἀρχῆς 6
ἑκατὸν 6
μέτρον 6
κλί@@ 6
δ′. 6
4@@ 6
ἕλκε@@ 6
ἀφέ@@ 6
ωνται 6
ἐξομο@@ 6
μαί 6
κώμας 6
εὐηγγελί@@ 6
ῃ; 6
νων. 6
γεγραμμένον 6
ΒΑ@@ 6
ΩΝ@@ 6
λῳ, 6
τιμὴν 6
ὑπὸ@@ 6
ἀρχα@@ 6
ὀργὴ 6
Ἰακώ@@ 6
ἐκομί@@ 6
ἀρξάμενος 6
β′. 6
εὑρε@@ 6
τῶν. 6
χαρισ@@ 6
εἰσίν, 6
περὶ@@ 6
ἀχ@@ 6
ἐλευθερίαν 6
σοφίας 6
ὺ 6
πορευ@@ 6
ἑτοιμά@@ 6
ἔρχομαι 6
ἐχομένῳ 6
ἐξουθε@@ 6
ἐδίω@@ 6
ἐπό@@ 6
ἕτερο@@ 6
ἐκείνη 6
ἤκουσεν 6
χαλ@@ 6
ιον· 6
ταῦτά 6
μελαγ@@ 6
γʼ 6
Ὅταν 6
ἐρή@@ 6
διδά@@ 6
ἐρρέθη 6
Κό@@ 6
οὐρά@@ 6
νιος 6
πτό@@ 6
οὔνομα 6
μαι· 6
γλῶ@@ 6
νὴ@@ 6
ἄλλο 6
σιος 6
φόβῳ 6
δημο@@ 6
ἠγέρ@@ 6
ἕστη@@ 6
μέλλε@@ 6
ἔγραψα 6
ὑπομον@@ 6
θήσε@@ 6
ῦ, 6
καὶτὴν 6
ρίῳ 6
ντά 6
Ῥ@@ 6
βασιλείας 6
μῇ 6
ἐγενόμην 6
μοὶ 6
νω 6
ἐπηρώτα 6
πάντων@@ 6
λεν@@ 6
τρίτος 6
ἐπή@@ 6
χειρὶ 6
του· 6
βάπτισμα 6
Ἠσαίου 6
ἔσχον 6
ύοντο 6
λεγόμενος 6
ἀριστε@@ 6
ύειν. 6
ίοισι 6
τίθη@@ 6
χριστός, 6
τρια@@ 6
ἄλλου 6
ἀριθ@@ 6
πλεονά@@ 6
στόματι 6
Ἐυ@@ 6
εἰσελεύ@@ 6
φόνον 6
φέρου@@ 6
ἀναβλέ@@ 6
εἴπατε 6
Λέγω 6
ττο@@ 6
θε 6
ἀδελφοῦ 6
μαρτυρία 6
Βαρνάβας 6
εἰσέλ@@ 6
κἀκεῖ 6
νεὐ@@ 6
τούτων, 6
κλαίο@@ 6
ραι@@ 6
ἄκ@@ 6
Σικε@@ 6
ἀλη@@ 6
παράκλη@@ 6
ἐνδυ@@ 6
φῶ@@ 6
ὦ@@ 6
φος 6
ρίην 6
ῆλθεν. 6
νέγ@@ 6
ἀποστόλους 6
κείμενον 6
ἐκέλευσεν 6
χιλίαρχος 6
νουν 6
πάντες@@ 6
ἐκκλησίαις 6
πεσὼν 6
Κηφ@@ 6
ἀντέ@@ 6
εὑρὼν 6
νέγκα@@ 6
θεά@@ 6
μεθα@@ 6
σωτῆ@@ 6
κόσμου. 6
ἐζήτουν 6
λή. 6
ἀποστε@@ 6
βίον 6
ἔστιν, 6
ᾗ@@ 6
λείπο@@ 6
περισσῶς 6
Ναζωρα@@ 6
ἤν 6
σόμεθα 6
δὲ, 6
ἔχω@@ 6
μου; 6
μένα@@ 6
τας. 6
Γύ@@ 6
χας 6
γεί@@ 6
Σαδδουκα@@ 6
αἵμα@@ 6
ἀφορμὴν 6
ργάσατο 6
ἐσμεν 6
σμένοι 6
γενέσθαι. 6
υόμενοι 6
ζόντων 6
ῆς· 6
ῑ@@ 6
ἔπος 6
νους, 6
ἡμετέ@@ 6
ἐπηρώτων 6
Ῥωμα@@ 6
ῖός 6
ἐξεπλήσσοντο 6
υγ@@ 6
συναγωγαῖς 6
γυναικ@@ 6
σπείρων 6
ἐκείνους 6
προφήτην 6
ντί 6
θέλο@@ 6
λαμβάνει 6
ἀπόστο@@ 6
Ἰησοῦς. 6
σας@@ 6
πνε@@ 6
γλῶσ@@ 6
τὴς 6
λήθη 6
πότερον 6
πολεμίοις 6
κην 6
Δίων 6
γων 6
κίνδυ@@ 6
ἐκάλε@@ 6
θελήματος 6
ςτοῦ 6
ωνος 6
γμα 6
ταρ@@ 6
φέρο@@ 6
ζον. 6
Λακεδαιμονίους 6
ὀψ@@ 6
οἰκονο@@ 6
ἕκαστο@@ 6
αἷ@@ 6
οἶνον 6
ἕως@@ 6
θλίψιν 6
μεγάλη@@ 6
εἰπεῖν 6
ἀγαπητοί, 6
ἔχου@@ 6
ἀνταπο@@ 6
ίων. 6
τός, 6
Ἰεροσολύμων 6
καταβά@@ 6
ἔπε@@ 6
ρεί@@ 6
λέγω· 6
πολλά. 6
γῆν, 6
στρε@@ 6
γεῖν. 6
πα 6
οί 6
ἀπόστολος 6
ἡτοίμα@@ 6
Οὗτός 6
ἀγγέλους 6
μιν 6
στρατηγὸν 6
ἅπαντες 6
πιστεύω 6
νέων 6
ᾶς. 6
ὑγι@@ 6
έε@@ 6
καὶεἶπεν 6
ΠΠ@@ 6
Ὃς 6
ἀκουέτω. 6
γονεῖς 6
θλί@@ 6
χοντο 6
ὼ 6
ποῦ@@ 6
ἐκβάλλε@@ 6
πτειν 6
βον. 6
μην. 6
ἠγάπη@@ 6
σμῷ 6
συνη@@ 6
ὑπάρχων 6
πάσχο@@ 6
παντ@@ 6
δέχε@@ 6
παρακαλῶν 6
νοὺς 6
δοῦλο@@ 6
κεῖ 6
σκέ@@ 6
στρά@@ 6
ἐκά@@ 6
ψυχὰς 6
ἐδύνατο 6
μία@@ 6
χεῖρα@@ 6
α′. 6
κἀ@@ 6
λοιπὸν 6
στενά@@ 6
ῖο@@ 6
ρτι@@ 6
λαλῶν 6
νόη@@ 6
ὀργὴν 6
ὀργῆς 6
ἀποκαλύψε@@ 6
μενὅτι 6
καθώς 6
οὐρανοῖς 6
λης 6
Τι@@ 6
εί@@ 6
δεα 6
ύσατε 6
τοῦδε 6
σφόδρα 6
χάριτι 6
δὸς 6
ἱερεὺς 6
πολέμῳ 6
Λακεδαιμονί@@ 6
Καιάφα@@ 6
στω@@ 6
κωλύ@@ 6
τοί. 6
φρονεῖ@@ 6
ἀλλο@@ 6
ναῖς 6
ξάμενοι 6
Ἕλληνες 6
ἱεροῦ 6
ἀργυ@@ 6
ἀνθρω@@ 6
ην, 6
χιτῶ@@ 6
πατρός. 6
κόσμου, 6
ςτῆς 6
ἀποστά@@ 6
δεκα@@ 6
καθά@@ 6
ὰν@@ 6
χαίρετε, 6
κάς 6
ἁμαρτ@@ 6
Σατανᾶς 6
πῃ 6
σεῖ@@ 6
λίθος 6
πολλοῖς 6
λόγησεν 6
ἤ 6
ἐποίησαν 6
τότε@@ 6
Μωυσ@@ 6
ῖ. 6
φορὰ 6
φαίνεται 6
καθή@@ 6
νης. 6
ὁθεὸς 6
λαιον 6
χρήματα 6
ἔχει· 6
μελέ@@ 6
ἡμῶν· 6
ἀπεκρίνατο 6
Το@@ 6
μόν. 6
μ. 6
ἔργῳ 6
ῥύ@@ 6
τέχ@@ 6
ἐγερ@@ 6
ἐλάλησαν 6
θὼς 6
ἐκκλησίᾳ 6
ἰσχύ@@ 6
Θα@@ 6
ἔβαλεν 6
ψαντες 6
ἁγιά@@ 6
σωνται 6
σθῇ@@ 6
χύ@@ 6
θήσα@@ 6
καρδία 6
πυρὸς 6
βρο@@ 6
πτωχ@@ 6
μνημεί@@ 6
πόθεν 6
καὶοἱ 6
ών 6
ἀδελφοῖς 6
μένον. 6
ἐοῦ@@ 6
βαλόντες 6
ἐπλή@@ 6
ρχον 6
τοι. 6
ρᾷ 6
οὐδέ@@ 6
τρέπε@@ 6
τρὸς 6
ΑΛ@@ 6
σῖτον 6
Ἰουδαίας 6
ος. 6
γεῖν, 6
ἤνεγ@@ 6
λάβ@@ 6
Ἰωάνη@@ 6
περιστε@@ 6
Μαθ@@ 6
προϊ@@ 6
ἐλάβο@@ 6
κρίνο@@ 6
Βλέπετε 6
ὑπακού@@ 6
ἐσώ@@ 6
κόλ@@ 6
Παῦ@@ 6
γυμ@@ 6
στου@@ 6
Χριστοῦ@@ 6
αὐτὰς 6
ίου. 6
ἁμαρτωλ@@ 6
σθήσο@@ 6
ἐκάλεσεν 6
κατάκρι@@ 6
νακ@@ 6
ἀνό@@ 6
7. 6
μέλλο@@ 6
νοί 6
ζητοῦντες 6
αἰώνιον. 6
διωγ@@ 6
πρᾶ@@ 6
ἀνὰ 6
κόσμον, 6
Κατὰ 6
παροξυ@@ 6
ξις 6
ταύτη@@ 6
ίοις, 6
δυν@@ 6
σθῆναι 6
ἀπώ@@ 6
φαν@@ 6
ἡμέρας. 6
διδοὺς 6
ὑγ@@ 6
κοιλίην 6
φερό@@ 6
φέρει. 6
Ἀρτα@@ 6
δεδο@@ 6
ὑμ@@ 6
δυνατὸν 6
Δίωνα 6
ἀγάπῃ, 6
πρεσβε@@ 6
λαι@@ 6
καύ@@ 6
μ 6
γραμματέων 6
τροφὴν 6
όμενοι. 6
παιδεύ@@ 6
ἐπαγγελίαν 6
μακάρι@@ 6
φθαρ@@ 6
οἶδεν 6
ιτο 6
λικ@@ 6
ός; 6
γώ@@ 6
μαρτυρίαν 6
πει 6
πόλε@@ 6
ἐπιεικ@@ 6
σοφίαν 6
Τῷ 6
λαῷ 6
Ἠλε@@ 6
ὑστε@@ 6
πραΰ@@ 6
νδε 6
σόν 6
λαμβάνο@@ 6
οἰκε@@ 6
τοῦ. 6
Τὴν 6
ἀνέβλε@@ 6
ὄντας 6
μένοις. 6
ςὁ 6
λον@@ 6
εὖ@@ 6
ήσει, 6
μη 6
ψυχρ@@ 6
ζει, 6
δίδωσιν 6
ῖα 6
εὗρεν 6
δέδο@@ 6
εἶπέν 6
τἆλλα 6
δεύτερος 6
προθυ@@ 6
φιλά@@ 6
ῦσιν 6
ἕνεκεν 6
αἵ@@ 6
ἠρνήσατο 6
ψυχήν 6
θυγα@@ 6
πῶ@@ 6
Μέ@@ 6
πτα@@ 6
βασιλείᾳ 6
ναὐτῷ 6
ινώ@@ 6
εἰδωλο@@ 6
κε 6
πολλοῦ 6
ὅμως 6
ῃ· 6
πλεῖον 6
τέκνα, 6
προσκό@@ 6
ἐνά@@ 6
οὕτως, 6
ΜΑ@@ 6
ἔτε@@ 6
σαντο 6
πράξε@@ 6
T@@ 6
ό@@ 6
ὑπάρχο@@ 6
ἐρ@@ 6
ἐπιχει@@ 6
καύχη@@ 6
στρατι@@ 6
αὐτῷ; 6
ύων 6
ήσεις 6
μόνῳ 6
ποιῶ 6
βασιλεῖ 6
ἐγείρεται 6
ᾶτε 6
δύο. 6
κλαίε@@ 6
Ἐφέ@@ 6
γενεα@@ 6
εἶ; 6
Ἀνδρο@@ 6
τέρα 6
ἐλαχί@@ 6
λους, 6
λωσιν 6
νεύε@@ 6
νων· 6
προσώ@@ 6
ἕτερος 6
ποιήσῃ 6
ῖος, 6
Χριστὸς@@ 6
τηλι@@ 6
κρίσιν 6
ἐκτείνας 6
8. 6
ἐποίε@@ 6
νεώ@@ 6
ἐρη@@ 6
ἐθε@@ 6
ίη@@ 6
Εἴ@@ 6
μητέ@@ 6
συνι@@ 6
εἶπε, 6
βη 6
ἐκρα@@ 6
ὰ, 6
29. 6
Ω@@ 6
ποιού@@ 6
ἀδύνα@@ 6
ῃσιν 6
δένδρον 6
καρποὺς 6
ἔργ@@ 6
δίκαιος 6
μησαν 6
ἐβαπτίσθη@@ 6
χερσὶν 6
ἔνο@@ 6
ἱερ@@ 6
σταλ@@ 6
τοις 6
ἐργαζο@@ 6
θος 6
νε, 6
ἑαυτῶν, 6
Τιμολέοντος 6
καλά@@ 6
ἀπαρνή@@ 6
ἐμοῦ@@ 6
σχολά@@ 6
δίκην 6
ρῆ@@ 6
κεφαλῆς 6
λίου 6
καλο@@ 6
λέγεις 6
δύο, 6
ώ, 6
θους 6
γοῦν 6
μεῖ 6
κατε 6
πάντ@@ 6
ον; 6
πωλοῦ@@ 6
ιού@@ 6
συναγωγὴν 6
μένους, 6
ἐχθ@@ 6
κόσ@@ 6
πρε@@ 6
στρατιῶται 6
ἰὼ 6
σάββατον 6
Οὐδὲ 6
ἄλ@@ 6
κτυ@@ 6
στρο@@ 6
δοῦλοι 6
ἔπα@@ 6
ἐπεί@@ 6
ζε 6
φη 6
ῶ, 6
ἀπέθανεν. 6
σι· 6
σμὸν 6
φοι@@ 6
τούτου@@ 6
λα, 6
γίνεσθε 6
ἑστῶ@@ 6
διω@@ 6
κάτω 6
πη 6
δίκαι@@ 6
ἀπί@@ 6
ρμο@@ 6
πεπραγ@@ 6
σύ 6
ἀληθεί@@ 6
Θέ@@ 6
ἡλικ@@ 6
ίη 6
Ἀπολλ@@ 6
τά. 6
ἔστ@@ 6
πίνακι 6
δύο@@ 6
ἔσχε@@ 5
μακροθυ@@ 5
ργα@@ 5
ἄλλως 5
μνο@@ 5
ὑμῖ@@ 5
λοχα@@ 5
γῶν 5
ή@@ 5
ἀγνο@@ 5
ἰσχυρό@@ 5
λθὼν@@ 5
θει, 5
Ἀλεξάνδρου 5
ἡμέραις. 5
στη 5
χριστός. 5
ΓΕΝ@@ 5
ὀλίγ@@ 5
ὑστέ@@ 5
ισι 5
ὕπ@@ 5
ἀμφότερα 5
καθαρ@@ 5
στέφανον 5
μᾶλλον, 5
μμα 5
πλοῖα 5
Τοῦ 5
λαμβάνου@@ 5
παροι@@ 5
ἀπαγγε@@ 5
πονηρὰ 5
ὑπα@@ 5
ἐλπίδι 5
διαι@@ 5
κρεί@@ 5
ώ 5
λλέ@@ 5
ὕπνον 5
πλήρωμα 5
δοκιμα@@ 5
ζέσθ@@ 5
ἀγαθῷ 5
στην 5
προσεκύνη@@ 5
Μι@@ 5
καθαίρε@@ 5
διδάσκειν 5
αὑτῶν 5
ἀπολυ@@ 5
ρον. 5
αρί@@ 5
κός 5
ὅρ@@ 5
παιδίον, 5
μάχη 5
τήν, 5
Ἰουδαίᾳ 5
ἅπαντα 5
να· 5
ινά@@ 5
χωρ@@ 5
ίοι@@ 5
ἡμέρας, 5
16. 5
φθί@@ 5
πεσό@@ 5
φόβου 5
παροῦ@@ 5
ἐλεγ@@ 5
ἀλλα@@ 5
σκων 5
σάββασιν 5
χωρεῖ@@ 5
τρον 5
ροῖς 5
ποιεῖ 5
ζητεῖ 5
κόσμῳ. 5
Μάρθα 5
ζῃ 5
Κυρίου. 5
δη 5
ντή@@ 5
τέων 5
φαρμακε@@ 5
ὀξέ@@ 5
ζειν, 5
ἀκούετε 5
ί@@ 5
κου 5
πίστευ@@ 5
γενόμενον 5
Δί@@ 5
γέ 5
πατέρας 5
αἰῶνα. 5
μετανοή@@ 5
υχ@@ 5
ἐνεργ@@ 5
βάλλ@@ 5
ΑΡ@@ 5
σια 5
μακρό@@ 5
κουν 5
ἐλέ@@ 5
ρισεν 5
Οὗτοι 5
Ἀγαπήσεις 5
νεκρ@@ 5
Ἀναξανδρί@@ 5
αἰώ@@ 5
ὁμοθυμαδὸν 5
ἀρετῆς 5
ρεῖν 5
ποιήσω@@ 5
ης, 5
λειε@@ 5
ἀπιστ@@ 5
τινὰς 5
λλεν 5
μενος· 5
νοντο 5
φαρμα@@ 5
ῃσι 5
θεραπεύε@@ 5
ρε 5
παρει@@ 5
σουσιν, 5
δείξει 5
Πύ@@ 5
κα; 5
οὔτε@@ 5
ὁκο@@ 5
λέγειαὐτοῖς 5
ἠγέρθη 5
φώ@@ 5
τούτοι@@ 5
δε, 5
Ἀγρίππας 5
βουλό@@ 5
ὔ@@ 5
ριον, 5
ρων, 5
ἀνθρώποις, 5
τραπέζης 5
ες. 5
γενομένου 5
ὀλίγον 5
ἀκάθαρτον 5
4. 5
μὸς, 5
βαλὼν 5
ίᾳ, 5
αι, 5
ἤθελεν 5
Ἀκού@@ 5
σκειν 5
ἐκδίκη@@ 5
καταπο@@ 5
μέρη 5
ἐπείνα@@ 5
υἱοῖς 5
βλασφημία@@ 5
ὑπάγω 5
τάλαντα 5
ἀκοῦσαι 5
παρῃ@@ 5
σταυρὸν 5
οἰκου@@ 5
νεκρὸς 5
ζῶν 5
ᾄ@@ 5
αἰχμαλω@@ 5
ἔτυ@@ 5
ἀμεί@@ 5
πᾶσιν. 5
Ἄρα 5
μετάνοιαν 5
εἰδέναι 5
σμέναι 5
γγελ@@ 5
μεσί@@ 5
ἐξουσίας 5
ἐνιαυτὸν 5
μυριά@@ 5
γύ@@ 5
θέλε@@ 5
ίει 5
εἰπεῖν, 5
ὑπό@@ 5
ἔθνη, 5
βην 5
περίχω@@ 5
προσήνεγκαν 5
ρικ@@ 5
χθη@@ 5
ἀρχιερέ@@ 5
Ἀθηναῖοι, 5
παρὼν 5
κέκρι@@ 5
Εἰρήνη 5
θεοὺς 5
ψυχα@@ 5
ραβ@@ 5
χρέ@@ 5
Οὐδεὶς 5
κρύ@@ 5
λυχ@@ 5
πολλῶν. 5
πενθε@@ 5
ῥε@@ 5
ΙΩΑΝ@@ 5
ΟΥ 5
Α 5
μητέρα 5
σητε· 5
Ἀγα@@ 5
δας. 5
λίθῳ 5
χῶν 5
χρυ@@ 5
σουσιν. 5
ψεῦ@@ 5
μοί 5
ἐξελέξατο 5
θη· 5
ὥστε@@ 5
νεκροὶ 5
εἶπεναὐτοῖς 5
Πορευθέντες 5
ἐκβάλλω 5
γένοιτο· 5
τελευτα@@ 5
χριστῷ 5
δεξιᾷ 5
δῃ 5
ἔξε@@ 5
σοι@@ 5
μητρί@@ 5
αὐτῆς@@ 5
οἶδας 5
ἀκούο@@ 5
ποτὲ 5
ζεται@@ 5
κύριος, 5
Καμβύ@@ 5
στρατευ@@ 5
ἄγε@@ 5
Μάρ@@ 5
γγε@@ 5
ἕτοι@@ 5
νεῖν, 5
ἐπιστολὴν 5
στησαν 5
ίης 5
ἐθαύμασεν 5
διώκο@@ 5
νὺξ 5
ῶνι 5
νμου 5
ξένος 5
πολλῇ 5
Κλεομβρότου 5
κῃ 5
θεωρεῖ 5
Γαλατ@@ 5
παρεκάλει 5
όμενα 5
Σίμων@@ 5
ταν 5
τοσαύ@@ 5
δένδ@@ 5
πάντας, 5
αὖ 5
Πλάτωνος 5
κελε@@ 5
ᾶς@@ 5
ύμενος 5
νοια 5
σματα 5
ἐζημί@@ 5
ναυ@@ 5
ἐλευθέ@@ 5
ρᾶ@@ 5
ποία 5
Ἰδὼν 5
ἐσπλαγχνί@@ 5
ἑκατο@@ 5
τέκνον 5
ἀσ@@ 5
Καίσαρι 5
οὐδέν 5
πορευό@@ 5
χωρι@@ 5
κέκλη@@ 5
μού 5
μαρτύριον 5
δέσμιον 5
μνημεῖον, 5
εὑ@@ 5
ἔστιν. 5
μεγά@@ 5
λας, 5
λιθά@@ 5
ἀπω@@ 5
βαλε@@ 5
τούντων 5
παραχρῆμα 5
ῥυ@@ 5
ἐλευθε@@ 5
καταλύ@@ 5
αἱρέ@@ 5
ἁμαρτι@@ 5
ἄφε@@ 5
γνό@@ 5
ἑκατοντάρχης 5
βίου 5
φίλον 5
δείπ@@ 5
δίδο@@ 5
χρῄ@@ 5
προφά@@ 5
παρεκάλεσαν 5
ναντι 5
ὀφθαλμῶν 5
πλοῖον, 5
ποιῶ. 5
γωμεν 5
βραχέ@@ 5
ίοις@@ 5
ὄχλον, 5
εἶχον. 5
ἔπρα@@ 5
ύσασθαι 5
ἄξιος 5
περιτε@@ 5
δεινό@@ 5
ἡμᾶ@@ 5
ἔκρα@@ 5
ἔσχα@@ 5
οἴδατε, 5
τριή@@ 5
Συρακοσίων 5
φρων 5
ἀρί@@ 5
χάρισμα 5
ἀνέκρα@@ 5
Μυτιλή@@ 5
γόνα@@ 5
τωρ 5
ἐπουρά@@ 5
ῦσον 5
αὐτῆς· 5
λεκ@@ 5
στιν 5
νῆ 5
μακάριος 5
ἔσ@@ 5
ναί 5
ἐκβάλλει 5
Ῥωμαίων 5
σθω 5
ὑπάρχοντα 5
ἐκό@@ 5
παραστῆσαι 5
παραχρῆ@@ 5
συνιστά@@ 5
ἀνάγ@@ 5
θελή@@ 5
σεαυ@@ 5
κόσμον. 5
πιστο@@ 5
ἡμέ@@ 5
ά@@ 5
θήσει 5
ῥί@@ 5
ποιο@@ 5
ἀνθρώπων· 5
δον 5
θήτω 5
σθέντα 5
δικαιοσύνῃ 5
τέρα@@ 5
ὖ@@ 5
ἀσθενείας 5
Χριστὸν@@ 5
ρωμένο@@ 5
εῖ@@ 5
δόξης@@ 5
λθόντων 5
βοη@@ 5
αὐτόν; 5
2@@ 5
γματα 5
ἐφοβοῦντο 5
νύκ@@ 5
γρηγορεῖτε 5
ἀσθενοῦ@@ 5
ἐπορεύθησαν 5
ἀλλήλους, 5
παραδό@@ 5
ποῖον 5
ἁμαρτά@@ 5
ποιοῦντες 5
αὐτόν@@ 5
ἑτέρου 5
μένης, 5
μιμνή@@ 5
γινώσκοντες 5
δικαιοσύνην. 5
ροι, 5
διαφθεί@@ 5
γραφά@@ 5
ὑμεῖ@@ 5
ἱμάτι@@ 5
ἀνθρώποι@@ 5
στόν 5
ἀπέλυσεν 5
χὴν 5
τύπον 5
ἀμφότεροι 5
ὀφ@@ 5
καλούμενος 5
ἐξελθεῖν 5
0. 5
ὑπό 5
θανατῶδες. 5
ἐσθίο@@ 5
κράτε@@ 5
χει 5
δὼν 5
Κρῆ@@ 5
νιν 5
παραλαβὼν 5
υἱοὺς 5
δότε 5
γέγραπται@@ 5
λοιποὶ 5
ἐθαύμασαν 5
πληθυ@@ 5
φωτί@@ 5
Ἀλλʼ 5
προσεύξα@@ 5
Κερκυραῖοι 5
ἀστέ@@ 5
ἀποκάλυψιν 5
βιά@@ 5
μέσου 5
ἠδίκη@@ 5
ριος 5
ρας. 5
ἐπερ@@ 5
σβέ@@ 5
ΛΥ@@ 5
αἰῶνα 5
ἀγαπῶμεν 5
ἀλλήλους· 5
τέρατα 5
ῶς@@ 5
ποντα 5
μᾶ@@ 5
ψεν. 5
καύχημα 5
διὰτῆς 5
παιδὸς 5
ἠρώ@@ 5
σθῆ@@ 5
ικό@@ 5
τιον 5
λθατε 5
θυσιαστηρί@@ 5
ύοντες 5
νται; 5
παρουσία 5
ἠπί@@ 5
ἀγαπῶν 5
μοι· 5
χθέντες 5
ζύ@@ 5
μην, 5
ναι; 5
τῳ. 5
α· 5
θήσεται· 5
υἱός, 5
Σί@@ 5
παραβολὴν 5
τυφλὸν 5
τοῦσιν 5
μοῦντες 5
μάχεσθαι 5
πλεί@@ 5
βάρβαροι 5
πράγματα 5
πλεῖστον 5
σπείρε@@ 5
χων 5
έ 5
Ἰτα@@ 5
κρίνα@@ 5
ρεῖν. 5
πέρ@@ 5
ἐπλη@@ 5
Φαρισαίων 5
ἱπ@@ 5
χρώμενοι 5
τεταγ@@ 5
σημα@@ 5
μην@@ 5
τεκ@@ 5
στᾶ@@ 5
ἐπορεύθη 5
τείχι@@ 5
στον, 5
ἣ@@ 5
κλέπτης 5
στευ@@ 5
ὑπομονὴν 5
ὤ@@ 5
ἤθε@@ 5
νος; 5
κλασμάτων 5
κρατήσας 5
πλι@@ 5
Λακεδαιμονίων 5
ναί, 5
οὐρανοῖς, 5
ῶσαι 5
σδε 5
σπουδα@@ 5
ποιεῖ. 5
κάλλι@@ 5
)@@ 5
ἐφί@@ 5
καρδία@@ 5
φέρουσιν 5
ἐμα@@ 5
Ἰουδαίων; 5
πυρέ@@ 5
ἡμέρῃσιν 5
ἤθελον 5
φέροντες 5
ίσα@@ 5
χαριστ@@ 5
γενέ@@ 5
Ἠ@@ 5
νοῦσιν 5
χειρῶν 5
εἰσιν, 5
προά@@ 5
γου@@ 5
λεγό@@ 5
νεἰ@@ 5
1. 5
τητα 5
κλει@@ 5
ουσαν 5
ἀποκαλυφ@@ 5
κρεῖττον 5
ὄπισθεν 5
πολεμίους 5
νῃ· 5
δεσμ@@ 5
σωθήσεται. 5
οἶδα@@ 5
ἔχομεν, 5
ἐροῦ@@ 5
Τρῳά@@ 5
δρο@@ 5
κην, 5
αὖθις 5
Ἰούδαν 5
Ἰσκαριώ@@ 5
κα· 5
λόγῳ, 5
ἔσχατον 5
πῇ 5
ἦραν 5
μνημονεύετε 5
ὣς 5
αἰσχ@@ 5
κέρ@@ 5
κάμ@@ 5
ἤκουσαν 5
σματι 5
οἶκος 5
ΙΑ@@ 5
πόσοι 5
ὑπέστρεψαν 5
πρῶτα 5
ξυμμαχ@@ 5
ἀκούομεν 5
πατέ@@ 5
ρες@@ 5
οὐδέν. 5
ἐδόκει 5
πεπληρω@@ 5
ἔσομαι 5
ρ. 5
διδάσκ@@ 5
Μελχισε@@ 5
ἀκροβυστία 5
ἀκούων 5
τεῖ 5
ἐκπορευό@@ 5
χὴ 5
δηνα@@ 5
φέρειν 5
νας. 5
ἀπὸτοῦ 5
πνεύματος@@ 5
τας· 5
ᾱ́@@ 5
ρει, 5
σθεί@@ 5
μαχό@@ 5
λθοῦσαι 5
σῃ· 5
ποταμὸν 5
ἐντα@@ 5
ωτά@@ 5
Β 5
θνη@@ 5
θυσια@@ 5
εἰδ@@ 5
ὼς@@ 5
ἐλεύσονται 5
ποιεῖς; 5
ἀγαπᾷ@@ 5
εὐλογοῦ@@ 5
άρ@@ 5
Κορινθ@@ 5
ἔστησαν 5
γᾶν 5
σπασμὸς 5
παραφροσύνη, 5
1@@ 5
Ἐπ@@ 5
σχυ@@ 5
ξατε 5
ύμα@@ 5
ῥίζαν 5
ὀλίγοι 5
αὐτὸς@@ 5
μεναι, 5
αἵτινες 5
ῃς, 5
48. 5
αὔ@@ 5
ἔσο@@ 5
έρ@@ 5
μακρο@@ 5
περιεπάτε@@ 5
στολὴν 5
ὶς 5
προσώπῳ 5
ἄγο@@ 5
ἐπηρώτησαν 5
προσεύ@@ 5
ὁδῷ 5
ὰμ 5
παρόντι 5
ἴδητε 5
δυοῖν 5
σπου@@ 5
δεῦρο 5
ρεῖτε, 5
μέρους 5
ἀπῆλθεν. 5
Μεγά@@ 5
σιες 5
γνῶναι 5
ὑμετέ@@ 5
χαρί@@ 5
περιβλε@@ 5
μόνον, 5
κρίσις 5
αὐτό. 5
ποδα@@ 5
πίνων 5
νιον, 5
λῆ@@ 5
πέρι 5
οὐκοῦν 5
δῴη 5
μίᾳ 5
ἀσφα@@ 5
Αἰγύπτου 5
δεῖσθαι 5
ἀλλήλους@@ 5
νίᾳ 5
προσκαρτε@@ 5
Μακάρι@@ 5
ἔν@@ 5
παντα@@ 5
(καὶ 5
ἐλέη@@ 5
τατος 5
χθησαν 5
ουσα 5
μητρὸς 5
ποιῆσαι, 5
ψει 5
ἀνήρ, 5
ρός. 5
καθάρ@@ 5
ΤΙΜ@@ 5
βλασ@@ 5
ει@@ 5
αὐτοὺς@@ 5
ἄλλοισι 5
τελεί@@ 5
πορε@@ 5
δαιμόνια, 5
θαλάσσῃ, 5
ἀπολωλό@@ 5
μαχο@@ 5
ναν, 5
τητα, 5
ἔφη. 5
χριστῷ, 5
διαφέρε@@ 5
βεβαι@@ 5
σθαι; 5
πόλιν. 5
δικαιοσύνη 5
ὁδ@@ 5
ὑπάγε@@ 5
τούτῳ. 5
οἶμαι 5
Ἔτι 5
ττα@@ 5
ἀνοίξας 5
πορεύομαι 5
ἴδια 5
ὥρα@@ 5
ξεις 5
κεκαλυμ@@ 5
ὄψιν 5
μένου. 5
μαχαί@@ 5
ρμα@@ 5
δῆμον 5
ἔμα@@ 5
ματα, 5
θλίψις 5
φημ@@ 5
ἠδύνα@@ 5
ἐξέβα@@ 5
ᾔ@@ 5
ἀρχιερε@@ 5
παρακλ@@ 5
αὐτῶ@@ 5
Ἀρχιδάμου 5
ἀπεστά@@ 5
ἐπορε@@ 5
ἄρχοντες 5
ναῖον 5
ρην 5
τοιαύτη 5
ξένοις. 5
θερ@@ 5
ὸς, 5
νοί@@ 5
ἀποθνήσκε@@ 5
κλέπ@@ 5
γή@@ 5
καθι@@ 5
ἐκείνῳ 5
δοξα@@ 5
σθῇ 5
λαυ@@ 5
οὐρανῶν. 5
ῥ@@ 5
Ὄρος 5
Ἐλαι@@ 5
Γέγραπ@@ 5
δοκι@@ 5
ἐνοχ@@ 5
πατέρες 5
ἔφα@@ 5
θανεῖν 5
νοι. 5
ὕδωρ 5
ἐριθ@@ 5
ἀγαλλι@@ 5
εἰκό@@ 5
ἑν@@ 5
ΜΕΝ@@ 5
ΔΗΣ 5
δικαιοῦ@@ 5
ἴδι@@ 5
ἀναβὰς 5
λῦσαι 5
σφέας 5
20. 5
προσῆλθον 5
λυγ@@ 5
δικ@@ 5
ζῇ@@ 5
ἐκλογὴν 5
κολού@@ 5
φρόνιμοι 5
ἑαυτῶν. 5
ἄνθρωπον, 5
ἐξῆλθε@@ 5
δεή@@ 5
καρδ@@ 5
γωγ@@ 5
τῃ@@ 5
ζον, 5
μεθύ@@ 5
αἰῶνα, 5
σφι 5
λὴ 5
Πᾶ@@ 5
Σά@@ 5
ραν. 5
ξον 5
βάλλε@@ 5
σκευά@@ 5
σις@@ 5
δικαιοσύνη@@ 5
θάνατος 5
μέγαν 5
ΙΟΥΔ@@ 5
πεῖ@@ 5
δ 5
θον 5
γου 5
τῳ, 5
Ἦ@@ 5
Οὗ@@ 5
υματί@@ 5
δαι@@ 5
ἀλήθεια 5
κλύ@@ 5
ἄνδρες, 5
ὧδε. 5
θέλεις 5
ἑώρακεν 5
μοιχεύ@@ 5
ροντες 5
εὐδόκη@@ 5
Θωμᾶ@@ 5
ἐπαγγελ@@ 5
ἐμὴ 5
σοφίᾳ 5
τακ@@ 5
ἐφό@@ 5
φρα@@ 5
δαιμόνι@@ 5
ἔτη@@ 5
ἐκείνης 5
ϋ@@ 5
τήριον 5
πικρ@@ 5
διαβό@@ 5
βούλομαι 5
λως 5
Ἄρα@@ 5
σσα 5
σελή@@ 5
ζομένων 5
μάτων@@ 5
ἳ@@ 5
γιγνώ@@ 5
τοῦτό 5
εἴπωμεν 5
πλανώ@@ 5
ἡμέρᾳ. 5
Ἰουδαίους 5
καθ’ 5
ἀποστέλλω 5
Μήτι 5
ἰδίοις 5
τας@@ 5
μφι@@ 5
εὐκοπώ@@ 5
ἂν@@ 5
Ἄγγελος 5
πρεσβύτερο@@ 5
προσευχῶν 5
στρατιώτας 5
3. 5
ἀντ@@ 5
λόγον. 5
κόν, 5
τωσαν 5
ἐό@@ 5
τινες@@ 5
ιαν· 5
πυκ@@ 5
Ἀρι@@ 5
ἐζήτει 5
γὴν 5
ΤΟΣ 5
ἀπελθόντες 5
μένων. 5
κόσμ@@ 5
ἀληθείᾳ 5
ἐκείνῃ. 5
θέλοντες 5
ρπα@@ 5
σθέντος 5
φθαλ@@ 5
ρίσθη 5
Ἀπόλλ@@ 5
Οἰ@@ 5
τέραν 5
τέρας 5
δεσπο@@ 5
ἄγαν 5
ὑπάρχειν 5
ἀναστρο@@ 5
Παύλῳ 5
εὑρήσε@@ 5
ἀποκριθέντες 5
διό@@ 5
στέφα@@ 5
αὕτη@@ 5
οῦσα 5
λὸν 5
γινό@@ 5
ζ′. 5
τετάρ@@ 5
θέλου@@ 5
πυθόμενος 5
ἑστῶτα 5
τωσαν, 5
βοή@@ 5
λλὰ 5
ἐγένετο@@ 5
Λάζα@@ 5
σά 5
ἐπέθηκαν 5
ξεν, 5
μιά@@ 5
προφῆ@@ 5
θέλω@@ 5
τελώ@@ 5
Ἀκολούθει 5
σητε. 5
ἐποικοδο@@ 5
ΗΜ@@ 5
ργι@@ 5
τας, 5
πολι@@ 5
νούς, 5
γετε 5
λάβω@@ 5
σα· 5
ίστα@@ 5
ἆραι 5
Ο 5
βος 5
ἠγόρα@@ 5
ἀκάθαρ@@ 5
φοβούμενοι 5
εὐσέβε@@ 5
κυρίου@@ 5
μήν, 5
κἀκεῖθεν 5
ἀκαθαρ@@ 5
ἀξίως 5
νυκτὶ 5
ᾖ, 5
φίλοι 5
ρὰς 5
πού@@ 5
ρου. 5
ἐπαγγε@@ 5
λλά@@ 5
ἄρχ@@ 5
κρη@@ 5
νως 5
ὀφθαλμο@@ 5
νόμους 5
ἐκέλευε 5
θῶ 5
Δαρεῖος 5
ἀποθανεῖν 5
ζεις 5
φυλακὴν 5
παρη@@ 5
μανθάνειν 5
ἀναστάσει 5
ἐθεράπευσεν 5
ἐμαυτὸν 5
λειπο@@ 5
αὐτά@@ 5
ἀπέκτει@@ 5
ύ@@ 5
Αὐ@@ 5
σαββάτου 5
εἰσέλθῃ 5
πνι@@ 5
ἀγορα@@ 5
σιες, 5
ἔφυγον 5
ε′. 5
ουν 5
Ὦ 5
στοῦ 5
μηδεμίαν 5
ἀνέβησαν 5
βρώ@@ 5
νοὖν 5
ροῦ 5
ωμεν 5
Λυκοῦργος 5
στέρους 5
της. 5
παρεκάλουν 5
ρίοις 5
στυ@@ 5
ότη@@ 5
γυνή@@ 5
Φρυγ@@ 5
ἡμ@@ 5
προφήταις 5
οἷα 5
ἔτι@@ 5
ξυμβα@@ 5
πιστεύουσιν 5
πέντε· 4
ἐπάρας 4
ὗ@@ 4
νῦν@@ 4
ῥᾳδίως 4
ἀτενί@@ 4
Μωυσέως 4
μαθητα@@ 4
νεύετε 4
ἑαυτοῖς. 4
Παρα@@ 4
ψύ@@ 4
ὕμ@@ 4
παρασκευὴ 4
ἦν· 4
σεῖο 4
οὐρανοῦ@@ 4
Βρασίδας 4
Θρᾴκης 4
ξυμμάχους 4
Ἀμφί@@ 4
ποταμῷ 4
κτα@@ 4
ἑαυτούς, 4
ρη 4
δρω@@ 4
ήσαμεν 4
τινος, 4
καινὸν 4
ἐπιθυμ@@ 4
μις 4
ψηφί@@ 4
σασθαι, 4
χωροῦ@@ 4
θέλ@@ 4
πατέρων 4
ντρο@@ 4
καλὴν 4
στρατὸν 4
Κυρί@@ 4
μέγα@@ 4
Ε 4
κατοικοῦντας 4
στράτου 4
ἔθετο 4
δίοις 4
γινόμενα, 4
μῷ 4
ἔδοξε 4
τιθέ@@ 4
ἀδελφῷ 4
ἀποθανεῖ@@ 4
συντ@@ 4
ας, 4
χώρη@@ 4
́@@ 4
ροῦν 4
φεύ@@ 4
ἔνδον 4
ἐπὴν 4
ἄγειν 4
πλοῦ@@ 4
σῳ@@ 4
ἔκστα@@ 4
ἀθανα@@ 4
τιμὴ 4
ωσαν 4
πρῶτον, 4
ίμην 4
ύουσιν 4
σιά@@ 4
ἔπαινον 4
Βηθ@@ 4
μακρόθεν 4
τον@@ 4
προσευξάμενοι 4
περισσότερον 4
πολλῆς 4
διακονίας 4
ἐπίγε@@ 4
φρονοῦ@@ 4
σταυροῦ@@ 4
δοῦσα 4
ὕστε@@ 4
ξίφος 4
ύ 4
ἀνέστη 4
σω; 4
εὐχαριστῶ 4
ψατε 4
φεύγο@@ 4
ἐπέπε@@ 4
ψυχὴ 4
ρεῖσθαι 4
ἀρχιερέων 4
πρεσβυτέρων 4
ἀλλ@@ 4
γυ@@ 4
παρου@@ 4
χειρί@@ 4
ξυμμάχοις 4
Φω@@ 4
χοί@@ 4
χόμενοι 4
! 4
Ἀσίας 4
χώρας 4
ἡγη@@ 4
σάμενος, 4
μένη. 4
βούλο@@ 4
παραδοῦναι 4
βουλε@@ 4
κορά@@ 4
Θυ@@ 4
ἑξήκοντα 4
ράν@@ 4
Μάρθα@@ 4
θορυ@@ 4
Πρω@@ 4
γαγὼν 4
ἐπείνασεν. 4
ἰδεῖ@@ 4
δαιμονίου 4
ἕνδεκα 4
Ἁγη@@ 4
ρόν· 4
κακόν, 4
παθεῖν 4
ἐκέλευον 4
τοιό@@ 4
ἀνθρώπ@@ 4
όμενος. 4
γυναικός, 4
μὰ 4
γενή@@ 4
ῶντος 4
παραγενόμενοι 4
μενα, 4
προσέχετε 4
μησον 4
ἐξαίφνης 4
ἀληθε@@ 4
ἀγαθὰ 4
κείμενα 4
ἀνθρώπου, 4
σίᾳ 4
πορνείας 4
αὐτοῖς· 4
Οὔ@@ 4
ἑρμη@@ 4
σεαυτόν. 4
43. 4
νώδε@@ 4
δέσμιος 4
ἑαυτόν, 4
θεός· 4
ἔμεινεν 4
ἅ 4
εἰδέ@@ 4
ύει. 4
ΕΠ@@ 4
ἑπτα@@ 4
μητρ@@ 4
ρόμενοι 4
παύο@@ 4
διήρχετο 4
ρχοντο 4
μακα@@ 4
κοῖσι 4
Σο@@ 4
κράβαττόν 4
ὕπαγε 4
ῥῆμα 4
εἶπόν 4
γεννη@@ 4
εἰμί. 4
σκότος 4
κλαυθμὸς 4
βρυγμὸς 4
ὀδόντων. 4
προφάσει 4
συκ@@ 4
λυκ@@ 4
τικὰ 4
σαρκι@@ 4
λήμψο@@ 4
26. 4
ὑποχω@@ 4
ποίμ@@ 4
ἀναγκα@@ 4
δίκαιοι 4
την. 4
Ἠκού@@ 4
μοιχ@@ 4
ἐπιμε@@ 4
ήσο@@ 4
ἐμαυτοῦ 4
ιδ@@ 4
γαζο@@ 4
βάλλει 4
χί@@ 4
φόβ@@ 4
κοῦ 4
ἄστ@@ 4
νομικ@@ 4
λέγειαὐτῷ 4
Ἄνθρω@@ 4
νόμενος 4
ννη@@ 4
ἤγγικεν 4
θου 4
στοῖς 4
ὑποκάτω 4
λαι 4
Οὐδὲν 4
στρατηγὸς 4
πλησμο@@ 4
12. 4
ες, 4
γεν. 4
νόμενος, 4
οντος 4
περιεβάλε@@ 4
ποιῆ@@ 4
ὑπή@@ 4
θανάτου, 4
γράμμα@@ 4
ἐμῇ 4
ἀνεχώρησεν 4
ἀνέγνωτε 4
ἔχεις, 4
ό 4
Ὅπου 4
μεῖζον 4
λάβο@@ 4
ἄκου@@ 4
δου. 4
μαθηταί 4
σίων 4
πιπρα@@ 4
μάλω@@ 4
Οἶ@@ 4
ἡσύχα@@ 4
σάμενος@@ 4
μάχαιραν 4
ἀρχιερέως 4
τεσσαράκοντα 4
ἄχρι@@ 4
ᾧ@@ 4
διατα@@ 4
ἀπεκ@@ 4
θρια@@ 4
ληλύθα@@ 4
ἀναγκαῖον 4
ἐμῆς 4
γενέσθαι; 4
ἀδελφὴν 4
Ἀθή@@ 4
γνόντες 4
εὐτυχ@@ 4
γενομένη 4
Φίλι@@ 4
τάχος 4
ίους. 4
νικο@@ 4
στρατηγοῦ@@ 4
ψα 4
Δαμα@@ 4
εὐπο@@ 4
Σύ@@ 4
βλέπω@@ 4
θῆναι@@ 4
βεβλη@@ 4
ζεται. 4
ἐγερθεὶς 4
εἰπ@@ 4
Πύρ@@ 4
Κορινθίων 4
κράτης 4
κοσίων 4
διάβο@@ 4
κῆς 4
σεως@@ 4
κῶ@@ 4
ότερον 4
πόθεν@@ 4
φέρω@@ 4
θυσίαν 4
λογού@@ 4
ἀπολογ@@ 4
ὀργῇ 4
θημεν 4
φθ@@ 4
λῳ. 4
στῶν 4
πουσιν 4
ἀκούουσιν, 4
ἐγείρο@@ 4
πρώτην 4
κι 4
Πελοποννήσου 4
ἐλαφ@@ 4
παραπτώ@@ 4
σωτηρία 4
καθίσας 4
ἐπουρανίοις 4
ἐπόρ@@ 4
ἴ 4
κους 4
Αἴγυπτον 4
ος· 4
ἔσχε 4
Ἀπε@@ 4
δόκι@@ 4
θητε, 4
σονται@@ 4
πενθοῦ@@ 4
ταῦ@@ 4
παντὶ@@ 4
γνώσει, 4
τρίτην 4
Τυ@@ 4
εἶπενδὲ 4
πέμψω 4
τόν· 4
ἐγενή@@ 4
ραντες 4
λαβεῖν, 4
λογίζε@@ 4
ἀναγινώσκε@@ 4
γνώσε@@ 4
πλείοσιν 4
Ἀντιόχειαν, 4
ἀγαθά@@ 4
σπουδὴν 4
ἀρετῇ 4
κληρονο@@ 4
ών. 4
ἐγήγερ@@ 4
όντων, 4
σπονδαὶ 4
ὁρ@@ 4
μῃ 4
ναοῦ 4
ἀναι@@ 4
ταπειν@@ 4
Αἰγύπτιοι 4
Ἄφες 4
ΛΙ@@ 4
ΣΣ@@ 4
ζῆλος 4
ῖον. 4
ἀσφαλέ@@ 4
μὲν, 4
ΡΙΣ@@ 4
μένα. 4
καρπο@@ 4
ῖλα@@ 4
Ἰουδαίου 4
Μαρ@@ 4
τέρων 4
πεῖν. 4
ῶμεν; 4
ὁμολογοῦ@@ 4
17. 4
ξ, 4
τοις, 4
εἰρήνῃ 4
τις, 4
ἰδίου 4
σωθή@@ 4
οἶκός 4
ἐντολῆς 4
ὁμοιώ@@ 4
δεύτερον 4
κερα@@ 4
ὁρῶ@@ 4
δέων 4
κραυ@@ 4
ἀμφοτέρων 4
σίαν. 4
ἵπποις 4
φερο@@ 4
Ἀβρα@@ 4
κάτω@@ 4
γγύ@@ 4
τήσω 4
καταγγέλλε@@ 4
πυρὶ 4
λήν. 4
Καλῶς 4
πεποίη@@ 4
ἀγο@@ 4
ἀπελθεῖν 4
σθαί 4
τοιούτῳ 4
ἀγαθοὺς 4
δέδε@@ 4
εἰσῆλθον 4
ἀληθιν@@ 4
πρόσθεν 4
πλοῖ@@ 4
στηκό@@ 4
ἀποκτεῖναι 4
ἐφοβή@@ 4
αἰτοῦ@@ 4
λείπεται 4
ξε 4
σάμην 4
φρό@@ 4
περισσεύ@@ 4
λάβῃ 4
ἐλύ@@ 4
τέσσαρες 4
θη; 4
ἀκροβυστ@@ 4
κεκοσμη@@ 4
βάντες 4
σῶσαι 4
δεῖπνον 4
ζομαι 4
υἱοθε@@ 4
αἰῶνας· 4
ᾷν 4
ἔλεγεν@@ 4
Ὄ@@ 4
παρεγέ@@ 4
ἐδίδασκεν 4
ἐχθρὸς 4
τέ, 4
πλεονεξ@@ 4
πόδες 4
ιεν 4
ἐά@@ 4
πρόθυμον 4
νω, 4
αὐτὸ@@ 4
ἀκούω 4
ἐμὲ@@ 4
λω 4
ἐπ’ 4
Ἀκούσας 4
δραν 4
παραγενόμενος 4
ἀμφοτέ@@ 4
Πέτ@@ 4
χυν@@ 4
νόμενον 4
ἁμαρτιῶν· 4
δύναμιν@@ 4
ἐδίδα@@ 4
πέποι@@ 4
ῥήματος 4
λαοῦ, 4
δευτέραν 4
αὐτίκα 4
μάλα 4
ἀναστά@@ 4
ἦλθε@@ 4
μαρτυρή@@ 4
Βεεζεβοὺλ 4
ἄρχο@@ 4
δαιμόνια. 4
λέγονται 4
πεντακισχιλί@@ 4
ρις 4
ἑξα@@ 4
μέτρῳ 4
μας 4
χαλεπῶς 4
θέναι 4
ραις 4
ταῦτʼ 4
θάλασσαν· 4
σκοτίᾳ 4
σύνε@@ 4
ἡλικί@@ 4
τῇσιν 4
κοντα 4
εἶπαν@@ 4
καθαρισ@@ 4
ζεν. 4
ἐστε; 4
ἑαυτοὺς@@ 4
ῶσι 4
πατέρα. 4
συναγωγὰς 4
μένους@@ 4
ἐτί@@ 4
Θωμᾷ. 4
ἀνεχώρη@@ 4
Βροῦτον 4
μον, 4
κοντα. 4
Κύρι@@ 4
ἀληθείας. 4
Ἰωσήφ@@ 4
Ἐκ 4
βέβη@@ 4
ποδ@@ 4
ἕνεκα 4
Μο@@ 4
ἔκρι@@ 4
ἐσταυ@@ 4
ίνει, 4
ίνειν 4
σπέρματος 4
εὐαγγέ@@ 4
διαβόλου. 4
χου@@ 4
ῥι@@ 4
χώρας. 4
ίων· 4
λιθο@@ 4
τολμη@@ 4
σκευ@@ 4
ἀλλήλων, 4
ἐτελεύτα 4
τοῦθεοῦ. 4
Οὐχ 4
δέκα@@ 4
ψυχή 4
ἤρξα@@ 4
καταγγέ@@ 4
ὁρά@@ 4
ἀλλήλους. 4
καίτοι 4
Διονύσιον 4
νῳ, 4
μελλ@@ 4
ἀληθείᾳ. 4
καταργη@@ 4
ἁμαρτίας, 4
ταπει@@ 4
παρεκάλε@@ 4
τὸνλόγον 4
ἐλογίσθη 4
θα 4
ὖν 4
μνημεῖ@@ 4
ἀδι@@ 4
λος. 4
Σπαρτι@@ 4
δοκεῖτε 4
ἐμοῦ· 4
θεό@@ 4
ἡγήσα@@ 4
ληλύ@@ 4
ἀφίε@@ 4
τρίχας 4
ίην 4
ἀφικνεῖ@@ 4
ἐθεράπευ@@ 4
καλῶν 4
ἔργων, 4
μαθή@@ 4
λαί@@ 4
τύχ@@ 4
ἄλλην 4
ᾶται 4
λογίαν 4
λήσε@@ 4
ἔρχεται. 4
ἡμέρ@@ 4
γὰ@@ 4
σκή@@ 4
ρούμενοι 4
ἀποκτεῖναι, 4
ἐποίησεν. 4
θυσιαστηρίου 4
ουσιν; 4
ἐνδε@@ 4
Ἀλέξανδρος 4
διαφθο@@ 4
νεῖν. 4
Ἐμοὶ 4
ἄρα@@ 4
ζων@@ 4
ἐθεραπε@@ 4
σεαυτῷ 4
πέμψαντά 4
φανερωθῇ 4
βασιλείαν, 4
ποιήσουσιν 4
οἴδασιν 4
ταρά@@ 4
πλείω 4
οὐρανοῦ, 4
ζῆν. 4
ὀψίας 4
ἀλλ’ 4
μένος, 4
ῶνκαὶ 4
δικαίων 4
οί@@ 4
ἐχθρῶν 4
λων, 4
Κύ@@ 4
γένε@@ 4
ταλαιπω@@ 4
ρία@@ 4
κάλαμον 4
ΚΑ@@ 4
εὐε@@ 4
θετο 4
θεά, 4
τύχην 4
ἑτέρῳ 4
λ 4
δέκ. 4
κλίνης 4
Ὑπο@@ 4
ὑποτάσσε@@ 4
λία 4
πλήρης 4
αἰτίας 4
χειμῶνα 4
ἀμα@@ 4
ὅτε@@ 4
μισοῦ@@ 4
ἐμνη@@ 4
ἕτεροι 4
μεμε@@ 4
θέρος 4
πείθο@@ 4
πεῖραν 4
παραδιδοὺς 4
Κύριος, 4
ξομαι 4
ἐμαρτύρησεν 4
ας. 4
ῴ@@ 4
ἀνόη@@ 4
ἔχουσαν 4
χεν 4
ἐκτοῦ 4
ἐσθίουσιν, 4
γλώσσης 4
ἀπέχεσθαι 4
ἐμὸς 4
πέμψαντός 4
ζημιω@@ 4
ἀπόθε@@ 4
καταλλα@@ 4
πρόσ@@ 4
εἰρήνης 4
βίᾳ 4
ἀνεχώρησαν 4
νία 4
σταδί@@ 4
ζυ@@ 4
Ἀττικ@@ 4
ἀργύριον 4
ἐμπαί@@ 4
λαμπρ@@ 4
ἀνέπεμ@@ 4
πέλα@@ 4
ἐκτὸς 4
τριά@@ 4
κοντα, 4
μεῖναι 4
Ἰόπ@@ 4
τυφλὸς 4
Ἀθήναις 4
καλεῖται 4
Σίμωνος 4
ὡμο@@ 4
ἀποκριθεὶς@@ 4
Ἐρω@@ 4
ἀπη@@ 4
βοηθεῖν 4
Σω@@ 4
κάλλιστα 4
ξή@@ 4
ἐδιδάχθη@@ 4
Ὃ 4
ποιεῖς 4
ποίησον 4
πλέ@@ 4
χωρία 4
σωτῆρος 4
ἐνετείλατο 4
κατέβησαν 4
αἰ 4
θήσεταί 4
θεοὶ 4
παραγγε@@ 4
θι 4
τοισι 4
χοντες 4
ἐθαύμαζον 4
υς 4
ήν 4
οὐρανῷ, 4
ταγ@@ 4
σπουδ@@ 4
οις 4
ἀκούει, 4
μὴν@@ 4
θύρας 4
ίνων 4
προσκυν@@ 4
πλειόνων 4
καταργ@@ 4
σον@@ 4
ἐλεύ@@ 4
ἄλλοι@@ 4
πλείονα 4
κα. 4
λοιπῶν 4
πολίτας 4
ἀπεκεφάλι@@ 4
τοιοῦτον 4
ἀρχιερέα, 4
χομένων 4
ύει, 4
ἀπολε@@ 4
ἐντεῦθεν 4
ΤΑ 4
ῦσαι. 4
ιοι. 4
γενόμενος@@ 4
ύχε@@ 4
διακό@@ 4
διαθή@@ 4
αὐταῖς. 4
εσθαι 4
ἀσθενέ@@ 4
ἐγγύ@@ 4
Ἀλλὰ 4
ἀγροῦ 4
σχί@@ 4
ϊ 4
περισσ@@ 4
ρόμενον 4
σε; 4
ποτήρι@@ 4
an 4
Odes 4
ἄρχων 4
λοί 4
πιστεύσω@@ 4
κηρύσσο@@ 4
ντος; 4
σίας, 4
σησθε 4
ύνε@@ 4
διάκονος 4
λεγόμενον 4
Τό@@ 4
ποιήσατε 4
θελήματι 4
φύσις 4
Ἀνά@@ 4
ἀκουσάτω 4
ἐκκλησίαις. 4
ἔχοντες, 4
ταις, 4
νησά@@ 4
πονεῖ. 4
Ῥαββεί, 4
μηδε@@ 4
ὶς@@ 4
όρα@@ 4
χαρίσματα 4
Ἓ@@ 4
την@@ 4
ὁρᾷ@@ 4
οὐδενὶ 4
ἐπιούσῃ 4
χω 4
σέβε@@ 4
κοσ@@ 4
εὐσε@@ 4
κὼς 4
ει. 4
ὑπάγετε 4
γέγραπ@@ 4
μένω@@ 4
καταρτί@@ 4
σει. 4
πολ@@ 4
παθή@@ 4
σφε@@ 4
νέας 4
Νί@@ 4
μένην@@ 4
σεως, 4
γκα@@ 4
ἁμαρτίας. 4
Δημοσθένους 4
παθεῖ@@ 4
ὕδατι 4
ἁγίῳ. 4
πεποιη@@ 4
γείτο@@ 4
ρῶν. 4
προπε@@ 4
τόπῳ 4
κιον 4
ήσει@@ 4
πιστὸν 4
μόρ@@ 4
ἔστι 4
κακῶν 4
σκά@@ 4
ψω 4
ναὶ 4
τοιούτους 4
ἀκουσά@@ 4
ἴδω@@ 4
φυλάσσ@@ 4
ἀποστείλα@@ 4
στὴς 4
ὄντι 4
Γέ@@ 4
μοναρχ@@ 4
καρδίας@@ 4
σῶμα@@ 4
ὅλο@@ 4
κεφαλ@@ 4
υἱόν 4
βραχ@@ 4
βιβ@@ 4
Θωμᾶν 4
Ζη@@ 4
ἥκιστα 4
ἐκώλυ@@ 4
πολλὸν 4
σάς 4
τεθνηκό@@ 4
Ἡρακλεί@@ 4
φρον@@ 4
βέλτιον 4
καταλῦσαι 4
Ῥυ@@ 4
ταρα@@ 4
ἐναντίο@@ 4
προσέπε@@ 4
νικῶν 4
παρήγγειλεν 4
ἥδι@@ 4
δώσουσιν 4
πον@@ 4
μετρη@@ 4
θήσεται@@ 4
μύρον 4
ῖλαι 4
τιμῇ 4
σαρ@@ 4
τατον 4
χθῆναι 4
ἀε@@ 4
ἁρπά@@ 4
οῦ 4
ἄνθρωπον@@ 4
πεῖν 4
δη, 4
ἀνω@@ 4
Σαῦλος 4
καθί@@ 4
Μακεδονίαν, 4
ἐλθε@@ 4
ἀνθρώπων; 4
ἀπολλυ@@ 4
κότες 4
ἁμαρτάνε@@ 4
ἀπαρ@@ 4
Κά@@ 4
ἐστέ, 4
Βηθσαιδά@@ 4
Ὑπάγετε 4
ἀκηκόα@@ 4
σάντων 4
θὲν 4
ἄλλῳ 4
κέων 4
Ἀσίαν 4
ὄντος 4
συνεδ@@ 4
ζομένους 4
ἔλεγ@@ 4
ἐχθροὺς 4
εἴκοσι 4
ἀναστρέ@@ 4
ἄγα@@ 4
ἐπιγνοὺς 4
πορευθέντες 4
λάβετο 4
λύσε@@ 4
ἐπυνθάνετο 4
ὅμοιος 4
ἐπορεύοντο 4
ἄξιον 4
ἡγεμόνας 4
ἑωυ@@ 4
ἄριστα 4
ἣ 4
κειται 4
θερμα@@ 4
ὑπά@@ 4
κατέστη@@ 4
ἡγεμὼν 4
ὄχλῳ 4
νήπ@@ 4
οὐδεὶς@@ 4
ξατο 4
καρπὸς 4
δέσμ@@ 4
σί 4
τεῖν, 4
περιβεβλη@@ 4
πατέρες, 4
ἑαυτὴν 4
κός, 4
χειροποίη@@ 4
Χριστός, 4
ὑπὲρ@@ 4
Αἱ 4
πειράζοντες 4
ἐπιδεῖξαι 4
ἐπρο@@ 4
ἀδίκ@@ 4
κίνδυνος 4
ὄντων 4
πολλὴ 4
κω 4
πεσεῖν. 4
ῑ́@@ 4
ὀκτ@@ 4
οὗτος; 4
πυρετοῖσιν 4
Ἀλκιβιάδης 4
ωμεν, 4
δες. 4
σμοῖς 4
μόνον. 4
ἀδί@@ 4
Ἕ@@ 4
ός. 4
συνεργο@@ 4
ἐσχάτῃ 4
πειρασμὸν 4
βαίνο@@ 4
ἔδει 4
τοσαῦτα 4
ισιν 4
Αὐτὸς 4
ἐχόντων 4
πῆ@@ 4
γράψ@@ 4
31. 4
ωμα@@ 4
μᾶλλον@@ 4
μενοι· 4
κοσίους 4
Βρούτῳ 4
εἶχε@@ 4
Δό@@ 4
λιᾶς 4
καθήμενοι 4
θείσης 4
ἀνεῖ@@ 4
φησιν 4
ΚΑΤΑ 4
ἰδίῳ 4
ἐσθίων 4
Δαιμόνιον 4
εῖς 4
συνεδρίῳ 4
ήλ@@ 4
βραχὺ 4
Κύριον 4
Θηβα@@ 4
ὕπα@@ 4
ὀφθαλ@@ 4
θεμέλιον 4
δεσπό@@ 4
φροσύνης 4
ἱματι@@ 4
ἔρ@@ 4
τέκνον, 4
κάλυ@@ 4
ΟΣ@@ 4
πορεύετο 4
μον. 4
ὴρ 4
κρε@@ 4
Οὐχὶ 4
Ἰά@@ 4
παγί@@ 4
τόδε 4
ῖσι 4
ῶμεν@@ 4
ὅςἐστιν 4
διανο@@ 4
θέλειν 4
εν, 4
τῆσαι 4
γραφα@@ 4
ργυ@@ 4
γνώσεως 4
ἀπολύσω 4
δημα 4
αὐτοὶ@@ 4
βασά@@ 4
γενεᾶς 4
εἶδαν 4
λίθ@@ 4
ἔφη@@ 4
Σήμερον 4
οἴκ@@ 4
καθότι 4
ὁδὸς 4
αἰῶνος 4
γαμί@@ 4
λογισμῷ 4
πιστῷ 4
τετρά@@ 4
μέν, 4
ἡσυχ@@ 4
ἔφο@@ 4
παρ’ 4
τηρή@@ 4
εἰδώ@@ 4
ἀῤῬωστί@@ 4
θησιν 4
νοεῖ@@ 4
δαιμόνιον 4
ἑκατέ@@ 4
Γαλιλαίας@@ 4
θρα@@ 4
ἐπίγνωσιν 4
σθω@@ 4
ἐθέλο@@ 4
ποίη@@ 4
νῃ. 4
μεῖ. 4
όμενον, 4
λλων 4
ρωσιν 4
ψεύδο@@ 4
ἀναστάντες 4
ρχη@@ 4
σσευ@@ 4
Ἀπ@@ 4
βοῦ@@ 4
αὐδ@@ 4
κον@@ 4
πρόσε@@ 4
σπεῖ@@ 4
στηκὼς 4
μεσο@@ 4
ύετο. 4
κύκλῳ 4
στοι 4
ἀγά@@ 4
μισῶν 4
θρο@@ 4
ἀργ@@ 4
ἐπιγενο@@ 4
ἐκο@@ 4
λπι@@ 4
ἐσμέ@@ 4
Βρούτου 4
σσω, 4
νυν 4
Ἄοκ@@ 4
ἀκαταστα@@ 4
Κλεομένους 4
διώκει@@ 4
τῑ@@ 4
Φά@@ 4
ἀγνοεῖ@@ 4
Μαγδαληνὴ 4
δῷ 4
σθη. 4
ἀλα@@ 4
γονε@@ 4
ἐχορτά@@ 4
δικαιοσύνης, 4
τίαν 4
ρχεται 4
φει@@ 4
πυλῶ@@ 4
παιδίσκη 4
ἐποιήσατε 4
λῃστ@@ 4
βαδί@@ 4
φαρμακείη 4
πνευμάτων 4
ἀκαθάρ@@ 4
πανταχοῦ 4
μισού@@ 4
μετανοίας 4
ποίῳ 4
νῶ 4
ΣΩ. 4
κατέλι@@ 4
ὁρῶν 4
σας. 4
σίαν@@ 4
σμῶν 4
βάπτισμα@@ 4
τʼ@@ 4
ἐνδ@@ 4
σεις, 4
θώρα@@ 4
μεγί@@ 4
πάντεςοἱ 4
θέντων 4
λοί@@ 4
σοί, 4
ἡμᾶς; 4
ῖ, 4
δηνά@@ 4
τούτου. 4
μᾶλλ@@ 4
πολις 4
τῷθεῷ 4
χορτα@@ 4
ἐνόμι@@ 4
στοὺς 4
ἀνοῖξαι 4
τεθ@@ 4
βασιλέων 4
νεκρῶν. 4
φαρμακεί@@ 4
εἰρή@@ 4
εὐσχη@@ 4
ἔχῃ, 4
πίπ@@ 4
39. 4
ἔσεσθε 4
κάτω. 4
παρακο@@ 4
λαλῶ, 4
ὅσα@@ 4
δον@@ 4
τέα 4
ἔλαιον 4
λαμπά@@ 4
ζητεῖν 4
οἶδεν, 4
λίους 4
στρατηγοῖς 4
τηρῶν 4
ἐκέλευ@@ 4
δύσ@@ 4
δωρε@@ 4
παρέχε@@ 4
ἕλ@@ 4
ρον; 4
ἐπεθύ@@ 4
πρη@@ 4
ὀδυ@@ 4
ἀφή@@ 4
ἑπτά@@ 4
ἀποστα@@ 4
κ 4
ὑποτασσ@@ 4
ἐπέτρε@@ 4
Μιλή@@ 4
χερ@@ 4
οὔκ 4
ἐσμεν. 4
σας, 4
ῥῆ@@ 4
φύσιν 4
πεζ@@ 4
ύσε@@ 4
Γρά@@ 4
ὺς, 4
κάτω, 4
οὖσα 4
πειτα 4
πεντήκοντα. 4
προστε@@ 4
ζήσεται 4
συνειδήσε@@ 4
ώς 4
ζων, 4
33. 4
μυστή@@ 4
Σκι@@ 4
κεκλη@@ 4
νῄ@@ 4
ἐνθάδε 4
Κικέρωνος 4
μένῃ, 4
τερον, 4
ραγ@@ 4
ςἐστιν 4
ρθώ@@ 4
ἠρώτησαν 4
ἔοι@@ 4
ἡδον@@ 4
σπί@@ 4
συνευ@@ 4
ύμενοι 4
τήσῃ 4
Ὀψίας 4
ὀσφ@@ 4
νηται 4
στράτευμα 4
Ἑλληνικ@@ 4
ἐπολέ@@ 4
Ἄγιδος 4
ομεν 4
ἐπιτιμ@@ 4
ἐδίδου 4
χοῦ@@ 4
φονεύ@@ 4
ροῦσιν 4
διδα@@ 4
ἐλπὶς 4
σσά@@ 4
ἄνθρωπος, 4
ἐκπορευο@@ 4
ἐπαύριον 4
ννυ@@ 4
διανοίᾳ 4
πώ@@ 4
ἄλλοις 4
φαντα@@ 4
γέγονεν, 4
ἐκκό@@ 4
ρός@@ 4
ὅς 4
νετε 4
ἁμαρτίας@@ 4
νων@@ 4
δίας 4
ἀγαπῶ@@ 4
διδασ@@ 4
πελ@@ 4
δέχεται 4
ἐμὰ 4
ἐφύτευ@@ 4
ῆλθεν@@ 4
τεταρτα@@ 4
βλάπτει 4
ἐλ@@ 4
χαί@@ 4
συλλα@@ 4
ἀναστροφῆς 4
χί, 4
ητε 4
πλασ@@ 4
ὄγ@@ 4
Ἐξ 4
ἤλθομεν 4
δώδεκα. 4
ῖται 4
ντεςκαὶ 4
ροῦσθαι 4
Ἐλι@@ 4
σταὶ 4
ήν. 4
ρῶ 4
λαβεῖν. 4
παθη@@ 4
προσηύ@@ 4
φῇ 4
θροι@@ 4
ἀποθά@@ 4
διδασκαλ@@ 4
Φιλίππου 4
εἰςτὸν 4
λύσις. 4
θέλῃ 4
προει@@ 4
ἕκαστοι 4
γραμματεῖ@@ 4
θεῷ· 4
λύετε 4
κλή@@ 4
ἐγεγό@@ 4
θάλασσα 4
Λυκούργου 4
ἀγαθόν· 4
Οὐαὶ 4
καλοὺς 4
λάβε@@ 4
λλή@@ 4
φθε@@ 4
ζουσι 4
ὄλεθρον 4
Θησεύς 4
μικρό@@ 4
ἐπιδεικ@@ 4
λλου 4
Πέ@@ 4
ΑΝΑΞ@@ 4
παίδων 4
ρεο@@ 4
λὸς 4
ἔσεσθαι 4
τερόν 4
κάμηλον 4
εἶπεν· 4
σπι@@ 4
ἶ@@ 4
μεντὴν 4
οἷ@@ 4
ἔθος 4
ζομένοις 4
ἀγαπητοὶ 4
σοφί@@ 4
γινώσκομεν 4
ἀπέθανον· 4
σος, 4
ρεῖται 4
ἔγραψε 4
μέγι@@ 4
Εὐβο@@ 4
ἔχῃ 4
μάχαι@@ 4
ῖοι@@ 4
εὐσεβε@@ 4
τες, 4
λλί@@ 4
ᾤ@@ 4
τικῶν 4
ἐλθεῖν. 4
ἀπολύτρω@@ 4
στήκε@@ 4
ἐταρά@@ 4
ἐλάλη@@ 4
μένας, 4
χάρισ@@ 4
πόνον 4
πνο@@ 4
κράτι@@ 4
στε 4
γάλα 4
καταμήνια 4
Καρχηδονίων 4
πορευθεὶς 4
ἐκέρ@@ 4
ποιεῖτε. 4
πίστ@@ 4
συναγωγῇ 4
τίνες 4
φ 4
Τῇ 4
ἑορτὴ 4
Πι@@ 4
Πυ@@ 4
λέγεσθαι 4
ξυμμαχίαν 4
πτεται 4
πῦ@@ 4
ἀλέ@@ 4
φωνῆσαι 4
δεκ@@ 4
σοι· 4
ἀπειθοῦ@@ 4
τάλα@@ 4
προη@@ 4
κεῖν 4
ἐνέργειαν 4
εὐαγγελιζόμενοι 4
τίας 4
χοι, 4
ἐπιθυμίαις 4
μον· 4
οὐρανο@@ 4
λλό@@ 4
ἕτερον, 4
ρῇ 4
φῆ@@ 4
χθέ@@ 4
γράφειν 4
γράψα@@ 4
εὗ@@ 4
Ἀρχίδαμος 4
Ἁνα@@ 4
λαβεν 4
παραδώσουσιν 4
Καῖσαρ 4
ἐξαγο@@ 4
καρδί@@ 4
κακίας 4
συνανα@@ 4
φρονεῖν 4
Ζεὺς 4
υἱῷ 4
λθε 4
ἐγνώ@@ 4
στραφεὶς 4
ὑπομο@@ 4
θαυμάζειν 4
ἀζύ@@ 4
ΚΟ@@ 4
ίων@@ 4
Μακεδόνων 4
τύχα@@ 4
μερ@@ 4
ἐλάβετε 4
πιστεύσα@@ 4
λων· 4
ἔρχεται, 4
δαίμο@@ 4
Ἰάκωβος 4
παραπτώματα 4
μηδέ@@ 4
κατέχε@@ 4
γλώσσ@@ 4
νοῦς 4
Παρακαλῶ 4
λεγόντων 4
ίῳ 4
πολεμί@@ 4
ἀσελγε@@ 4
ἔρι@@ 4
πέμπε@@ 4
πώποτε 4
χειμῶ@@ 4
μασιν, 4
κακοὺς 4
λθα@@ 4
πραγμάτων 4
στάχυ@@ 4
σατε, 4
τίου 4
ἐφε@@ 4
φαγ@@ 4
Ἀβραά@@ 4
σὸν 4
φανερῶς 4
θέλη@@ 4
ικὸν 4
τυραν@@ 4
δόμοις 4
παραδιδό@@ 4
ἐστε. 4
ἐνό@@ 4
προσεύχεσθε 4
34. 4
νεφρι@@ 4
ἀπαρχὴ 4
ἐμέ. 4
παντε@@ 4
ἐπερω@@ 4
ἀμφοτέρους 4
λαμβά@@ 4
σάμεθα 4
ἀξιοῦ@@ 4
λογίζεται 4
ὀνειδί@@ 4
πυλῶνες 4
φιλοτι@@ 4
ἀληθείας, 4
θυγάτηρ 4
ἔφε@@ 4
γῃ 4
ζέ 4
βεβή@@ 4
ἀνομία@@ 4
μαχε@@ 4
λελυ@@ 4
πονηρ@@ 4
ἀφροσύ@@ 4
προφήτας 4
εὐαγγέλιον, 4
στῳ 4
φησι 4
μαινο@@ 4
τοιά@@ 4
ποτʼ 4
βαπτισθῆναι 4
κτὸς 4
Μί@@ 4
κρατε@@ 4
θῇ. 4
Ἡμεῖς 4
βλέπειν 4
προφητῶν 4
δικαιοσύνης 4
ἐρωτῶ 4
ὁδόν. 4
σοδον 4
ὑπάρχ@@ 4
ἵπ@@ 4
νεῖς 4
γεγόνα@@ 4
κύριον. 4
με; 4
Ἔχοντες 4
ἀτενίσας 4
σοφία 4
ἀσε@@ 4
πυρετοὶ 4
ωσι 4
χήρα 4
ζειν. 4
ἐποίησεν, 4
θανα@@ 4
ὀδό@@ 4
ἀποθανεῖν, 4
σπείρεται 4
Κύρου 4
ἑτέρων 4
κρίνει 4
λιπό@@ 4
Περι@@ 4
ἀγαθόν, 4
ἀδύνατον 4
σύνοι@@ 4
ἀνακρί@@ 4
ἐπιγινό@@ 4
Γαλιλαίαν 4
ἠνέ@@ 4
ὑπῆ@@ 4
θείς, 4
πέμπει 4
Ἠσαίας 4
τολμ@@ 4
τρὶ 4
μέλλων 4
λθόντος 4
ΚΗΣ 4
ἑτέρα 4
Τοῦ@@ 4
λους. 4
δικά@@ 4
Μή 4
πτων 4
σφίσι 4
πνευ@@ 4
ταύτης. 4
όμενο@@ 4
βεβη@@ 4
καταφρο@@ 4
δέο@@ 4
ποιεῖ, 4
δια. 4
νην. 4
μέγιστα 4
λοι, 4
νίκη 4
μουν 4
νοῦντες 4
ύεται. 4
ῥᾷον 4
υμα@@ 4
ἔχετε· 4
ἰσχύος 4
λθεν 4
σαββάτῳ 4
ψεται 4
ἀοι@@ 4
ἄγ@@ 4
καταλυ@@ 4
μάχη@@ 4
σπει@@ 4
εἶπα@@ 4
ωσιν, 4
νεῖν 4
γράφε@@ 4
Ἀπὸ 4
ώσας 4
ποιέει, 4
τεκαὶ 4
ἀγαπᾷ 4
ἐρχο@@ 4
ἐπηγγεί@@ 4
πράσσ@@ 4
λθεῖν. 4
ᾱ̀ς 4
Ἀθηναίους 4
ἀνθρώπου· 4
πάθει 4
εὑρίσκε@@ 4
μίᾳ, 4
ροῦ. 4
ἐλυπή@@ 4
πόλεως. 4
ῤῬο@@ 4
ὑγιὴς 4
λιμὸς 4
ψυχῆς 4
ῆλθεν 4
χαι@@ 4
ὄψ@@ 4
κάθισεν 4
Ἀγησιλά@@ 4
ἥξει 4
ὀφείλε@@ 4
μαρτυρῶ@@ 4
λογία 4
τὠυτὸ 4
σθήσονται 3
σκορπί@@ 3
κλαυ@@ 3
Πόθεν 3
ήσεται. 3
καῖς, 3
ἀτάκ@@ 3
παραμυ@@ 3
μεῖτε 3
λλοντες 3
μνήσομ’ 3
θλιβο@@ 3
ἀποκαλύψει 3
ἐστράτευ@@ 3
Ἑλλή@@ 3
διεφθά@@ 3
κοὶ 3
πύου 3
πάντως 3
σητε, 3
εἶχον, 3
Κῦρον 3
ἐπιστα@@ 3
ἐτόλ@@ 3
παραγγέ@@ 3
ξειν 3
εἴπωσιν 3
ΤΟ 3
ἁγίους 3
τρέφε@@ 3
στραγγου@@ 3
ὺγ@@ 3
τέσσαρσιν 3
ἀγρυπ@@ 3
στραμ@@ 3
Μηκέτι 3
ἀνοι@@ 3
Καφαρναοὺμ 3
ἡσυχά@@ 3
εἰπό@@ 3
εὐχα@@ 3
ρούμενος 3
ἐτελεύτησεν. 3
ἔθηκαν 3
ἀσω@@ 3
οὐδ’ 3
μίαις 3
οι, 3
πρόσω@@ 3
μματος 3
Τίνος 3
εἰκὼν 3
ἐπιγραφή@@ 3
εἰρημένον 3
νόμοι 3
προθέ@@ 3
νεκρὸν 3
ὀρ@@ 3
ἐδύνα@@ 3
δεῖ. 3
ίει, 3
τωσαν@@ 3
καλῷ 3
ερ@@ 3
λπί@@ 3
ΟΝΙ@@ 3
ἐχαρί@@ 3
προσῆλθαν 3
ῳτῷ 3
θέλομεν 3
ταις. 3
δραμεν 3
πεπιστεύ@@ 3
παρήγγει@@ 3
φθέγγε@@ 3
όμενοι@@ 3
Λεωτυχί@@ 3
πρῶτος, 3
λυπεῖ@@ 3
τὸπνεῦμα 3
πλέο@@ 3
σπασμὸν 3
μείζονος 3
σης@@ 3
γοῦ@@ 3
ὅλῃ 3
θορυβεῖ@@ 3
ἅτινά 3
Προπομποί 3
γᾶς 3
θεσιν 3
οὐρανοὶ 3
χεῖα 3
ἀποθνήσκουσιν. 3
μης 3
νέο@@ 3
ἀναμι@@ 3
ὑπακοήν, 3
κηρυκε@@ 3
ῳκαὶ 3
πρέπει 3
βασιλέως 3
θείς. 3
ποιοῦσιν 3
χον. 3
ἔτι. 3
ντυ@@ 3
πολλά, 3
χρηματι@@ 3
ἴδῃ 3
Διονυσίῳ 3
σημεῖ@@ 3
μηχα@@ 3
ἔτεα 3
ὠνείδι@@ 3
ἀπιστίαν 3
καιροῦ 3
ὑπέταξεν 3
ποίησαν 3
ντʼ 3
πεδ@@ 3
κατοικοῦ@@ 3
κληθῆναι 3
διαλέκτῳ 3
ἀποδε@@ 3
ἐκλεκτὸν 3
ἔντι@@ 3
Ναί, 3
σὺ@@ 3
νόμον, 3
ραι 3
Ἐντούτῳ 3
ληλυθό@@ 3
νοιαν 3
Ψ@@ 3
Οἴδατε 3
ρησεν 3
τεσσερά@@ 3
κοντα@@ 3
Διόνυ@@ 3
ἀνέῳ@@ 3
ἐνι@@ 3
γίνεσθαι. 3
θεόν· 3
ἔθνε@@ 3
Ἰεροσόλυμα, 3
δεκάτην 3
Βασι@@ 3
Εἰρή@@ 3
κρό@@ 3
οὕτωςκαὶ 3
μάρτυρες 3
δικαίως 3
μέμ@@ 3
πτως 3
ἐγενήθημεν, 3
Ἀλλ@@ 3
υἱέ@@ 3
μνήσομʼ 3
καπ@@ 3
ἐκλε@@ 3
ροῦντας 3
ἀρετὴν 3
ότητος. 3
φανερὸν 3
η′. 3
ἁλίσκο@@ 3
ντερί@@ 3
Τιμόθεος 3
Φι@@ 3
συνεργ@@ 3
βλέπομεν 3
δυνατὸς@@ 3
σατο. 3
καθεξῆς 3
ΔΙ@@ 3
ἐκέ@@ 3
νωσεν 3
ὁμοιώματι 3
πνεῦ@@ 3
ὠφελη@@ 3
καθαι@@ 3
42. 3
οἶκόν 3
Δεῖ 3
λετε 3
σάκ@@ 3
ῆλθ@@ 3
Χριστῷ@@ 3
δουλώ@@ 3
ἄμ@@ 3
σῦ@@ 3
ἔνθα 3
θοι 3
ἔρημον 3
ῖαι 3
κες 3
Πάντες 3
αἰσχρο@@ 3
προθύ@@ 3
ὑπερβολὴν 3
τρεψόν 3
ταχὺ 3
σασα 3
γαμή@@ 3
φυλακὰς 3
ήσομαι 3
ξυμμαχία 3
ἑκατέρων 3
πται 3
μένη· 3
Ὥστε 3
παρακαλεῖτε 3
καθίσα@@ 3
κατέναντι 3
ἐθεώ@@ 3
ζεις. 3
Φῆ@@ 3
ἀκοῦ@@ 3
φησίν, 3
ἀκούσῃ 3
σσον 3
ἑστὼς 3
ἴδη@@ 3
στρατοπέδων 3
κἀγ@@ 3
κα, 3
μεμαρτύρη@@ 3
κυνά@@ 3
Καλλ@@ 3
νεῶν 3
Διο@@ 3
στρατηγοὺς 3
ντον 3
Φιλο@@ 3
σιώ@@ 3
σεσθε 3
μνήμην 3
ἀνελεῖν 3
ὕδατα 3
λαο@@ 3
ᾖ. 3
κακό@@ 3
ἐσθῆτα 3
τικὴν 3
Σολομὼν 3
ὑπόδειγμα 3
ἐποίησα 3
πηλί@@ 3
ἰδών 3
Σιδῶ@@ 3
ἐβάστα@@ 3
δυνατὰ 3
ὑπάγει@@ 3
φεῦ@@ 3
θῶν 3
φωνὴν@@ 3
πολλάκι@@ 3
ῖον@@ 3
ροῦ, 3
ἔδειξεν 3
πάσας 3
νου· 3
περιπα@@ 3
τεῖν. 3
αἰῶνας 3
τία 3
ἧσσον 3
θανατώ@@ 3
αἰχ@@ 3
ὁμοίως. 3
εἶναι; 3
συμβούλιον 3
σάνδρου 3
ἔδωκεν. 3
ἔπαι@@ 3
πέμπουσιν 3
Δε@@ 3
προσετέ@@ 3
γεὶς 3
βαπτισθῆ@@ 3
ὅτου 3
μετ’ 3
ζῶντος, 3
ἐπουρα@@ 3
ἀγγέλων, 3
: 3
χεῖρον 3
κοινὰ 3
δόκη@@ 3
ὀφειλέ@@ 3
τικοῖς 3
νησαν 3
τόπου 3
θάλασσαν, 3
ρβα@@ 3
τριήρη 3
Ἑλλη@@ 3
Κύπρον 3
ξυμμάχων 3
λαλούντων 3
νους@@ 3
γραφή@@ 3
φιλ@@ 3
ἑβδομήκοντα 3
ξ. 3
Ἰεροσόλυ@@ 3
ἀποστόλους, 3
ἦσαν. 3
ποιεῖσθαι. 3
θροί@@ 3
Ἄνδ@@ 3
ρες, 3
παρή@@ 3
παραπλη@@ 3
λύχνον 3
πυρέσσ@@ 3
Πάντα 3
παρέλαβε 3
εἴπω 3
τετρακισχιλί@@ 3
ἀπέθανον 3
εἰπὲ 3
ἔστω 3
ἱματί@@ 3
ὅμο@@ 3
δος· 3
ἀποστόλοις 3
πίστεως; 3
ροὺς 3
πᾶσιν, 3
λέων 3
τόπος 3
δὲὁ 3
πορεύου 3
εἰρήνην. 3
προὶ 3
ζονται· 3
νσου 3
αὔριον, 3
Ἀθηναῖος 3
πυρ@@ 3
ἔθνεσιν, 3
Πῶς@@ 3
γωγὴν 3
ἐγείρα@@ 3
ἥν 3
αὐτῇ, 3
παντοκράτωρ, 3
ίον. 3
σχεν 3
στρατηίην 3
Σάμον 3
κον· 3
κώμην 3
ἄξι@@ 3
μείνατε 3
ὑμῶ@@ 3
καὶτὸν 3
ἀδημο@@ 3
παρεμβο@@ 3
Καισαρίαν 3
ἔμ@@ 3
ἐξει@@ 3
γένοι@@ 3
πλεύσαντες 3
τρισ@@ 3
λίας. 3
τέθνη@@ 3
ώμεθα 3
ῦν 3
ἀγαλλιά@@ 3
ἀμπελῶνος 3
υἱό@@ 3
ἐντραπ@@ 3
ήσονται. 3
τᾷ 3
ντου 3
πης, 3
Μιλησίων 3
οἰκέ@@ 3
θανάτου. 3
γηρά@@ 3
σκω 3
Παυσανίου 3
γονυπε@@ 3
ἀμφοτέροις 3
ἱεροῦ, 3
προσκαλε@@ 3
γεσθαι 3
ἐπεφώ@@ 3
ντά@@ 3
τέλους 3
ἐντοῖς 3
μῳ. 3
σύνδου@@ 3
ἐμοί, 3
ἀγαπᾷν 3
γλῶσσαν 3
κακοῦ 3
εὐνοίας 3
ἐξέβαλον 3
ἐπιχορηγ@@ 3
ἀπέσταλ@@ 3
ίαν; 3
δίαι@@ 3
σφρα@@ 3
ΚΡΑΤΗΣ 3
δηλώ@@ 3
ἐντυγχά@@ 3
προσεκύνησαν 3
ἐσχί@@ 3
καταπέτα@@ 3
γοντο 3
δοκιμάζε@@ 3
ώσει 3
γινώσκω 3
αἰσθόμενος 3
σσό@@ 3
περά@@ 3
ἐκκλησίαν. 3
αὑτῷ 3
Φί@@ 3
Καίσαρος. 3
Ἀπό@@ 3
καλοῦντος 3
ζήσο@@ 3
θεοῖς 3
Δαμασκ@@ 3
φλεγ@@ 3
ἀδελφὴ 3
ἐπί 3
ἐλέγ@@ 3
ληλυ@@ 3
ῇς 3
εὐαγγελίῳ 3
θεὸν@@ 3
μέλη. 3
ἐλεη@@ 3
σῳ, 3
κατ@@ 3
λίθους 3
σενὁ 3
σμένους 3
38. 3
πουλ@@ 3
ἐναυ@@ 3
γίγνε@@ 3
Πέρ@@ 3
Μήδων 3
βαλλ@@ 3
ἀέ@@ 3
ἐντολ@@ 3
κενὸν 3
αὐτομάτου 3
εὶς 3
κάλε@@ 3
σουσι 3
Μὴ@@ 3
ἀλλή@@ 3
λων. 3
αἰτήσει 3
υἱὸς@@ 3
ὄφιν 3
μός 3
χιλιά@@ 3
ρχῳ 3
ἀπήγγειλεν 3
λαλεῖν. 3
διαφυλά@@ 3
φιλοῦ@@ 3
μισθοφόροι 3
σχον 3
ὑποψ@@ 3
φυλακῆς 3
ζων· 3
βουλεύε@@ 3
ἐπέβα@@ 3
δανί@@ 3
ἀπεί@@ 3
βασιλεύς, 3
προδο@@ 3
σταυρώ@@ 3
θεῖ 3
δάκρυ@@ 3
εἶπενπρὸς 3
ζηλω@@ 3
οἰκοδομὴν 3
σανοἱ 3
ἡτοιμα@@ 3
λικὸν 3
ξαν. 3
σιον. 3
τμη@@ 3
σθω· 3
σθω. 3
ἀνήχθη@@ 3
λίαν. 3
ἤδη@@ 3
ἀναστή@@ 3
τῶν· 3
κλῆς 3
δρ@@ 3
τάρα@@ 3
Ἐγ@@ 3
δῳ 3
σύ, 3
κηρύσσειν 3
ἐποίησεν@@ 3
ἐθαύμα@@ 3
Ῥώμῃ 3
δύσκρι@@ 3
νῳ. 3
ἀρίστους 3
τάς, 3
Τρο@@ 3
ἀρνή@@ 3
σχύ@@ 3
ἀδελφῆς 3
βολὴν 3
κον. 3
βλέπων 3
χειμὼν 3
γίγνεσθαι. 3
ἔκραξεν 3
βλέπωσιν 3
ίε@@ 3
εἰσίν 3
ὑπηρέτας 3
καλεσάμενος 3
λῶν, 3
ἑπτάκις 3
τετήρη@@ 3
ἀπολω@@ 3
ρω 3
εἰλικρι@@ 3
νοιαν, 3
ἕξει 3
ρίαν, 3
δαιμονίων 3
Νασικ@@ 3
Λαο@@ 3
έων 3
ΟΝ@@ 3
γαγον 3
διέτριβε@@ 3
ἐβάπτι@@ 3
πέμπου@@ 3
βῆμα 3
στενοχωρ@@ 3
σται. 3
54. 3
βῆ@@ 3
ἐγένε@@ 3
σάλπιγ@@ 3
τέσσαρας 3
Ἀκαδημείᾳ 3
γυμνα@@ 3
ἀργύρια 3
στάντες 3
χαίρειν 3
διδάσκοντες 3
διδασκαλίας 3
κριθῆναι 3
Νο@@ 3
ἑξή@@ 3
ἐνδύσασθαι@@ 3
στρατιᾷ 3
ἔξω@@ 3
τὸνπατέρα 3
μή, 3
στόμα@@ 3
ἐμνή@@ 3
κινδύνων 3
ύσαις 3
ἀγαθῶν 3
τυγχά@@ 3
σεύς 3
ποιοῦντας 3
χους 3
ὄψονται 3
τησις 3
τοιαύτῃ 3
γνώμῃ 3
Κερκυρα@@ 3
ύς· 3
ῡ̔μᾶς 3
ορ@@ 3
λύει. 3
ἠκούσαμεν 3
Ἰερουσαλήμ. 3
μνημό@@ 3
ἐμπέ@@ 3
σαμένων 3
ντό 3
πρωὶ 3
συκῆν 3
ἐξηρα@@ 3
μήτι 3
ἐντε@@ 3
μέγιστον 3
ἀπαρά@@ 3
ἀπαλλα@@ 3
ναυμαχία 3
σαντο. 3
θαυμα@@ 3
ύετε 3
ἀλλήλοι@@ 3
ἀσθενή@@ 3
ύειν@@ 3
ιναὐτὸν 3
βραδέως 3
γῆν. 3
ἀκοὰς 3
ός, 3
ρχόμενοι 3
ὅμοιοι 3
ἐλεύσομαι 3
κῆρυξ 3
μήν 3
ἀποθα@@ 3
ἐραυ@@ 3
κατέα@@ 3
ἤρε@@ 3
θέμενος 3
διακονίαν, 3
Ἀληθῶς 3
εἶ. 3
τὰν 3
τᾶ@@ 3
ἐπιφανε@@ 3
ὧν@@ 3
Ἑρμο@@ 3
γένη@@ 3
Σαμαρ@@ 3
ἀλήθειαν, 3
ἀπειθ@@ 3
ὀλίγοις 3
νότη@@ 3
τος; 3
μερό@@ 3
πεσ@@ 3
ἀπολύσῃ 3
σεὺς 3
ἤμελλεν 3
τεσσα@@ 3
ἐχούσῃ 3
ληφ@@ 3
πατρὸςἡμῶν 3
θνητὸν 3
Ἀδὰμ 3
ζητεῖτέ 3
παρεσκευάζοντο 3
Ἀν@@ 3
ἔνδυμα 3
διότι@@ 3
τίθημι 3
ράν. 3
στε, 3
ῡ̔μῖν 3
Ζεβεδαίου 3
ἐκπέ@@ 3
κας@@ 3
ἐκεῖνός 3
νήσῳ 3
ἐξηράνθη 3
κῆ@@ 3
θείη 3
ἐπιγνώσει 3
δικαιο@@ 3
ἐφανερώθη 3
σόμεθα. 3
ΗΤ@@ 3
ΚΛ@@ 3
ἱερεῖς 3
ἀσπασμὸς 3
οὗτος. 3
παρακαλέσαι 3
ίνοντα 3
ἱκέ@@ 3
έναι@@ 3
ἀφο@@ 3
πονηροὺς 3
Ῥωμαίοις 3
ἀπολεί@@ 3
διάδο@@ 3
χον, 3
πράγ@@ 3
ύσατο, 3
λαλῆσαι. 3
εἶπε@@ 3
ἐπικλη@@ 3
μεθερμηνευόμενον 3
Αἰγινῆται 3
ἀγω@@ 3
θων 3
ρεῖτο 3
44. 3
σκε 3
ἀρχαῖς 3
ἐξουσίαις 3
ἑτοί@@ 3
στρατοπέδῳ 3
περιπατεῖ@@ 3
ἕκ@@ 3
ἔτος 3
Θουκυδίδης 3
Ἀνταλκί@@ 3
θεῖς 3
μόνοι 3
ἐκκλησίαν, 3
ἄμεμ@@ 3
ὄψε@@ 3
ννας 3
υἱῶν 3
γαμη@@ 3
Ῥήγιον 3
ἐτελεύτα. 3
Ἴω@@ 3
τελεῖ@@ 3
θω@@ 3
ἐπωνυ@@ 3
ην. 3
ἐργαζόμενοι 3
δρε@@ 3
κατακλυ@@ 3
ἦρεν 3
τεχ@@ 3
Βαρ@@ 3
μαῖον 3
Δημοσθένης 3
κείμενον. 3
ᾱς. 3
κωλυ@@ 3
μάχῃ 3
σεσθαι 3
ψατο 3
ψό@@ 3
ὠφελεῖ@@ 3
δῆσαι 3
σκηνώ@@ 3
τιμω@@ 3
Χριστός· 3
κῳ 3
Κροῖσος 3
Καππα@@ 3
ίην, 3
ρήσειν 3
Κῦ@@ 3
ρόν. 3
ἔχοντι 3
ἔχοντος 3
ἀρθήσεται 3
ὁδη@@ 3
πεσοῦ@@ 3
Μαντι@@ 3
νείᾳ 3
χουσι 3
βαρβά@@ 3
πέμψ@@ 3
σέως 3
σενκαὶ 3
φων 3
σκεν 3
γυμνὸν 3
σίτου 3
ἀνομ@@ 3
δειν 3
ἁπλῶς 3
λέγει; 3
τάχε@@ 3
Λακωνικ@@ 3
θαλά@@ 3
στρατείας 3
δικαιό@@ 3
τατα 3
ζύμης 3
τοιούτων 3
ἐγνώκα@@ 3
μων. 3
πλήθει 3
πρού@@ 3
πολεμικ@@ 3
οντας 3
θῆναι; 3
πρόσθε@@ 3
λιος, 3
ινε 3
ταύταις 3
νὴν 3
ἀνδράσι 3
ρχόμενος 3
ἰδεῖν, 3
ὄνομα. 3
Πί@@ 3
γύναι, 3
Ἰεροσολύμοι@@ 3
πατρί@@ 3
ἐλθό@@ 3
μάχα@@ 3
φόβο@@ 3
εὐχαριστήσας 3
ἔκλα@@ 3
πλήρε@@ 3
ἤρα@@ 3
ἐλάχι@@ 3
αὐξά@@ 3
Σίμω@@ 3
κειτο 3
πίστιν. 3
ὀλοί@@ 3
Ἅι@@ 3
καταβ@@ 3
σα; 3
ρχε 3
Πᾶς 3
ἐσταύρω@@ 3
ἐντεῦθεν, 3
ἔπεμψα 3
ῆτε 3
οὕτως. 3
γένοιτο 3
μνημο@@ 3
ναίων 3
Προσε@@ 3
ἀποκτε@@ 3
στον. 3
ὕπνου 3
ἐχθρο@@ 3
μενῶ 3
ἀπολέσθαι 3
ὑπάρχε@@ 3
μείζο@@ 3
βλάσφη@@ 3
κύψας 3
ἔγρα@@ 3
Ἀδ@@ 3
εἰμι· 3
ᾶσαι 3
γλώσσῃ 3
κοδο@@ 3
μεῖ· 3
μελ@@ 3
i@@ 3
πειρώ@@ 3
μετάνοιαν, 3
προφητῶν, 3
τισὶν 3
Ἀντιόχου 3
θέντες@@ 3
οἰκονομία@@ 3
δοθεῖ@@ 3
πληρῶσαι 3
θά, 3
σθῇ, 3
σημαίνε@@ 3
πάλι@@ 3
ὸ 3
ἐφ@@ 3
ὁρᾶτε 3
ἰέναι 3
ἑρπε@@ 3
ἀνθρωπί@@ 3
ὑπαρχόντων 3
εἰδωλόθυ@@ 3
ὑπομείνας 3
πλῆθο@@ 3
καυχώ@@ 3
ἐγένετο. 3
ὀπίσωμου 3
μεταξὺ 3
ἠγαλλιά@@ 3
Θηβαίων 3
λογοῦ@@ 3
εἰκῇ 3
θευ@@ 3
τοιαύ@@ 3
θειαν 3
ἐκκλησίαι 3
ἔργου 3
ἀγαθοῦ 3
ἀφθαρσίαν 3
ζητοῦσιν 3
Σοδόμων 3
ἀνεκτότερον 3
προείρηκα 3
λθητε 3
βησαν 3
Ἐρυ@@ 3
γησαν 3
εὐθυ@@ 3
θρ@@ 3
ᾴ@@ 3
ύω 3
ρων· 3
ἡμῖ@@ 3
τοσαύτην 3
φρόνως 3
βῶς 3
γαγ@@ 3
ἐκήρυξεν 3
Φῆστος 3
τάχει 3
ἀποκτεί@@ 3
παῖδας 3
θήλε@@ 3
προσεχώρησαν 3
ἱππεῖς 3
κόσιοι 3
λθωσιν 3
νομίσαντες 3
ὅπῃ 3
δήμου 3
ἀκριβῶς 3
πνεύματι. 3
φανερώ@@ 3
ύσαντο 3
ῦμα 3
μανθά@@ 3
ἐσταύρωσαν 3
ἐπιθυμία@@ 3
Ἀθηναίοισι 3
πομ@@ 3
ὥρμη@@ 3
Μακεδό@@ 3
εἰποῦ@@ 3
ἠνε@@ 3
ἐπίγνω@@ 3
εὐνο@@ 3
ὁδοῦ 3
οἰκῶ. 3
ἀφί@@ 3
δουλο@@ 3
σθησαν. 3
ἔμελλον 3
ἀνταγωνι@@ 3
θ′. 3
ΤΗΣ 3
φόνου 3
νἐστιν 3
ὅπου@@ 3
ρώθη 3
μνημεῖον 3
ἐκείνην 3
δῶρα 3
ἐπιστά@@ 3
λογο@@ 3
ἐγεννή@@ 3
ἁγίῳ 3
ὄρε@@ 3
βασιλεῦ@@ 3
ἠκολού@@ 3
ᾔδει 3
Λου@@ 3
καθιστά@@ 3
δικαιώ@@ 3
περιτομὴν 3
ΕΝ 3
σχι@@ 3
χαίρετε 3
καταβαῖνον 3
τρία 3
Ἁλφα@@ 3
ἤκουον 3
δίκτυα 3
ντο· 3
καταλαμβά@@ 3
συνίε@@ 3
τοιῷ@@ 3
Κυρη@@ 3
ῖρε, 3
μοι; 3
ἠπεί@@ 3
60. 3
θῇ, 3
κοιλίη 3
υἱός. 3
ποιεῖσθαι 3
ὄνομα, 3
δαιμονί@@ 3
πλανή@@ 3
ὑπερε@@ 3
μετρεῖτε 3
βαλοῦ@@ 3
φιά@@ 3
πεζὸν 3
ἑκά@@ 3
ἔργον, 3
φέρων 3
ὕδα@@ 3
ἐγέ@@ 3
θεός 3
ἐκλεκτού@@ 3
στων 3
θέντα 3
ἀσθένε@@ 3
τετελειω@@ 3
Μακεδονίας 3
ῖν@@ 3
λός 3
σκην@@ 3
ἀδικίας 3
ἀνθʼ 3
σωθῆναι 3
ἀνυπό@@ 3
τουσιν 3
ἐκοπία@@ 3
νυμφίο@@ 3
λαμβα@@ 3
στὶ 3
βῆναι 3
ἠγάπησεν 3
ώσα@@ 3
Ἀπόλλω@@ 3
ἑω@@ 3
πεπό@@ 3
πλεῖν 3
Θεσσαλο@@ 3
ρῆσαι 3
λογίζομαι 3
τολ@@ 3
βι@@ 3
Σπαρτιᾶται 3
κειν. 3
τριήρεις 3
πρεσβευ@@ 3
ὑπηρέται 3
λέγουσιν@@ 3
Ζαχαρ@@ 3
γεγο@@ 3
ττόμενος 3
κυρίου. 3
προσεκύνει 3
μάτων. 3
γυναικῶν, 3
ἐδόθη@@ 3
ῥάβ@@ 3
Ἔγειρε 3
στήριον 3
καὶτοὺς 3
ὅταν@@ 3
γκαλέσας 3
ἱππέων 3
ἔλεξε 3
στὰ 3
νδυ@@ 3
πνεύματος. 3
γίνεται@@ 3
παρθέ@@ 3
λαβοῦ@@ 3
λαμπάδας 3
μενέ@@ 3
τοὺςὀφθαλμοὺς 3
τάχιστα 3
λύειν 3
Πρεσβυτέ@@ 3
νεωτέρους 3
κλυ@@ 3
ἔσω@@ 3
ἐπιτελέ@@ 3
ὠδί@@ 3
κύνα 3
ματον 3
ἔσῃ 3
οἶδας, 3
;ἢ 3
ἰ 3
ἀποκτεῖναι. 3
Αἰγύπτῳ 3
πολλαὶ 3
νεανίσκον 3
δεξιο@@ 3
ὀλίγο@@ 3
παρεσκεύα@@ 3
σκορ@@ 3
μικρόν 3
μισθοῦ 3
λογίᾳ 3
στὴν 3
Φωκί@@ 3
Δημά@@ 3
σοφοὶ 3
σάρκα, 3
πολλοὶ@@ 3
Σό@@ 3
πὸν 3
κλήσεως 3
ἐξανα@@ 3
Αἰμίλιος 3
ἴσθ@@ 3
ὁπό@@ 3
ὁμοι@@ 3
δίκαια 3
Ναζα@@ 3
ὑπομονὴ 3
νὶ@@ 3
ὅλῳ 3
προσεῖχον 3
γράφει 3
καιροὺς 3
χρὴ 3
στησαν, 3
ἐξά@@ 3
ἄδικος 3
ἀκροβυστία, 3
Σκύ@@ 3
θης, 3
βάλλουσιν 3
σση@@ 3
ζωὴ@@ 3
ἀπεκδε@@ 3
ζεσθε 3
πεπιστευκό@@ 3
σουσιν@@ 3
μαστιγώ@@ 3
ἀποκτενοῦ@@ 3
διχο@@ 3
πρόφασιν 3
ἀτιμ@@ 3
ἱστήκεισαν 3
στοὶ 3
μένοι. 3
ἒ 3
νεῖτε 3
γνωρί@@ 3
σμένα 3
ἐρί@@ 3
ύμ@@ 3
τήσαντος 3
ἡλικίαν 3
μέλλει 3
ὑπακοῦσαι 3
ἀμώ@@ 3
πιον 3
κυβερνή@@ 3
σίη 3
προσευχῇ 3
ντα· 3
ἱππο@@ 3
πεντα@@ 3
ζῶντας 3
ὁπλί@@ 3
Ἰωα@@ 3
λλον, 3
Νι@@ 3
ὡρμί@@ 3
Δέ@@ 3
ἐχό@@ 3
εἵ@@ 3
ἐπιγιγνομένου 3
Ἡρακλε@@ 3
πας 3
Θεσσα@@ 3
Ἀθη@@ 3
γένους 3
τικο@@ 3
ὁδόν, 3
ἔκραξαν 3
Δημήτρι@@ 3
μνημεῖα 3
ὕδωρ, 3
ὀφείλει@@ 3
γραμματε@@ 3
ύθη@@ 3
κατο@@ 3
Γάϊος 3
ῶμεν, 3
σμένος 3
τήρι@@ 3
ζεσθαι, 3
ποιῆτε 3
ἁμαρτωλοί, 3
περιπατεῖν 3
φῶς, 3
στηθι 3
Φαρισαῖος 3
διέτρι@@ 3
κατήργηται 3
ἐγερθήσονται 3
ἐκτελέ@@ 3
θεωροῦντες 3
τιμήν, 3
τῃ, 3
ἐνέπαι@@ 3
τως 3
μίῳ 3
σίῳ 3
μαργαρί@@ 3
δοξάσει 3
Ἦσαν 3
προσκυνή@@ 3
Χριστῷ· 3
Ἰεροσόλυμα. 3
ἐκλήθη 3
Καισα@@ 3
Κορνή@@ 3
ἷς 3
ὀνόματι@@ 3
τοσούτῳ 3
ὅσῳ 3
συμφέρο@@ 3
γορε@@ 3
ὁδο@@ 3
χος. 3
ἠλπί@@ 3
ἔφασαν 3
δακτύ@@ 3
ἔφ@@ 3
πλεύ@@ 3
ἐναντί@@ 3
ὀργι@@ 3
ἐπ᾽ 3
21. 3
πίε@@ 3
πάροι@@ 3
μαί@@ 3
ἱδρὼς 3
.@@ 3
θῆτε 3
ἀποκτενοῦσιν 3
χρεώ@@ 3
ἡγεῖ@@ 3
ἔγραψεν 3
Βαραββᾶν. 3
ὄντες, 3
ἐρωτώμενος 3
δυναμένῳ 3
νοοῦ@@ 3
στήν, 3
ρο 3
δοῦλοι, 3
ὑπακούετε 3
Συρακουσίων 3
ρι 3
Νῶ@@ 3
ὀρέ@@ 3
ἔλθωσιν 3
κέρα@@ 3
πράξα@@ 3
ὅπλων 3
πολὺ@@ 3
σιωπή@@ 3
Χαλκι@@ 3
νώτατος 3
Ἀβραάμ 3
περισσεύο@@ 3
αὔξε@@ 3
ἐμπεσόντος 3
ττε@@ 3
ἐπιει@@ 3
ἄρτων 3
γαμοῦσιν 3
ςμε 3
νῆσος 3
ἐλευθερίας 3
ῥεῖ. 3
ζητεῖτε, 3
〈@@ 3
〉 3
ἐκεχει@@ 3
Ἐλα@@ 3
βολι@@ 3
σον. 3
σκοι@@ 3
τάτους 3
ῄ@@ 3
ἀναγγε@@ 3
παιδίσκης 3
Ἡρῴδου 3
δην, 3
δοι 3
λέγειν, 3
Ἑλληνικῶν 3
Πλάτω@@ 3
τα· 3
νοὐ 3
μετάβλη@@ 3
δυσε@@ 3
θαλάσση@@ 3
ροισι 3
σημαίνουσιν. 3
ἐγνώρι@@ 3
ὁδοὺς 3
ζωῆς, 3
τόπο@@ 3
ή· 3
ῶσιν. 3
ἀπέθα@@ 3
πόδα@@ 3
ίοις. 3
μισ@@ 3
εἰκόνα 3
σαντος 3
στώ@@ 3
περιπλευ@@ 3
ργοι, 3
ῤῬοΐ@@ 3
μάλι@@ 3
πρᾶγμα 3
συνηγά@@ 3
γετέ 3
ψεύδε@@ 3
ἐλεύθεροι 3
νός, 3
ψυχὴν@@ 3
φθά@@ 3
πολιορ@@ 3
τής, 3
Ἀνδρέα@@ 3
βασιλεῦ 3
ὀπτα@@ 3
παρασκευά@@ 3
ἡμεῖς, 3
περιποίη@@ 3
ἰδίους 3
ἀπόστολος, 3
ικαὶ 3
ῶς. 3
οἰκεῖν 3
γιον 3
σθα@@ 3
Ξενοφῶν 3
Ψα@@ 3
ἔχουσα 3
αἰσχύνην 3
σει· 3
ἐπικαλου@@ 3
Λιβύην 3
σπεί@@ 3
ἀγρῷ 3
ἔχοντες@@ 3
οἷον 3
πεσεῖν 3
προσευχα@@ 3
ψυχρὸς 3
Ῥέ@@ 3
Διοσκού@@ 3
τήσας 3
νόντων 3
θέν 3
N@@ 3
κρεῖ@@ 3
τῷπατρὶ 3
καλεῖσθαι 3
οἰκη@@ 3
αὗ@@ 3
Ἀπολλων@@ 3
Θεσσαλονί@@ 3
συναγω@@ 3
πολέμους 3
ὕψωσεν 3
μῶν, 3
λων@@ 3
ιά@@ 3
βεβ@@ 3
προσευχῆς 3
ὅρκους 3
θαλάσσης, 3
κύριε; 3
Ἐξε@@ 3
ῶ. 3
ῶς· 3
ὡρισ@@ 3
ψῡ@@ 3
πρώτῳ 3
δύνασθαι 3
Αἰμιλίου 3
μειράκιον 3
εἰση@@ 3
αὐτοκράτο@@ 3
Μαρία@@ 3
παὶ 3
πατρί, 3
ήσῃ 3
πολλα@@ 3
θάνατον. 3
βασιλεύς. 3
γνώσεσθε 3
εἰσήγαγον 3
τυχ@@ 3
Πέτρῳ 3
μένως 3
οῖ@@ 3
Ῥό@@ 3
ἐπίστευον 3
τροφῇ 3
ἄρι@@ 3
ῦρον 3
παρακαλέ@@ 3
ἐξο@@ 3
τόπον, 3
δρό@@ 3
τερον. 3
πρέπον 3
βλέπει 3
αὑτὸν 3
ἔπεσαν 3
σφόδρα. 3
πίπτε@@ 3
ὑμεῖς. 3
ἑστηκότων 3
γγέ@@ 3
λλει 3
στήσαντες 3
ῇ; 3
ὑποστρέψαντες@@ 3
ἐχρῆ@@ 3
τύραν@@ 3
ψώ@@ 3
φρέαρ 3
μισθαποδο@@ 3
ρᾶ 3
νότου 3
νοῦ 3
στρατόπεδον. 3
χρω@@ 3
ἀκρό@@ 3
καιρ@@ 3
ἦλθεν, 3
Ἀδελφοί, 3
διαθήκην 3
τάσσε@@ 3
ἀνέχε@@ 3
κατεσθ@@ 3
ρει. 3
γευ@@ 3
χρώ@@ 3
ὀρθ@@ 3
στρατη@@ 3
γεῖν 3
νῦν, 3
ὑπενα@@ 3
φανερω@@ 3
δεήσει 3
θού@@ 3
πτει, 3
διεφθαρ@@ 3
ρεις 3
ἔκραζον 3
Ἐφε@@ 3
γενεὰ 3
ΚΛΕΙ@@ 3
φανερὰ 3
ἴχ@@ 3
ἱκανὸν 3
λεο@@ 3
πυρετοῦ 3
μήτʼ 3
ῶντα 3
Δαρείου 3
Περσῶν 3
σφυρί@@ 3
εἶναί 3
ἐπέθηκεν 3
δεσ@@ 3
δόκιμος 3
Πελοποννησίων 3
Μετα@@ 3
ῖσι, 3
θερισ@@ 3
ταί, 3
ψήφι@@ 3
γεω@@ 3
ργί@@ 3
ἀποδιδό@@ 3
ἕτερα 3
ἐνθεῦτεν 3
ειν 3
νησιώ@@ 3
τετοῖς 3
σῶμα, 3
ἐφο@@ 3
σίης 3
σμένος. 3
ἐπιστρέψας 3
ῆγε 3
ρων@@ 3
μησεν 3
ἀποκτεῖναι; 3
ἀμφι@@ 3
εἰσίν· 3
ἐπιτρέ@@ 3
ψεν@@ 3
αὐτούς@@ 3
ίουσιν 3
χρησάμενος 3
ἥ 3
θεόν 3
ἀνδρεῖ@@ 3
οὖρα 3
ὑγιαίνο@@ 3
ἐγενό@@ 3
ἐλευθερώ@@ 3
Ἀλυά@@ 3
κόσμῳ, 3
ἱστο@@ 3
ἐκλεκτῶν 3
δικαι@@ 3
ἐκεῖνος, 3
νοσέ@@ 3
ἀνοί@@ 3
λόγου, 3
σκειν. 3
νεν, 3
τυραννί@@ 3
ἐκάθη@@ 3
ντας· 3
τέλος@@ 3
σπλαγχ@@ 3
χρόνος 3
πολεμίων 3
στιν, 3
πάντοτέ 3
οἰκή@@ 3
), 3
οὖσιν 3
ἐδέ@@ 3
γγυ@@ 3
λοντο 3
ὀλο@@ 3
δρέπα@@ 3
προσέθετο 3
οὖν; 3
διάκονοι 3
δίω@@ 3
τείτω 3
τόδʼ 3
τυς 3
ἡγού@@ 3
ἀπολέσει 3
θεωροῦ@@ 3
ινύ@@ 3
ύρι@@ 3
ἐφ’ 3
προφητείας 3
Πλάτων 3
νουσή@@ 3
ἀπαγγέλλο@@ 3
μέλλοντος 3
μιον 3
ἑσπέ@@ 3
νὶ 3
κτίσις 3
γη 3
σημε@@ 3
Εἶ@@ 3
εὑρήσει 3
σκώ@@ 3
ὦσι 3
ἀποστο@@ 3
φεύγε@@ 3
ἔμπροσθέν 3
)· 3
ψεις 3
δίδωμι 3
χίλια 3
Πη@@ 3
ύετο 3
Ὧ@@ 3
δραμὼν 3
γγει@@ 3
νις 3
σθʼ 3
ἐγείρονται, 3
λου· 3
ὑμᾶς; 3
ωνταί 3
οἴκους 3
σας; 3
Ἀχι@@ 3
και 3
Τέκνον, 3
καλὸς 3
δόμων, 3
βρε@@ 3
ΛΟΣ 3
καταλεί@@ 3
Κἀγὼ 3
καρποφο@@ 3
χαίρο@@ 3
κατοικοῦντες 3
ἐὼν 3
βεῖν 3
φθι@@ 3
εὐλογεῖ@@ 3
σοφὸς 3
ἀπολεῖ@@ 3
σπονδῶν 3
κομι@@ 3
ἐπιποθ@@ 3
δῶ 3
ζῇν. 3
ἐβουλό@@ 3
φοβερὸν 3
κος, 3
κόσμος@@ 3
δε· 3
ὀψὲ 3
εὑρί@@ 3
μένους· 3
πρότερον, 3
γενόμενα 3
κἀκεῖνον 3
λαβό@@ 3
καταμηνίων 3
ἃ@@ 3
ὄντας, 3
οἵαν 3
κοὺς 3
ἀστραπὴ 3
πλανῶ@@ 3
ρός, 3
ίου· 3
ακε@@ 3
ἑστ@@ 3
κρῖναι 3
γνώμην, 3
κωμῳ@@ 3
ἀπορ@@ 3
θοντο 3
στενο@@ 3
Ἀγησίλαος 3
πλείονας 3
βίβ@@ 3
θαυμαστ@@ 3
ξένων 3
κατό@@ 3
παραλυτικῷ 3
ἁμαρτίαι, 3
διδασκά@@ 3
σχεδὸν 3
Μωυσέ@@ 3
ἡγε@@ 3
πάσχε@@ 3
μέλος, 3
γεγέννη@@ 3
ὲτ 3
κληρονόμο@@ 3
κυρίουἸησοῦ 3
βάπτι@@ 3
ναλί@@ 3
τούμενοι 3
δοκέ@@ 3
σφ@@ 3
m@@ 3
ἐγήγερται, 3
ἡμᾶς· 3
μελλόντων 3
σταδίους 3
ῖχε@@ 3
μνείαν 3
Ἀλ@@ 3
πιστεύειν 3
ἐτελεύτη@@ 3
ἐπαί@@ 3
ὁκόσοισι 3
προαιρέ@@ 3
ἰδο@@ 3
ών· 3
βουλόμενοι 3
τεῖν 3
ἑκού@@ 3
κατά 3
περα@@ 3
σθήσεται 3
σης. 3
συμφέρον 3
δεξα@@ 3
Πελοποννήσιοι 3
ΕΝ@@ 3
σατέ 3
χάριν. 3
μηδὲ@@ 3
παιδι@@ 3
ῦτα 3
πολιτῶν 3
ἀπέκτειναν. 3
Γυ@@ 3
ΕΙΣ 3
σικ@@ 3
ἐστι. 3
γγι@@ 3
νόμενοι 3
ὀστέ@@ 3
εἰσι@@ 3
δὸν 3
γὰρὁ 3
βέβα@@ 3
οὕτως· 3
ἠξ@@ 3
κατασκευά@@ 3
κων· 3
εσ@@ 3
σμη@@ 3
ΗΣΙ@@ 3
ἐμβλέψας 3
ἐκβάλλ@@ 3
ἐλπίδος 3
γγειλά@@ 3
ἁρπάζειν 3
ἀργύρι@@ 3
κολά@@ 3
φους 3
πλοίου 3
Φαρα@@ 3
πράξ@@ 3
ἐχαρίσατο 3
ἐπέστησαν 3
ὅλως 3
γεγονέναι 3
ἱκανοὶ 3
ἀφικνοῦνται 3
ῥα@@ 3
πατρός, 3
πέμπουσι 3
ἀντιλέγο@@ 3
ἐλέγχε@@ 3
ὄντων, 3
Και@@ 3
του. 3
διά 3
ἐπιταγὴν 3
κεφαλὰς 3
ουσα@@ 3
δὲν 3
κατοι@@ 3
ὑπηρέ@@ 3
ἑώρα 3
ἠγάπα 3
ξύμπα@@ 3
ἀκρι@@ 3
ἱματίου 3
πόνος 3
φθέ@@ 3
γγο@@ 3
ἀνέπε@@ 3
νητε 3
πτωχοὺς 3
ἔχετε@@ 3
βασιν 3
δησεν 3
Ξέρξ@@ 3
γράψαντος 3
ψο@@ 3
Τούτου 3
φρονί@@ 3
φυλάσσο@@ 3
πολύς, 3
βον 3
νεφέλη 3
ᾱ 3
ἔδωκαν 3
τᾱ̀ς 3
σήματα 3
ποθ@@ 3
Θη@@ 3
συνήχθησαν 3
λέγει. 3
πτοντο 3
δει. 3
ἐπιγενόμενος, 3
πεδίον 3
λοιπο@@ 3
ρον@@ 3
ἤνοιξεν 3
Διονύσιος 3
τρὶς 3
Φορ@@ 3
μίων 3
εἴκο@@ 3
νδά@@ 3
Ἄνθρωπε, 3
κόμενος 3
τοίμα@@ 3
δευτέρου 3
χομένοις 3
Πέρσας 3
βάλλο@@ 3
ύοντες@@ 3
συνῆ@@ 3
ἐπέβαλον 3
τηρ@@ 3
ἐνί@@ 3
φόνος 3
δή 3
δῆλον 3
ὥρ@@ 3
λογεῖ@@ 3
κύριός 3
φευ@@ 3
γραφὴν 3
βαι@@ 3
μορφο@@ 3
θῶσιν 3
ἀδικί@@ 3
εἴδα@@ 3
Μεγαρέως 3
δέονται. 3
νῆς 3
παλαιὸν 3
ὑμετέρας 3
ὄνομα@@ 3
γεται 3
εὐθ@@ 3
τῷ. 3
ἀγαπᾶ@@ 3
ἔνι@@ 3
δετο 3
ζομαι@@ 3
ἀκούοντας 3
Ἀρίστωνος 3
μηδενὸς 3
νεκ@@ 3
γάμος 3
πύλας 3
τοῦἸησοῦ 3
δʼ@@ 3
δός 3
ἀρχιερεῦσιν 3
Κύπρο@@ 3
ρμη@@ 3
ῥυπαρ@@ 3
ζομεν, 3
ὑπομονῆς 3
καυχή@@ 3
ύματος 3
ΚΡΙ@@ 3
ἀκολουθοῦ@@ 3
θόρυ@@ 3
σιντῶν 3
τριον 3
λόγος. 3
χόμεθα, 3
ἀνατέλλει. 3
Ἀφροδί@@ 3
ἰσχυρότεροι 3
ἔξεστιν· 3
στησε 3
ιόντων 3
ἄδι@@ 3
εἰδωλολάτραι 3
κῶν 3
λαλεῖ 3
ἐστε, 3
ἀλλήλοις. 3
λεγόμενοι 3
Χο@@ 3
προφητεύ@@ 3
καί, 3
Ἐκ@@ 3
ζοντες, 3
Κάθου 3
πον. 3
Δίωνος 3
ροῦντο 3
ἐμίση@@ 3
ὄχλοις 3
ἦ 3
τέρου 3
κακὰ 3
ριζω@@ 3
Βλέ@@ 3
Ἡρῳ@@ 3
ντησαν 3
παλα@@ 3
ἰατροῦ 3
χρῶ@@ 3
στρέψα@@ 3
ίη. 3
δικαιώματα 3
λοῖς 3
ὤμοσεν 3
ομένοις 3
οὖσι 3
μνημείου 3
φύγω@@ 3
μεγάλας 3
ἐξίστα@@ 3
τοῦκυρίου 3
λόγη@@ 3
διαμερι@@ 3
τρύ@@ 3
μεταπεμ@@ 3
ἐκτι@@ 3
Ἀλκιβιά@@ 3
σχε@@ 3
ἄρχοντας 3
ξέν 3
έναι 3
23. 3
βρά@@ 3
νίων 3
ὢ@@ 3
Ἀγ@@ 3
Συρακούσιοι 3
ὁδόν 3
πλεο@@ 3
ᾖ@@ 3
νομαι 3
ἐρεί@@ 3
πον, 3
δον. 3
καινὴ 3
πιστεύοντες 3
κατῆλθον 3
Βροῦ@@ 3
ἐλευ@@ 3
Μακεδον@@ 3
ἐχθρούς 3
κλέους 3
Κιλικ@@ 3
γῆς· 3
ἡμεῖ@@ 3
προκρί@@ 3
εἰρήνηἀπὸ 3
ββα@@ 3
κράβα@@ 3
εἰσερχο@@ 3
ὀνόματος 3
πρῶτον@@ 3
αἴτιον 3
νθος 3
Ἰάκω@@ 3
ἀοιδῇ. 3
ΒΥ@@ 3
κόντων 3
σατο@@ 3
χρυσο@@ 3
Αἰμιλίῳ 3
Ἐπί@@ 3
δίκτυ@@ 3
πίστεως@@ 3
ὤρθ@@ 3
θῆναί 3
λθῃ 3
κατε. 3
ἠσθέ@@ 3
λθόντα 3
εἰπόντα 3
παρέδωκαν 3
Πειλάτῳ 3
πατήρ, 3
ἐτά@@ 3
μεγάλων 3
κτον 3
λέγουσαν 3
Ἔξελθε 3
Πει@@ 3
Λι@@ 3
λαλῆ@@ 3
ᾐ@@ 3
Ἰησοῦν@@ 3
πείθε@@ 3
ἀκρω@@ 3
δια 3
μηδʼ 3
ἤλει@@ 3
σαββάτ@@ 3
καταστή@@ 3
ἀσπί@@ 3
αἰσχρὸν 3
ἐκκλησί@@ 3
πρᾱ́@@ 3
κατηγορεῖν 3
ἐμέ, 3
ζῶντες 3
μέλος 3
εὐηγγελι@@ 3
ἀνάθεμα 3
ἔστω. 3
μέναις 3
Ἀθηναίους, 3
ἐσέ@@ 3
Ἰσραηλεῖ@@ 3
Ἑλλὰς 3
κίνη@@ 3
ὀνειδι@@ 3
ἐκεῖ· 3
πάσαις 3
βαλοῦσιν 3
μεγάλοι 3
ξου@@ 3
κατηγοροῦ@@ 3
ἀπαλλά@@ 3
θεὶς@@ 3
ζεσθαι. 3
βρῶμα 3
γω 3
κρέ@@ 3
τινές 3
ίνειν. 3
ντις 3
τοῦτο; 3
ἀποστέλλει 3
θητε@@ 3
σαρκός, 3
βλασφημ@@ 3
ρόμενος 3
ρίζειν 3
χριστοι 3
πλαν@@ 3
πρόβα@@ 3
ὑπ@@ 3
Ἀμ@@ 3
καθὸ 3
πάσχα@@ 3
ταν. 3
ρκον 3
δημοσίᾳ 3
Μαγδαλη@@ 3
ἐμνήσθησαν 3
ῥημάτων 3
της@@ 3
ἁμαρτίαν, 3
πλεονε@@ 3
ὥ@@ 3
πνεῦμα. 3
πληρώματος 3
φάτ@@ 3
αἷμα, 3
ἐπιθέντες 3
ἀνδρε@@ 3
ἀνεί@@ 3
14. 3
σωσιν. 3
χαλι@@ 3
τορες 3
δʼ, 3
ἡτοίμασαν 3
πετρώδη 3
ξυνη@@ 3
Λακεδαιμόνιοι, 3
ἀπέλει@@ 3
ΚΕ@@ 3
διαλεί@@ 3
ὑψω@@ 3
ἔσται, 3
ναγκά@@ 3
λία@@ 3
μισο@@ 3
εἰρήκει 3
δέχεσθαι 3
ἀμία@@ 3
οἰκοδομή@@ 3
Ἰταλίαν 3
ίνου@@ 3
ἐχάρησαν 3
Ἀργείους 3
λαβον 3
ἀρώ@@ 3
ματα. 3
ἀποθνῄ@@ 3
ἔσχεν 3
Φή@@ 3
πρω@@ 3
ἐπρά@@ 3
παραδιδόναι 3
μετέω@@ 3
φίλοις 3
γητε 3
τες. 3
ἐπιτά@@ 3
Ἀνδρέ@@ 3
ὴρ@@ 3
πτώ@@ 3
λους@@ 3
μεγάλης 3
δεσμοῖς 3
Θεμιστο@@ 3
κλέα 3
πόν, 3
ἐνκυρίῳ· 3
μασι 3
Ἀβ@@ 3
βρό@@ 3
μοί@@ 3
παρεδό@@ 3
ζων. 3
δῆμος 3
Βαρνάβαν 3
ξυνέβη 3
πολεμεῖν. 3
κτό@@ 3
ρτά@@ 3
παρείχοντο 3
μέτοχοι 3
κόμενοι 3
;@@ 3
ὑπερηφά@@ 3
πρόσωπόν 3
πυρετὸς 3
λε 3
ίου, 3
ῥίζα 3
ἐχά@@ 3
Συρακου@@ 3
κακόν· 3
Σιτάλ@@ 3
Περδίκκας 3
ἔχθ@@ 3
σκεν. 3
σόν@@ 3
ἀτρε@@ 3
τʼ, 3
κλεί@@ 3
μβα@@ 3
οὐκέτι@@ 3
θελ@@ 3
φωτὶ 3
κράζοντες 3
εἶπέ 3
εἴπω@@ 3
ὁμοία 3
ἀπεδέξα@@ 3
ίον, 3
ζευ@@ 3
Ὕπα@@ 3
ἔλεγο@@ 3
σταυροῦ 3
φρων, 3
γουσιν 3
συνελθόντες 3
ὁπότε 3
τέρη 3
φορω@@ 3
η. 3
Χριστια@@ 3
ζέτω 3
ἐναντίας 3
ἐνεργῶν 3
θῆτε. 3
φου 3
δεύ@@ 3
κατορθώ@@ 3
ρακ@@ 3
μένην, 3
ἀσθενῶ@@ 3
πλεύσα@@ 3
λάμ@@ 3
ἐγώ, 3
ΰ@@ 3
τοῦτοντὸν 3
δαιμόνιο@@ 3
ἐβούλοντο 3
ἸησοῦΧριστοῦ, 3
ἀποκαλύ@@ 3
λίῳ 3
Οὐδέποτε 3
ὑπ’ 3
καθέ@@ 3
ἀκρόπολιν 3
ἀκίνδυ@@ 3
εἰσή@@ 3
Σπε@@ 3
οὐρέ@@ 3
λαλῶ 3
Βε@@ 3
Ἄκρα@@ 3
†@@ 3
ἀδόκι@@ 3
ἡδο@@ 3
Κυ@@ 3
χα 3
Ἐλαιῶν, 3
καθαρὰ 3
θρέ@@ 3
ννα 3
δησαν 3
χῆς 3
ζῴ@@ 3
παρεκλή@@ 3
σεαυτοῦ 3
ἐποιοῦ@@ 3
ππο@@ 3
νοί. 3
βουλὴν 3
λαλοῦμεν 3
διδακ@@ 3
ποιησά@@ 3
Λεο@@ 3
σται, 3
Λακεδαιμονίων, 3
νεῖ, 3
ἐκεῖ, 3
τατον. 3
συλλέ@@ 3
προθύμως 3
γράφ@@ 3
σώφρο@@ 3
μεγίστων 3
Κρή@@ 3
τ’ 3
ἀνεῳγ@@ 3
τοιαῦτα@@ 3
ἀληθείᾳ, 3
οὐδέν, 3
Ῥο@@ 3
ἀνακρίνε@@ 3
φέρον 3
ρει@@ 3
Ι 3
ἐργάζεσθαι 3
Ἱε@@ 3
ἀνδράσιν 3
ἔστα@@ 3
Ἶ@@ 3
δεῦ@@ 3
σύν@@ 3
Ἐβραϊστὶ 3
κας, 3
ἐγώ@@ 3
ᾶν, 3
ἐργάται 3
τικ@@ 3
όντων. 3
χην. 3
κλαίου@@ 3
Θέλω, 3
καθαρίσθητι· 3
ἀκου@@ 3
λωνος 3
οὐρανοῦ. 3
μώθη@@ 3
ἀπρόσκο@@ 3
συνείδησιν 3
Γαλα@@ 3
καταλλά@@ 3
ίη, 3
Τιμοθέ@@ 3
σεῖ, 3
ναυτικὸν 3
ρρω@@ 3
ἄπει@@ 3
χαλε@@ 3
13. 3
συνειδ@@ 3
ήσει. 3
παρακαλέσας 3
τούτῳ@@ 3
πιστεύετε. 3
ἀγαπῶντας 3
Κάσ@@ 3
ἐγρά@@ 3
διαῤῬοίης 3
χθή@@ 3
πνευματικ@@ 3
κατευ@@ 3
κτήματα 3
γεγονὼς 3
γα 3
θέσθαι 3
Φαρνάβαζος 3
Βυζάντιον 3
ἐφάνη 3
τον; 3
μένης@@ 3
δεινὰ 3
μεθα; 3
ἐστίν 3
χριστός 3
δούλου 3
νήπιος, 3
νουν@@ 3
δίᾳ 3
Ἠλείαν 3
Λε@@ 3
σάλπιγγος 3
θόρυβον 3
ΛΩΝ 3
κληρονόμοι 3
ρώσας 3
κατέκρι@@ 3
ἐξέρχεται 3
χρησά@@ 3
Δο@@ 3
Η 3
ραν, 3
στόματα 3
δοκί@@ 3
βοά@@ 3
τἀ@@ 3
ἀληθῶ@@ 3
εἴτε@@ 3
ἔλεος, 3
τῆς, 3
δος. 3
ἁμαρτίαις 3
53. 3
παραφροσύ@@ 3
περιτέμνε@@ 3
ἐκλί@@ 3
όν; 3
γράφει. 3
καρτε@@ 3
Σαμαρεί@@ 3
δακρύων 3
ὅδʼ 3
κατάλυ@@ 3
ῡ̔@@ 3
ἀποστέ@@ 3
οἴνῳ 3
βαλό@@ 3
ἀπίστο@@ 3
δυναμένους 3
παρθένον 3
κάκι@@ 3
παρατιθέ@@ 3
ρία, 3
παρέλαβον 3
δακ@@ 3
ὀλίγους 3
ὕπνος 3
ονται 3
χωρίων 3
λλώ@@ 3
ὁἸησοῦς 3
δυνή@@ 3
λόγους, 3
Πορεύ@@ 3
μπα@@ 3
λιος 3
ἡλί@@ 3
Λαοδικίᾳ 3
ἑωρά@@ 3
νοῖς 3
Στε@@ 3
ίως@@ 3
ζιζά@@ 3
ὠφελέ@@ 3
σιωπ@@ 3
ρχηται 3
ωσιν. 3
πονηρὸν 3
γεγεννημένον 3
φαλακρο@@ 3
σσειν 3
πουν 3
στῶτα 3
πεζῇ 3
θεασάμενος 2
ἀληθὲς 2
κας. 2
ἐγεί@@ 2
ἐγε@@ 2
παραστήσει 2
κεισαν 2
λοιδό@@ 2
ὀλιγο@@ 2
ἀντέχε@@ 2
Βοιωτῶν 2
πολιν 2
προσφερο@@ 2
ρέθη 2
27. 2
μιμεῖσθαι 2
ληφέ@@ 2
ἔπεμπον 2
Τισσαφέρ@@ 2
πανοπλ@@ 2
ῦλα 2
καλεῖσθαι. 2
Ἰακώβ. 2
ῆσαι. 2
Πειλά@@ 2
ὑπέσχετο 2
ΤΡ@@ 2
ὀλί@@ 2
Πεισι@@ 2
παραδοὺς 2
φυλάσσειν 2
μοχθη@@ 2
ῥαβδοῦ@@ 2
προσήνεγ@@ 2
κρίνατε 2
ἠκού@@ 2
πειθο@@ 2
ἀποθνή@@ 2
ἔτει 2
ἀποβ@@ 2
μαρτύρι@@ 2
χόντων 2
ἡνίκα 2
ἀναγινώ@@ 2
κάλυμμα 2
κεῖται· 2
στράτευ@@ 2
ἐπανε@@ 2
Ταῦτα@@ 2
πορεύεται 2
τερί@@ 2
ὅσους 2
Αἴγι@@ 2
ναν. 2
αὐτῆ@@ 2
15. 2
ὕδρω@@ 2
ἀνέγκλη@@ 2
ὄντες. 2
γεωργ@@ 2
ἐπιτήδεια 2
ζονται. 2
Τιμόθεον 2
ἠρώτωναὐτὸν 2
ὑψώσει 2
ποιέειν. 2
καθό@@ 2
ἁγίους, 2
ρούς 2
βάλλοντες 2
πτε 2
ἐρωτώ@@ 2
λῆς. 2
ὀμνύ@@ 2
λαλῶ· 2
προσευ@@ 2
Ἀριστο@@ 2
τυχοῦ@@ 2
ίων, 2
αὗται 2
τιμαῖς 2
πτα 2
ῶντας 2
σπεύδο@@ 2
σού@@ 2
ύσι@@ 2
ξυγ@@ 2
ταὐτὰ 2
τρόμου 2
Βοιωτοὺς 2
λάλει 2
ὑγιαινού@@ 2
βασιλέως, 2
ὅσ@@ 2
βουλη@@ 2
ἀγέλη 2
ήν· 2
πρῶτος@@ 2
θάλασ@@ 2
μματα 2
ἱμά@@ 2
ᾷς 2
νθά@@ 2
δυώδεκα 2
ἐφανερώ@@ 2
ἐπίστευσαν, 2
σιλά@@ 2
οισι 2
πολεμεῖν 2
ἀγγέλοις 2
φυλάξα@@ 2
ἔτρε@@ 2
ἐλαύνειν 2
μάχ@@ 2
ρχό@@ 2
ἐρχ@@ 2
λενὁ 2
ταύτην, 2
ρήσαντες 2
ὁμολο@@ 2
ὁρμὴ 2
σειε@@ 2
Ἀδελφο@@ 2
ίαςκαὶ 2
ἐρῶ 2
ψυχῇ 2
ἴσχε@@ 2
ὀστέον 2
Σαμαρει@@ 2
νευό@@ 2
ὥσπερ@@ 2
δάμου 2
ῶ; 2
ἔδοξεν 2
γενομένοις 2
Βαρνάβ@@ 2
Ξ@@ 2
ὕδρωψ 2
ἀγαπητῷ 2
νη, 2
σχή@@ 2
κισχιλί@@ 2
καμ@@ 2
σωσι 2
ἐπιστεύ@@ 2
ἐγώ. 2
σὰρ@@ 2
οὐδέν· 2
πονηρόν. 2
ἆρον 2
παρόντα 2
ὕδωρ. 2
σωφροσύ@@ 2
καταμά@@ 2
τις. 2
τάξ@@ 2
ποιμένα, 2
σκορπι@@ 2
σθήσονται· 2
μως, 2
νοῦντας 2
λοιποὺς 2
λὴ@@ 2
ἀναστροφή@@ 2
Ἰουδαϊ@@ 2
τοπρὸς 2
δειπνο@@ 2
στησάμενοι 2
ἐκοιμή@@ 2
τοιούτου 2
ὄχλος@@ 2
Ἀποκριθεὶς 2
λίμνην 2
ρέτ@@ 2
κυκ@@ 2
ἑτέρους 2
ξαι. 2
παιδί@@ 2
Πάλιν 2
πλεύσας 2
εἵλοντο 2
τέλειοι 2
Σέ@@ 2
ἀφίκοντο 2
Ἑλληνι@@ 2
ἐπεχεί@@ 2
κοιλίαι 2
ποίησεν 2
πορεύο@@ 2
σιτία 2
Αἴγυπτο@@ 2
ἐξαπέστειλεν 2
αὐτός, 2
δετε 2
κοις 2
ἀδικού@@ 2
τάξας 2
Αἰγύπτι@@ 2
Τύρου 2
πία@@ 2
ρμα 2
ἐπανό@@ 2
ἔχουσιν, 2
μιμου@@ 2
ἀηδό@@ 2
παρακαλού@@ 2
φήσας 2
Κυρηνα@@ 2
ἐκεῖνος@@ 2
εἰμὶ@@ 2
αἰώνων, 2
καταστα@@ 2
ὑγιεινό@@ 2
ρέων 2
θανατῶ@@ 2
ἔχουσιν. 2
ἀφεῖ@@ 2
Πελοπόννησον 2
παρεσκευα@@ 2
Κλε@@ 2
ινίου 2
ἐστρατή@@ 2
βιω@@ 2
λίοις 2
δῶρον 2
φιάλη@@ 2
ἀποδοῦναι 2
Σιὼν 2
ὄρει 2
πανη@@ 2
σαυ@@ 2
βολῆς 2
πτῳ 2
Εἶπον 2
Φοί@@ 2
ἐπῆ@@ 2
δεδογ@@ 2
χρήσασθαι 2
κατεργασά@@ 2
ἔστη 2
⟦καὶ 2
⟧. 2
ρχετο 2
ἐργάτας 2
Πλα@@ 2
τιος 2
νόμοισι 2
παρεσκευάζο@@ 2
ἐλάσσους 2
ζητῶ 2
τούτοις, 2
πράσσοντες 2
ἄμω@@ 2
γένοιτο, 2
σοφο@@ 2
δεσμο@@ 2
πραι@@ 2
ἑβδό@@ 2
ὤμο@@ 2
κατάπαυ@@ 2
γέγονε@@ 2
ταξα@@ 2
Οὔ 2
πεποιή@@ 2
ἀποτε@@ 2
ἐληλύ@@ 2
ἀγγέλλων 2
Ἀττικὴν 2
εσθαι. 2
ἔπ@@ 2
λῶσαι 2
θορύ@@ 2
ργη@@ 2
ἀληθείας· 2
ἀστ@@ 2
θεῶν· 2
σεω 2
ἐποιήσαντο 2
νόμον. 2
ἐβούλετο 2
παραλαμβάνει 2
θαμ@@ 2
βεῖ@@ 2
λήν· 2
σὰ 2
ονται. 2
ἀλ@@ 2
ὧδʼ 2
κεντ@@ 2
δυνάμεθα 2
πολεμίους, 2
ἀγάπ@@ 2
ἔκτει@@ 2
καλουμένην 2
ποιήσω; 2
ἴσως 2
διδασκό@@ 2
προσῆλθεν 2
σκεῦος 2
διώκοντες 2
πέτ@@ 2
ἀποθάνῃ 2
εἰσά@@ 2
ἀπολο@@ 2
ἄπι@@ 2
γράφο@@ 2
στρώ@@ 2
ὤμοσαν 2
μηνὸς 2
Λακεδαίμονι 2
Μακρο@@ 2
στην, 2
ύοντες, 2
εἶπεν. 2
ἀρετήν, 2
μέλλοντας 2
οἴκα@@ 2
ἀκούω. 2
πρώτας 2
Δίω@@ 2
ῦμα, 2
μετασχηματί@@ 2
φέροντα 2
νόμου, 2
Ὅστις 2
ταπεινωθήσεται, 2
ὑψωθήσεται. 2
σκεύ@@ 2
γγελλε 2
ἐγίνετο 2
δημό@@ 2
σιαι 2
πόλεων. 2
Ἰφικρά@@ 2
πον· 2
ἐπιγνώ@@ 2
καθὼςκαὶ 2
κυβε@@ 2
Σικελι@@ 2
νόμῳ@@ 2
νεα@@ 2
παρακελευ@@ 2
ριν 2
ἀπέκτονεν. 2
πεσεῖ@@ 2
ἅγιον, 2
τέταρ@@ 2
τριη@@ 2
ἑαυτοῦ. 2
ἀμφό@@ 2
ἄπιστος 2
τοιού@@ 2
μαντε@@ 2
ἔγνων 2
ῖαν 2
λύτρωσιν 2
λαβοῦσα 2
λεγομένη 2
για 2
ὠφέλη@@ 2
ἐκείνους, 2
βέλτι@@ 2
διατελέ@@ 2
ῥιπ@@ 2
κονιορτὸν 2
παλαιὰν 2
σφυ@@ 2
λάσαντες 2
μένης. 2
᾽ 2
ἐθελο@@ 2
ντὰς 2
τυράν@@ 2
ἐνὑμῖν 2
δώσε@@ 2
Γνω@@ 2
των@@ 2
στρατοπέδ@@ 2
ῆλθαν. 2
κεῖν. 2
ψ 2
ἐγχει@@ 2
πολεμ@@ 2
Μάρκος 2
Κάτων 2
ῇς. 2
ιος. 2
καρπῶν 2
υόντων 2
παραλαβόντες 2
ἐκρά@@ 2
παγ@@ 2
ἑκ@@ 2
λοχαγοὺς 2
Σεύθης 2
πλαγχ@@ 2
ςεἰς 2
Σταύ@@ 2
Σή@@ 2
Ἡρα@@ 2
κίας 2
ἁλίσκε@@ 2
Αἶ@@ 2
Καφαρναού@@ 2
Δεκα@@ 2
ῦναι 2
ἐπεῖ@@ 2
σασθαι. 2
οὐρανοῖς. 2
ἀγρυ@@ 2
κατι@@ 2
φυγεῖν 2
μέλλοντα 2
τοῦυἱοῦ 2
Πρί@@ 2
Ἀκύ@@ 2
νησι@@ 2
παν@@ 2
Αἶρε 2
ᾶν· 2
χευ@@ 2
ρωθεν 2
ματίζειν 2
λεγού@@ 2
ζοντος 2
ἐνώπιόν 2
ὁδηγ@@ 2
ἑβ@@ 2
ῶσι@@ 2
βαλε 2
Συρακούσας 2
εἴληφε@@ 2
Ταύτην 2
ἤδη, 2
ἀσκ@@ 2
ἀποθανεῖν. 2
Ποσει@@ 2
φησιν, 2
ἑκα@@ 2
ὀγδοήκοντα. 2
Ἀπόλλωνι 2
ἀνέθηκε 2
ῒ@@ 2
εἰω@@ 2
ὀκ@@ 2
καίδεκα 2
χωλὸν 2
μέμνη@@ 2
ὑπομονῇ 2
καθίσαι 2
εὐωνύμων 2
σταυροῦ. 2
ἄνθρωποι@@ 2
ξηρα@@ 2
ττης 2
Εὐφρά@@ 2
ἑωυτοῦ 2
ὀκτὼ 2
Βο@@ 2
γράφω@@ 2
παρρησίαν 2
γξα@@ 2
πορείαν 2
λαμβάνειν. 2
θρι@@ 2
χρι@@ 2
λματα 2
γυνὴ@@ 2
ἔρη@@ 2
σμένον@@ 2
μέγα, 2
χώρᾳ 2
κραυγὴ 2
νας· 2
δου, 2
ῥομφα@@ 2
οἵδε 2
δακρυ@@ 2
ἠρώτησεν 2
δέη@@ 2
κακά@@ 2
ῥαβ@@ 2
εἰκὸς 2
όπ@@ 2
πλέοντες 2
ἐλή@@ 2
παρεδίδο@@ 2
γεωργοὶ 2
ῥαπί@@ 2
Στέφα@@ 2
Κύριε 2
εὐδαιμο@@ 2
ύσας. 2
χεῖν. 2
καθαρίσθη@@ 2
ἐννέα 2
θανάτου· 2
μόν· 2
νθυ@@ 2
ώτας 2
ρικῶν 2
ῄει. 2
ἐπλήρω@@ 2
Καφαρναούμ. 2
καμί@@ 2
ὑδάτων 2
πολλῶν, 2
ήσω 2
παρουσίᾳ 2
σιω@@ 2
ἰδί@@ 2
ἀπέπεμψαν. 2
στρατιῶται, 2
Ἄρτι 2
ἀλή@@ 2
ἔνδοθεν 2
δας@@ 2
Ἀσίᾳ, 2
ρατος 2
ἐγί@@ 2
Ῥωμαῖοι 2
βουλευμάτων 2
ἔοικε 2
ὑπερβα@@ 2
γέλω@@ 2
ὀξέων 2
ἱ 2
ἐκδύ@@ 2
ὰμοὐκ 2
κοινωνοὶ 2
ναυμαχ@@ 2
Εὐρυ@@ 2
καταισχυνθ@@ 2
κατελείφθη 2
παῖς; 2
ἐρῶ@@ 2
λυπεῖσθαι 2
ἐκδι@@ 2
Κύριος. 2
ἐχρῶντο 2
σκεῦ@@ 2
ἐσμέν, 2
καλεῖ 2
καλόν 2
ὅτῳ 2
ὤφελε 2
ἐδέο@@ 2
ἀπράκ@@ 2
Κλέαρχος 2
πολέμιον 2
ἐβουλε@@ 2
λιον. 2
παρρησιά@@ 2
ήτῃσι 2
σπαρά@@ 2
σιοι, 2
ἐκβάλῃ 2
σπέ@@ 2
φύσιν, 2
νῶν. 2
εὐδαιμονί@@ 2
πειθα@@ 2
ἀρχῆς, 2
Ἕλληνας 2
κελεύσας 2
παρελάβε@@ 2
τῷδε 2
παρουσίας 2
Ἔστιν 2
τοσού@@ 2
λάς. 2
Πίστει@@ 2
Τοῖς 2
Ἰταλίας 2
Λακων@@ 2
ἐπειρῶντο 2
Μεγα@@ 2
κόρα@@ 2
ἀπεκρίθησαν@@ 2
ἱστήκει 2
ἅπτε@@ 2
καταστρεψάμενος 2
νίους 2
προφήτας, 2
διδασκάλους, 2
κατοικ@@ 2
κυρίοις 2
βασιλέος 2
ὠνόμα@@ 2
λοῦν 2
Δημήτριος 2
πος, 2
παρεί@@ 2
Ἀνδρέαν 2
ψιν 2
βολὴ 2
ψις 2
διώκω@@ 2
εἰκότως 2
χρῆναι 2
πέντε. 2
προσό@@ 2
λουμένοις 2
τράπε@@ 2
Περσέων 2
στρατεύμα@@ 2
ῖε 2
ποτηρίου 2
ψί@@ 2
ἐνομί@@ 2
ζετο, 2
ἀπισ@@ 2
ἀπεδοκίμασαν 2
ἐγενήθη 2
κωλυόμενος 2
βουλόμενον. 2
σταις 2
Ἰόππην 2
ὑποστρέ@@ 2
ἅρ@@ 2
γίνω@@ 2
κόκ@@ 2
λοιπ@@ 2
μεμνη@@ 2
ἐκεῖσε 2
τᾱ̓@@ 2
φημί@@ 2
νοσ@@ 2
ζομένους, 2
δεικ@@ 2
διδασκαλίαν 2
ῆς; 2
μαθηταὶαὐτοῦ 2
βουλεύεσθαι 2
Ἀργε@@ 2
ξυμμάχο@@ 2
μεγαλο@@ 2
πρεπε@@ 2
φαίνο@@ 2
τάραχος 2
ὀλίγος 2
ὁδοῦ@@ 2
ἐπικρα@@ 2
ἀξιο@@ 2
κατώ@@ 2
ἔκειτο 2
προσθέ@@ 2
ντικ@@ 2
νίας, 2
νωσιν 2
Αἰμί@@ 2
πολεμίους. 2
Ἰούδα, 2
λλα 2
πλίνθ@@ 2
αὐλὴν 2
προβάτων 2
ζου 2
ήσετε 2
χαρᾶς, 2
Μακεδονίαν 2
ὀψα@@ 2
ἀμπελῶνα 2
κατάβηθι 2
ουσα, 2
ἀποστείλας 2
ἐνέγκα@@ 2
κυρίῳ· 2
ἀνάπαυ@@ 2
θρόνου 2
σύνη@@ 2
Πρό@@ 2
σσω 2
τέκνοις 2
κοντού@@ 2
βαρ@@ 2
πάν@@ 2
σφίσιν 2
ἐπιτήδε@@ 2
κης, 2
Ἐβραϊ@@ 2
Ῥα@@ 2
Διδάσκαλε@@ 2
δρᾶ@@ 2
ἀπολλύ@@ 2
μους. 2
μάθετε 2
Ἀγαπ@@ 2
πᾶσιν@@ 2
βραδυ@@ 2
ἡγοῦ@@ 2
βαρβάρους 2
κατέβαι@@ 2
φεν 2
Ἰούδα 2
σῆλθεν 2
πραιτώ@@ 2
νοἰ@@ 2
ῆλθον, 2
παραλυτικ@@ 2
ἀπέθανεν, 2
ἁμαρτίᾳ 2
ππα@@ 2
y@@ 2
t@@ 2
h@@ 2
Πύρρου 2
ἐπηρώ@@ 2
ινῶν 2
πρόδη@@ 2
ἐπακολου@@ 2
νον; 2
ἀκούσωσιν 2
ἐδόκουν 2
εἴπη@@ 2
ἀναγνω@@ 2
λή, 2
ἀναγνῶ@@ 2
ἡγια@@ 2
λλομένους 2
μεταβα@@ 2
όντας 2
πετειν@@ 2
εἴδω@@ 2
Γενομένης 2
ρά. 2
στρατηγο@@ 2
νθη 2
Σπαρτιά@@ 2
φυσι@@ 2
Ἐλ@@ 2
Δίδυ@@ 2
ἑορτῇ 2
τῆρʼ 2
ὧδε· 2
Θά@@ 2
Νέ@@ 2
πάλιν. 2
ἄνωθεν 2
ἀδή@@ 2
ου; 2
δώδε@@ 2
παρέθηκεν 2
πεπιστευ@@ 2
ησεν 2
Ἰουδαίας, 2
Καισαρίαν, 2
λῷ@@ 2
ἀπαγγείλα@@ 2
ἀνθρώπους@@ 2
ἀποδ@@ 2
ἐνετύ@@ 2
ἀπιστί@@ 2
ἐνκεντρι@@ 2
Σώ@@ 2
τοῦχριστοῦ 2
μασιν@@ 2
Κασσίου 2
διαφερο@@ 2
πτῶ@@ 2
σύμφορον 2
θῶσιν. 2
Ἀκαρ@@ 2
λίᾳ 2
Αἰθ@@ 2
ἡμέρᾳ, 2
ἐβάπτισεν 2
σθήσεσθε 2
ὑπήντησεν 2
σημεῖον. 2
δρυ@@ 2
δραχ@@ 2
Σκυ@@ 2
βασιλέες 2
ἐπεὰν 2
καλλί@@ 2
εται 2
κης 2
πια 2
νόν, 2
βάλλοντας 2
ἔρις, 2
μεγάλαι 2
κρή@@ 2
βαίνειν 2
θεῖσαν 2
ὅραμα 2
βλέπειν. 2
ἔσε@@ 2
θυγατέ@@ 2
Ἑλλάδα, 2
ἔστε@@ 2
Δίʼ, 2
τρόπους 2
βαλλόμενοι 2
σημεῖον, 2
κάλλιστον 2
Διονύσι@@ 2
ρους. 2
κοσί@@ 2
ἄρτοι 2
ἀρκοῦ@@ 2
τιμῆς 2
καλού@@ 2
συνέκλει@@ 2
ἰχθύων 2
κασι 2
Λακεδαιμόνιο@@ 2
τελωνῶν 2
ὑστεραίᾳ 2
ἐπορεύο@@ 2
πολέμιοι 2
Ἀκούε@@ 2
διελογίζοντο 2
ἡγεμο@@ 2
νεύο@@ 2
ϊος 2
πάσχ@@ 2
παρεδί@@ 2
Ῥινῶν 2
θεῖσα, 2
νούσημα. 2
ἀνταποδοῦναι 2
εἶπεναὐτῷ 2
τῶς 2
ἡγου@@ 2
ἀριστο@@ 2
στʼ 2
ἄρχοντι 2
Νῶε 2
ἀφει@@ 2
ἐναντι@@ 2
πολεμίοις. 2
ρί 2
πλέοντας 2
σοῦ. 2
κηρυ@@ 2
Ἰερουσαλήμ· 2
ῆλθεν, 2
ἄφετε 2
αὐτοῖςὁ 2
ὑδ@@ 2
ρινθ@@ 2
τύχω@@ 2
ὁρκωμοσίας 2
υἱόν, 2
προπεμφ@@ 2
λεύθε@@ 2
ἐδέξαντο 2
ἡγ@@ 2
φιλαδελ@@ 2
συρί@@ 2
πάθω@@ 2
Ῥωμαϊ@@ 2
ξάμην 2
σεῖ 2
γειν 2
ὄχλον. 2
τεραι 2
Ἀσ@@ 2
18. 2
ἀπερ@@ 2
Τιμολέο@@ 2
ντον, 2
μερίμ@@ 2
διαλογίζεσθε 2
ἐνταῖς 2
ἑτοιμάσαι 2
Πελοπί@@ 2
Ἰησοῦςεἶπεν 2
ἀπόδοτε 2
Ἐγέ@@ 2
χαν 2
λάθ@@ 2
ἐμὴν@@ 2
θλίψεως 2
εἴη, 2
πεζῶν 2
ζητή@@ 2
μετρι@@ 2
ἀγνοοῦ@@ 2
ἀθέ@@ 2
ῤῬαγέ@@ 2
ἀπέστειλα 2
φιλαδελφί@@ 2
τρίτη 2
σή@@ 2
ἀρρω@@ 2
τοῦντας 2
εἰώ@@ 2
ὥρην 2
παρακά@@ 2
ἀδελφούς, 2
ὦμεν 2
φερόμενοι 2
πανου@@ 2
ῶσιν, 2
θώ@@ 2
μνειν 2
πνεύματός 2
χαρά@@ 2
ωσύ@@ 2
πίστις, 2
βιβα@@ 2
ἐγερθήσεται 2
πους, 2
ἀρχὴ 2
λʼ 2
οἷσιν 2
κτα 2
ἐζή@@ 2
ἰδέ@@ 2
ἀτ@@ 2
νυκτός, 2
ᾠ@@ 2
ἐπιδώσει 2
σθή@@ 2
ὄνομά@@ 2
άτω 2
πράττειν 2
οὐα@@ 2
Βα@@ 2
εὐλαβε@@ 2
ἐγγύς 2
έας 2
ἔχουσι, 2
Ἀντίπατρος 2
νησιν 2
τοί, 2
περιι@@ 2
ωμεν. 2
μοῦνον 2
ῇσαν 2
γάρ· 2
παισὶ 2
μοις, 2
Ἰων@@ 2
ᾶ. 2
ύνα@@ 2
ξυν@@ 2
χρόνους 2
σίᾳ, 2
βουλεύ@@ 2
τιμωρίας 2
κρατήσαντες 2
ὔτε 2
ὑποτά@@ 2
τοιούτοις 2
ἀφρο@@ 2
τρώγων 2
πυρώ@@ 2
ξένου 2
γγέλλο@@ 2
ξουσιν 2
ἀναστήσεται. 2
ὑποκρι@@ 2
λέη@@ 2
εἴλη@@ 2
αὐτή@@ 2
ὅκως 2
σεμν@@ 2
ἀπώλειαν, 2
εὐων@@ 2
βαζος 2
μηδί@@ 2
κουστω@@ 2
οἴδατε. 2
εἷλον 2
ἠνδρα@@ 2
Μιλτιά@@ 2
Λάζαρος 2
Μαρίας 2
προσθεῖναι 2
γίνεσθαι 2
ψεις, 2
παρασχεῖν. 2
καταβολῆς 2
ἀποτα@@ 2
ναῦται 2
ζονται, 2
ἐμί@@ 2
Μεσσά@@ 2
ττε 2
παραιτη@@ 2
ζοντα, 2
βαλόντα 2
μαχίᾳ 2
Ὀζε@@ 2
διαβαίνειν 2
μηνύ@@ 2
ὦσιν, 2
ἐσθῆ@@ 2
κοντο 2
Τρα@@ 2
τινάς. 2
Ἰερουσα@@ 2
ννης 2
κων, 2
κήρυγμα 2
ὶοὐκ 2
Δαμασκῷ 2
τινά@@ 2
τᾷ@@ 2
ΕΙ@@ 2
ἐλπ@@ 2
χεῖρας, 2
καρδίας, 2
ἔρχεται@@ 2
θεῷ@@ 2
ἰᾶ@@ 2
λαῷ, 2
Πομπηΐου 2
βον, 2
τὸεὐαγγέλιον 2
Ἰσρα@@ 2
ὴλ@@ 2
ἀτό@@ 2
μῳ, 2
ρῶσαι. 2
Ὡ@@ 2
αἰδοῦς 2
ἐδοξάσθη 2
Καρχηδονίους 2
Τιμολέων 2
σθέντων 2
ἡσυχίαν 2
διανε@@ 2
ποιούμενος 2
σπείρης 2
μει 2
ὀνειδισμὸν 2
ὁρίων 2
δέσποτα, 2
μνε@@ 2
Ἀθηναίων. 2
Κέ@@ 2
φέρονται 2
τρεῖς· 2
σωτὴρ 2
ὀσφύ@@ 2
ἡμέρην 2
ὑποκρινέε@@ 2
τροφ@@ 2
ϊ. 2
πληρωθῶσιν 2
ῆ, 2
Τιμό@@ 2
καταβαίνο@@ 2
ὑπερβάλλουσαν 2
νός. 2
τὸς@@ 2
δοθεῖσαν 2
Τίνα 2
ἐνεργου@@ 2
μένηνἐν 2
γίνεσθε. 2
ἁπλότητι 2
ἀσφάλειαν 2
κἀκεί@@ 2
μενεῖν 2
χ 2
ουν. 2
Ἰε@@ 2
πέντε@@ 2
γένησθε 2
πτοι 2
ἐδύναντο 2
Βυζαντ@@ 2
ἐλήλυθεν 2
Κάτωνος 2
βίαν 2
φεύγοντες 2
λῶς 2
αἰῶνα· 2
κατηγό@@ 2
συναρμο@@ 2
ἄριστο@@ 2
εἶπε. 2
δεια 2
ἰώ, 2
νοεῖτε 2
λεν. 2
ὠφελοῦ@@ 2
᾽@@ 2
ῶνος 2
γεγονέ@@ 2
Ἰεροσολύμοις 2
φιλοσό@@ 2
ἀλλό@@ 2
πτης 2
νάλω@@ 2
μενοῦ@@ 2
πολιτείας 2
νούμενον 2
τίνων 2
πλευρί@@ 2
ῤῬοια 2
νια@@ 2
ἀσθενὴς 2
σκέψα@@ 2
ἀληθῆ 2
αἶ@@ 2
σεσω@@ 2
σμένοι, 2
κατεργα@@ 2
ζομένου 2
διερμη@@ 2
ἐκκλησίᾳ, 2
Ἀγρίππα, 2
ὑποστάσει 2
πόλεως, 2
ὀφρύ@@ 2
ᾠκοδόμη@@ 2
κρημ@@ 2
σκευα@@ 2
Ἡρῳδιά@@ 2
δης, 2
σίως 2
νεῖς. 2
προσφά@@ 2
ἔχετε; 2
ὴλ 2
τιδος 2
όντα 2
κἀγώ@@ 2
πονέε@@ 2
ἑτοῖμα 2
παρεκελε@@ 2
ρην, 2
Ὡμοιώθη 2
ἀγῶνα 2
θερά@@ 2
εἶδε 2
ἀγγέλου 2
Ἀλεξανδ@@ 2
ριν@@ 2
οἰκτιρμῶν 2
κατῆ@@ 2
ττόν 2
ἀφανί@@ 2
κρίσεις 2
σμῶν. 2
Πελοποννήσῳ 2
ποτί@@ 2
σπερ@@ 2
σῶμα. 2
μισαν 2
φαρμακείῃσι 2
ἰόντα 2
χρήσι@@ 2
μᾷ, 2
παραδίδο@@ 2
ἐβούλε@@ 2
ὑπῆρχεν 2
δων, 2
παραδι@@ 2
βασιλεία@@ 2
φεύγειν 2
Καίσαρα 2
φυγ@@ 2
ἐξορ@@ 2
τελ@@ 2
κρυπτὸν 2
σθήσεται. 2
Βοιω@@ 2
εἰσέ@@ 2
λέγεις, 2
λαμβάνει, 2
προβάτων. 2
χειμά@@ 2
αὐτί@@ 2
κʼ 2
ἀμείβε@@ 2
τρῶν 2
ῆλθε 2
ΤΜΗΜΑ 2
ΤΟΝ@@ 2
ἁλεεῖ@@ 2
Θεω@@ 2
φλα@@ 2
ῦρον, 2
περισσοτέ@@ 2
ἀφίησιν 2
τράχη@@ 2
ὀστέου 2
βασιλεύ@@ 2
τὸνοἶκον 2
ἀγγέλῳ 2
γράψονΤάδε 2
ὀξε@@ 2
ῥήτορος 2
χομεν 2
παιδευ@@ 2
ὑποτα@@ 2
εἰκ@@ 2
Θή@@ 2
φοβηθεὶς 2
ἥξουσιν 2
ἀνατολῶν 2
Πομπήιον, 2
ὸςὁ 2
δοκοῦμεν 2
ζῆ@@ 2
θυμο@@ 2
σωτηρίας· 2
Δελφο@@ 2
πολιν. 2
πιέ@@ 2
Ναζαρη@@ 2
δά 2
ἐπιδείξα@@ 2
νόμι@@ 2
κατοί@@ 2
εἰσπορευό@@ 2
παρρησιαζόμενος 2
Βρασίδου 2
εν@@ 2
ἐξαλεί@@ 2
θήσεσθε 2
ἐνδόξ@@ 2
ζοντες@@ 2
γεγυμνα@@ 2
σμένην 2
Ἰωσή@@ 2
περιπατῇ 2
τοξε@@ 2
μεγάλ@@ 2
Ἄρτε@@ 2
παρέλθῃ 2
ἐλθούσης 2
ρούντων 2
πλειόνων, 2
μαστί@@ 2
ἔλαβον, 2
ἔν 2
γονεῖς@@ 2
Οἴδαμεν 2
κηρύξαι 2
κριτὴς 2
ἀνθρώποις· 2
χῶρον 2
Λίβυες 2
ἀνέγνω@@ 2
λις 2
ἀρτί@@ 2
Νῦν 2
βὴ@@ 2
στός 2
Μῆδοι 2
σιος· 2
ὅστις@@ 2
ὄλεθ@@ 2
Ἢ 2
σκου@@ 2
ἡμέρας@@ 2
Πέτρον, 2
ἐξέπεμ@@ 2
Καρχη@@ 2
Συρακουσῶν 2
ψε 2
μένει@@ 2
ἀγγείοις 2
Βηθλεὲμ 2
πορεύεσθαι. 2
ιεν, 2
θεμε@@ 2
ὀνόματα 2
ἀρνί@@ 2
ὁρμῇ 2
μακάριος@@ 2
μοσύ@@ 2
ὅποι 2
χριστός· 2
άν. 2
γινώσκει 2
σιοι 2
δυναστε@@ 2
κριτή@@ 2
ρα· 2
φόρου 2
πολλαῖς 2
ὑπακούε@@ 2
εὐάρε@@ 2
τυφλοί, 2
θλίψει 2
ὁρκωμο@@ 2
ἐνθαῦτα 2
ἐστι, 2
ρεσιν, 2
γυμνὰ 2
λικῆς 2
Πτολε@@ 2
γέγονα 2
Συμε@@ 2
εὶ 2
ὰρ 2
Δικαιό@@ 2
νούντων 2
οὖσαι 2
φάσκοντες 2
ἱκανῶν 2
λθεῖν· 2
σκυθρωπο@@ 2
ῆναι. 2
τους. 2
ἐδόξαζον 2
οἴκου@@ 2
δην. 2
για@@ 2
ὑπισχ@@ 2
ἔτεκεν 2
όν· 2
θρόνῳ 2
ἀληθι@@ 2
ὑποστελλομένους 2
σίους 2
σκοπεῖν 2
σῴ@@ 2
ἁγίῳ, 2
διάβολος 2
ἁγίαν 2
πτερύ@@ 2
ια. 2
σμένων 2
ριον@@ 2
ντιον 2
ὁπο@@ 2
Δαυεί@@ 2
τιθεὶς 2
ἐτό@@ 2
φανέ@@ 2
λαμπρὸν 2
ξάντων 2
φαῦ@@ 2
φόρον 2
ετο 2
Νικίας 2
διετέ@@ 2
εἶχο@@ 2
λαόν, 2
ὄψῃ. 2
ἔφευ@@ 2
εὐλόγη@@ 2
εἴδωλα 2
ναυσὶν 2
μνησθῆναι 2
γνη@@ 2
εὐχαριστοῦντες 2
κυνα@@ 2
βλα@@ 2
αὐτός. 2
ίβ@@ 2
Τισσαφέρνην 2
ἔκλασεν 2
εῖν 2
φρονοῦντες 2
ύεις 2
ἔθνος. 2
ἐξαρ@@ 2
Βρασί@@ 2
στη, 2
μείνας 2
ἐδῄ@@ 2
νῆσον 2
ξευ@@ 2
τάξει 2
βλεπο@@ 2
τίς@@ 2
ζει; 2
συνέδριον 2
ὀλίγα 2
67. 2
προσδραμὼν 2
ἔλασσον 2
Z@@ 2
ντάς 2
πράττο@@ 2
ἀπηλλοτριω@@ 2
μένοι@@ 2
βασιλικ@@ 2
βήματος 2
Ἱππο@@ 2
ραὶ 2
γραφῆς 2
εἰμί@@ 2
παριὼν 2
περὶαὐτοῦ 2
αἰώνιον, 2
ἐπιδη@@ 2
ξένοι 2
ὄφις 2
ἔδησεν 2
καλεο@@ 2
ἐστρατοπεδε@@ 2
συκο@@ 2
Ἰακώβ@@ 2
ὄρ@@ 2
φασι 2
ποιεῖν, 2
ἐπίπλοον 2
τ 2
ὅσιόν 2
Κερα@@ 2
θάλατταν 2
τέον 2
σίην 2
ὠφελεῖ, 2
πραγ@@ 2
μένων· 2
τῆςγῆς, 2
ἡγούμενος 2
Κλεομένης 2
δεω 2
διέβη 2
αἰτι@@ 2
10. 2
Ζαβουλὼν 2
Βενια@@ 2
ἀσφά@@ 2
Ὑμῖν 2
ἀμή@@ 2
μων@@ 2
μειζόνων 2
λόγους. 2
Τοῦτό 2
ἡμεῖς@@ 2
τοῦἀνθρώπου 2
ἀναστῆναι. 2
ταύτης, 2
ὀρθῶς 2
κρέσσων 2
δύναμι@@ 2
λαβον, 2
σσον, 2
τρέφει 2
νει. 2
Ἕλληνας. 2
οὔσης 2
ἐπέγνω@@ 2
μάρ@@ 2
παρέξε@@ 2
ἀπέκτειναν 2
ῆναι, 2
μαθηταί. 2
γινω@@ 2
σῴζεται 2
νῆς. 2
Ἰούδα@@ 2
ἀναγινώσκων 2
οὔπω@@ 2
κατέβη 2
ἐτελεύ@@ 2
ἑαυτού@@ 2
των. 2
γυνή 2
ντιν@@ 2
παρακλήσε@@ 2
ἐξαπο@@ 2
ὥρα, 2
κη 2
ὑπερβολῇ 2
ὑπεραίρω@@ 2
ουργ@@ 2
ιαι 2
ἐκόσ@@ 2
ὑποτασσό@@ 2
ἀνδράσιν, 2
περιπάτει; 2
τετρακισχίλιοι 2
ἁμαρτίαι. 2
μυριάδες 2
ἐξέχεεν 2
λοῦ 2
ἀξ@@ 2
ποιμ@@ 2
ύεται, 2
τουτέοισι, 2
διαπυ@@ 2
ήσαντος 2
εἰσὶ 2
τέχνην 2
ἔχουσι 2
ἀρχο@@ 2
ἡσυχί@@ 2
ἁλε@@ 2
χαίρειν. 2
ὀφθαλμός, 2
κενὴ 2
σκοπεῖτε 2
ἐχούσαις 2
θηλαζούσαις 2
Πλει@@ 2
ῦ. 2
ἔχομεν. 2
ἐληλύθει 2
πνέο@@ 2
κελευόντων, 2
θυρω@@ 2
Χεί@@ 2
δακρύ@@ 2
σαπρὸν 2
ξεῖ@@ 2
ἄνεμος 2
ἐπιστ@@ 2
κήρυκα 2
μηδέποτε 2
φορτί@@ 2
δείκνυ@@ 2
ὐτό@@ 2
γνώμης 2
ἀνάγκην 2
ὁρώ@@ 2
μῦθον 2
λαλού@@ 2
μενον; 2
ἀδικεῖν 2
ἰδίων 2
κατοικῆσαι 2
Λακεδαίμονα 2
μείνῃ 2
ὕβρι@@ 2
νθανέ@@ 2
ὑποταγ@@ 2
διεσκόρπι@@ 2
ποιοῦντα 2
δέχο@@ 2
ῥαφίδος 2
εἰσελθεῖν. 2
πληροφο@@ 2
ῤ@@ 2
σιον, 2
φρί@@ 2
δόξῃ. 2
ὁράσει 2
ἐλθεῖν· 2
Μάρκιος 2
λια@@ 2
στὸς 2
μέλλω 2
ψυχά@@ 2
ἐγενήθη@@ 2
Οὐχί, 2
πάτερ 2
μάχεσθαι, 2
ἤνοι@@ 2
κρατεῖν 2
καλοῦ 2
θυγατέρες 2
ἅρμα 2
Περσέως 2
ἐξαυτῆς 2
καταλείψει 2
ὀξυ@@ 2
πλεύσασαι 2
ρικοῦ 2
Ὠ@@ 2
βελ@@ 2
ἀνι@@ 2
χρί@@ 2
δημοκρατ@@ 2
χωρὶς@@ 2
Ἀρκά@@ 2
Ἀχαι@@ 2
νομά@@ 2
δυνατὸς 2
ἄπιστο@@ 2
περιό@@ 2
ἐκλεί@@ 2
ἡλίου. 2
βώ@@ 2
ῖν; 2
Αὐτοὶ 2
πόσῳ 2
προβά@@ 2
ἀμὴνλέγω 2
γραφῶν 2
ττοῦ 2
Ναθανα@@ 2
ἐνθά@@ 2
χαρὰ@@ 2
Σαλαμ@@ 2
γγελλον 2
φθησαν 2
πεῖν, 2
ἐρωτῶ@@ 2
στρατοπεδε@@ 2
ἔλεγε@@ 2
πάντα· 2
μιδος 2
ἐμοὶ@@ 2
θέλητε 2
ᾷ· 2
πλεῖστα 2
σχέ@@ 2
ύεσθαι, 2
ρεῖν, 2
τἄλλα 2
κυῖ@@ 2
Ἱκέτης 2
θείς 2
ὄξους 2
παράδοσιν 2
προσῆ@@ 2
ἵναᾖ 2
ἀνδρί. 2
ζουσα 2
δεδιὼς 2
M@@ 2
χολῆς 2
φέρε 2
τὴνοἰκίαν 2
στερε@@ 2
τροφή@@ 2
πρεσ@@ 2
ἧσσο@@ 2
αὐτέ@@ 2
ξυνα@@ 2
σκει. 2
Πειλᾶτον 2
ἑκατόντα@@ 2
Ῥωμαῖον 2
τρέπεται 2
θερισμὸς 2
κινδυνεύο@@ 2
κράξας 2
ἔχω, 2
κρύφα 2
ναῦν 2
λατ@@ 2
Ἐρε@@ 2
ποιοῦν 2
συναγα@@ 2
ἔπεμψαν 2
ἔπεμψε 2
Ἰσκα@@ 2
ὼθ 2
ώδεκα 2
ἐκραύγα@@ 2
εὐπρόσδεκτος, 2
εἶχε 2
κες, 2
ἰδώ@@ 2
παραγγεί@@ 2
πόρρω 2
ἀγαθοῖς 2
χθεὶς 2
Παίο@@ 2
ἁλι@@ 2
λαβόμενοι 2
ἄρτος 2
διή@@ 2
πολύς. 2
βασιλι@@ 2
ωμο@@ 2
ἐξι@@ 2
ὁρᾷ 2
ήσας@@ 2
σπέρμα, 2
ὡσαύτως· 2
δοκοῦ@@ 2
ἁλό@@ 2
ἡττη@@ 2
ἐγκατέλι@@ 2
νεῖς, 2
κοινῷ 2
Ἱ@@ 2
παρρησια@@ 2
καθήμενον 2
φαὶ 2
ἐνοι@@ 2
ὑποζύ@@ 2
φθει@@ 2
ἂ@@ 2
στου 2
βρώσεως 2
φοβε@@ 2
ἐτέλεσεν 2
χρηστήριον 2
ἧττον 2
Δημοσθέ@@ 2
θυμοῦ@@ 2
μέλει 2
χαίρω@@ 2
πέντε, 2
ἑπτά, 2
Ἀναξίβιος 2
λῷ 2
σεται. 2
ὑποχωρῶν 2
διώκειν 2
δόν 2
ἄλλη@@ 2
Ἀρχ@@ 2
Πάρ@@ 2
ἐπιθυμίαν 2
δεν 2
ἐυ@@ 2
θυγά@@ 2
διὸ@@ 2
γενεᾷ 2
ξυμμαχίας 2
θέμενοι 2
δώματος 2
μνημονεύο@@ 2
ἀγεν@@ 2
διδόντες 2
τρω@@ 2
δὲκαὶ 2
Ἑρ@@ 2
ξος 2
ἔθα@@ 2
ψαν. 2
ὁμοίως@@ 2
ώντων 2
αὐτοῖ@@ 2
χωρίου 2
θητι 2
πύη@@ 2
νεανίσκο@@ 2
νενική@@ 2
Καὶὁ 2
ἀγάπην, 2
πόλις, 2
ἰχθ@@ 2
ἐλογί@@ 2
ἀκροβυ@@ 2
ὀλίγας 2
Σάμον, 2
ντησεν 2
Λάβε@@ 2
ΧΑΡ@@ 2
Κύκλω@@ 2
κάρα@@ 2
οὑ@@ 2
μοιχο@@ 2
ἔγκλη@@ 2
γόγγυ@@ 2
φαγεν 2
δόξη@@ 2
δόμων 2
κτεάνων 2
σοί@@ 2
κους. 2
εἰσπορευόμενον 2
κωφό@@ 2
κωφός. 2
τύχο@@ 2
ἀγαθῆς 2
Ὀψ@@ 2
ἐκκλη@@ 2
κεχυ@@ 2
ᾔδεισαν 2
ὑστερη@@ 2
ὀφθαλμοδου@@ 2
παρθένοι 2
νία@@ 2
φυλάσσε@@ 2
ταν@@ 2
μμα@@ 2
βαρυ@@ 2
νιος· 2
λίαν, 2
πληρο@@ 2
λέξατο 2
κρατ@@ 2
πολλά 2
Ἰωάνου, 2
ἑαυτοῦ, 2
αἱρε@@ 2
ῥη@@ 2
ἀγὼν 2
τησαν 2
ἐπείτε 2
ὑποστρέψασαι 2
συχ@@ 2
ἔβαλον 2
πτόμενος 2
ἔργα@@ 2
ἆρα 2
ἐλπίζων 2
ὡμί@@ 2
κόπους 2
παρακλήσεως, 2
θανάσι@@ 2
σφόδρα@@ 2
ἀναβαίνο@@ 2
κόρυ@@ 2
μονογεν@@ 2
ζῆν 2
ὑποσπόνδ@@ 2
βου 2
ἀνδρά@@ 2
πεμφ@@ 2
πυνθά@@ 2
τρίβε@@ 2
νικη@@ 2
θέντας 2
έναι. 2
ἡμῖν@@ 2
πονηρῶν, 2
τραν 2
Ἀντωνίου 2
ὤφει@@ 2
ὑποπόδιον 2
ὁκό@@ 2
ᾐτήσατο 2
μαθὼν 2
μιν@@ 2
ἀφορ@@ 2
ψευδε@@ 2
ἀπήντησαν 2
ἀνέστησαν 2
ὑγιῆ 2
Ἆ@@ 2
περιπάτε@@ 2
ὁμοιω@@ 2
τεν 2
ἀρχιερεῖςκαὶ 2
εὑρίσκω 2
ἄναξ, 2
ἵλα@@ 2
ΤΕ@@ 2
νίκης 2
ἔπεμ@@ 2
λθόντι 2
ἔθυ@@ 2
εἴα@@ 2
Ζεῦ, 2
καλυ@@ 2
e@@ 2
στήλην 2
πλήθους 2
παρῆν 2
μελε@@ 2
γινωσκό@@ 2
ΙΗΣ@@ 2
μ· 2
ργός 2
εὐρυ@@ 2
πόροι 2
σσας 2
ὁλκ@@ 2
φορᾷ 2
στρογγύ@@ 2
κοψεν 2
εὐτυχίᾳ 2
ἐλαίῳ 2
Σερ@@ 2
ἐξῆλθαν 2
δομα 2
μοιώ@@ 2
μαίνε@@ 2
ἔσεσθαι. 2
κεφαλα@@ 2
τὴρ 2
ἀνακρίνας 2
πλευσαν 2
προσά@@ 2
τουσα 2
ὁδό@@ 2
ἐξακολου@@ 2
ἀπέστησαν 2
Ἰουδαῖοι, 2
πεπρα@@ 2
της· 2
βασιλείαντοῦ 2
ἀφθαρ@@ 2
ὁδοῖς 2
δοῖ 2
ομαι 2
λὴν 2
κῶς 2
ὑστέρης 2
ήσομαι. 2
ῦον 2
διάνοιαν 2
φίλοι@@ 2
λαλε@@ 2
Ἰακώβ, 2
σοφι@@ 2
πεντηκο@@ 2
ὁμοῦ 2
οὔ; 2
μινον 2
κατακυριε@@ 2
ζουσιν@@ 2
Σικελίαν 2
εἶχεν. 2
σημαίνων 2
ἐπιφά@@ 2
τούτους, 2
νδου@@ 2
ὁπλίτας, 2
εἴα 2
στει 2
ψυχῶν 2
λλε 2
ταυ@@ 2
θηρίον 2
Ἰωάνην, 2
ὕψος 2
ρχων 2
βραχίο@@ 2
ἐκωλύ@@ 2
τρίτης 2
μαχομένους 2
σινα@@ 2
ἀσθενῶν 2
ἀσεβ@@ 2
ἀλλήλοις, 2
κατήγο@@ 2
φήσαντος 2
ἀπειθήσα@@ 2
πόν 2
λγε@@ 2
ἄλλους, 2
φθην 2
μόνος, 2
ἐσμεν, 2
λιά@@ 2
δαΐ@@ 2
συγγε@@ 2
θαυμάζε@@ 2
λίων 2
ιοί 2
Φιλί@@ 2
ἔχε 2
τύχῃ 2
αἴσθη@@ 2
ἐποίησε 2
λοῖ 2
Τέκ@@ 2
χρήσιμον 2
ἄν. 2
εὐω@@ 2
ματί@@ 2
Παῦλον. 2
ώτα@@ 2
δεξάμενος 2
ἑαυτούς· 2
ἀνάστα@@ 2
ἐχθροὶ 2
ταπεινῶν 2
Τίο@@ 2
φίλη@@ 2
ῆλθο@@ 2
νοήματα 2
στα, 2
λαλεῖ, 2
ύματα 2
γγεί@@ 2
τηρεῖν 2
φήμη 2
Ἄρτεμιν 2
θυγατέρα 2
νύμφην 2
λήνην 2
ἱδρυ@@ 2
παρασχ@@ 2
οἰκι@@ 2
βουλῇ 2
βας 2
ἔχον 2
ἀσελγείᾳ 2
ὥρμησαν 2
ρίδα@@ 2
πων. 2
πάτερ, 2
σχα@@ 2
ἀτί@@ 2
πάσχα. 2
γγέλλομεν 2
Θρᾷκας 2
γμένοι 2
ἦσαν· 2
βάθος 2
ὀργυιὰς 2
λανθάνει 2
Ἱπ@@ 2
Κορίνθ@@ 2
φραγ@@ 2
βιο@@ 2
τᾶς 2
μαχος 2
ἰσό@@ 2
ὶμ 2
ἐλευθερω@@ 2
ἐρήμῳ, 2
μέλλῃ 2
μνημε@@ 2
ἐγὼν 2
ὑμέων 2
ὑστέρη@@ 2
εἴτʼ 2
ἐνυ@@ 2
Ἀπο@@ 2
ὁκόταν 2
ἱδρῶ@@ 2
ἐξέπλευ@@ 2
Ὁμο@@ 2
ότητα 2
δοῦναι. 2
Βοιωτοὶ 2
στάσις 2
ἐπιλη@@ 2
προειρη@@ 2
Γ 2
σαββάτων 2
Κάσσιον 2
προσιό@@ 2
νότον 2
συνανακει@@ 2
σπουδῇ 2
νόμοι@@ 2
πε, 2
γυναῖκας, 2
εἰσιν· 2
ός· 2
δόμοι@@ 2
Ἐρινύ@@ 2
συνέδ@@ 2
Πομπήϊον 2
Βροῦτος, 2
ἔχετε, 2
ὑπόμνησιν 2
θεμέλιον@@ 2
ὀξύ@@ 2
ταται 2
πειρᾶ@@ 2
ήματα 2
ἄρξα@@ 2
φρουρὰν 2
λομεν 2
δυνατοὶ 2
δαμ@@ 2
ἐλυ@@ 2
ἤγα@@ 2
μεγάλως 2
ὀφθαλμῷ 2
ἀνατεί@@ 2
δελφο@@ 2
ἁπλό@@ 2
ἱλα@@ 2
ἑταί@@ 2
ὁρῶ 2
ἐμφανί@@ 2
λιπὼν 2
ὅτιἐκεῖνος 2
ἐρωτήσαντος 2
πολιτείαν 2
πλεῖστοι 2
πολιτε@@ 2
στάσεως 2
ἀγωνί@@ 2
περιπατεῖτε 2
Ζα@@ 2
ἔσχατα 2
νουσήματα 2
κεν· 2
Πομπή@@ 2
ὀκνη@@ 2
λέγουσι 2
σαντα 2
ἐπιτελέσαι 2
ζῇ 2
πειθό@@ 2
Ἰσραήλ, 2
μυχ@@ 2
δειγμα 2
βίον, 2
πράγμα@@ 2
ἐξουσία@@ 2
στέγην 2
ττον 2
πων, 2
Ἑρμῆ@@ 2
Πελοποννησίοις 2
ἁγίων. 2
γεννηθεὶς 2
ἀστε@@ 2
λύσαντες 2
σπονδὰς 2
σθεῖσα 2
φθω 2
Ἐπαίνε@@ 2
ἀδικη@@ 2
νύκτωρ 2
χῳ 2
τάσσεται 2
ἀνέστησεν 2
ἄκανθαι 2
καρπ@@ 2
Ἀγαπη@@ 2
Νικόδημος 2
γον. 2
δόξαν, 2
βουλὴ 2
κά 2
ἑστή@@ 2
ασσ@@ 2
Σαλ@@ 2
ρέθην 2
ῖραν 2
λθοῦ@@ 2
ππον 2
ὄψεσθε 2
ἀποσι@@ 2
πονηροῦ 2
λθοῦσα 2
ἐρα@@ 2
Τή@@ 2
Πειλᾶ@@ 2
τούς. 2
χαίρω 2
κάρι@@ 2
δαιμον@@ 2
χρόνου 2
ὄλ@@ 2
δαν 2
ἠδι@@ 2
Ὑψίστου 2
φὸν 2
μενον· 2
οὐκέ@@ 2
σιδη@@ 2
φος, 2
Ὃν 2
Ἀρτε@@ 2
μᾶν 2
κον, 2
Νικό@@ 2
λύχνος 2
Τεκνία, 2
τοιαύτας 2
ύεσθαι 2
γυνή, 2
στερα 2
βησαν, 2
πυνθανο@@ 2
ριο@@ 2
παρέχειν 2
ἧτταν 2
μελλούσης 2
φόρους 2
Ἕλλησι 2
ἐπανῆλθεν 2
κετο 2
χε, 2
ῤῬα@@ 2
ὁἀνὴρ 2
πολλῶν@@ 2
ποτε@@ 2
ὑποζυγί@@ 2
Τιμολέοντι 2
σίοις 2
Ἑλλά@@ 2
ριθ@@ 2
μεῖσθαι 2
πρωτότο@@ 2
ίους, 2
ρος· 2
θαρσ@@ 2
οῦσα, 2
ἐκράτη@@ 2
βόησεν 2
μονο@@ 2
πλοι@@ 2
καμεν, 2
δυστυχ@@ 2
ἄνθρωποι, 2
ΚΗ 2
χρῆσθαι 2
θροεῖ@@ 2
φοβηθῆτε 2
θῆτε, 2
ὀδύ@@ 2
ἀναγκά@@ 2
πρεσβυτέρων, 2
ήσειν. 2
ἧκε 2
ἔχων, 2
νομίζω 2
νουσιν 2
ἦρχε@@ 2
ποιήθη 2
μίδας 2
περίο@@ 2
προσι@@ 2
νεφρῶν 2
ὁρῶντες 2
ἐκράτησαν 2
ἀκουσάντων 2
νι· 2
οὐδένα, 2
στηρίξαι 2
λιόν 2
Ἀνέ@@ 2
Συρακούσας, 2
μήτηρ@@ 2
ἐντέ@@ 2
ἀεί@@ 2
σομαι, 2
28. 2
ὀστέον, 2
βουλομένων 2
ὑστέρημα 2
προσβο@@ 2
Παῦλος, 2
ἐλαχίστῳ 2
πιστός 2
ἀποδο@@ 2
δικαίαν 2
ῆσαι, 2
προσλαβ@@ 2
νυκτ@@ 2
Ἀνδ@@ 2
νοὶ 2
κερδα@@ 2
ἀπάτης 2
λῶς, 2
αὐτού@@ 2
ρεα 2
φασὶ 2
Συρακού@@ 2
Ῥώμην 2
ἐγένοντο, 2
ἑξῆς 2
Ἰσραήλ@@ 2
λέγοντεςὅτι 2
Εὐλογη@@ 2
ρέως 2
σάββα@@ 2
λόγοις, 2
διήνοι@@ 2
ζητη@@ 2
νοφό@@ 2
σταθμοὺς 2
παρασάγγας 2
Πέρσαι 2
Παρ@@ 2
ἐξέφνης 2
Ὕπαγε 2
ὄξος 2
Δω@@ 2
μέρι@@ 2
ἐκκλησι@@ 2
ῦσι 2
Θηβαίους 2
ἐξουθενη@@ 2
Κανὰ 2
λε, 2
Πρεσ@@ 2
μησε 2
πολίταις 2
τυραννίδος 2
νʼ 2
ὥστʼ 2
ἀξι@@ 2
χωρεῖν 2
μέχρι@@ 2
στρεψαν 2
ῴχθη@@ 2
τωρ, 2
ὀνόμα@@ 2
ἔθνεσιν. 2
βοῶν 2
ἀγῶ@@ 2
δαυ@@ 2
Σολομῶ@@ 2
εὑρήσετε 2
λείποντες 2
λκύ@@ 2
τόν. 2
βοῶντος 2
περιπατῶν 2
ἐτέλε@@ 2
Ναζαρέτ@@ 2
καρπὸν@@ 2
ὑπωπιά@@ 2
μύθοις 2
θημα 2
τέρως 2
τήρη@@ 2
ἐντὸς 2
στάναι 2
ὅρκια 2
βολαὶ 2
ίης, 2
ἐσέβα@@ 2
στρατοπεδευ@@ 2
φρόνημα 2
ἔχθρα 2
ὑποτάσσεται, 2
στητε 2
τουν 2
ἐργ@@ 2
παιδία 2
οὐδεμία 2
‘τὰ 2
δᾳ 2
σπλαγχνισθεὶς 2
ὀμ@@ 2
πεν, 2
Θρᾴ@@ 2
λθό@@ 2
Καισαρ@@ 2
σῇ 2
κομισθ@@ 2
ῶμεν. 2
Ἑκά@@ 2
τερ, 2
ἐάνπερ 2
τελειω@@ 2
ἀδικία 2
ἀμε@@ 2
σπλάγχ@@ 2
ἔχθραν 2
ὀφθαλμοῖς 2
κελεύσαντος 2
Κι@@ 2
ἠρώτα 2
Ἑπ@@ 2
πειρῶ@@ 2
ἐδικαιώ@@ 2
ἔσται. 2
ιον@@ 2
νυμένου 2
κοινῇ 2
Σωκρά@@ 2
διαφύγωσιν, 2
ὑγιέες 2
γόνων 2
συνῆκαν 2
οἰκοδομεῖτε 2
τρίχες 2
ὑπερο@@ 2
τοῦθεοῦ, 2
χρόνων 2
παράγων 2
ὀπίσω, 2
Μωυ@@ 2
πτοντες 2
φη, 2
Εὐλογητὸς 2
ντι· 2
τελέ@@ 2
βουλομένους 2
δικαιοσύ@@ 2
παῖδες, 2
Ρ 2
πληροφορη@@ 2
νον· 2
μαθεῖν 2
βλη@@ 2
σῃσι 2
ἀνταπό@@ 2
σφά@@ 2
ρυγ@@ 2
Ζεβεδα@@ 2
ὄνον 2
λλουσιν 2
κατάπαυσιν 2
δοκῇ 2
Ὄφελον 2
μένοισιν 2
γραπ@@ 2
ἀκρί@@ 2
ὁδοι@@ 2
ᾐτήσα@@ 2
ἐπισφα@@ 2
θηρε@@ 2
νδʼ 2
ἀρκεῖ 2
ῖν· 2
κατακρι@@ 2
ἔδο@@ 2
πρᾶξαι 2
μάρτυς 2
ἄρτι@@ 2
ἐλάλουν 2
ἐγεννήθη 2
ροῖς@@ 2
ἡμῶ@@ 2
πολλὰ@@ 2
βλέπο@@ 2
ῖος@@ 2
μωραὶ 2
βασιλεύς 2
φρονοῦντες, 2
αἰσθ@@ 2
ἐδόκε@@ 2
τησιν 2
ξηται 2
θύρ@@ 2
ἐκάθι@@ 2
ἐμε@@ 2
στιος 2
ἀδικίᾳ 2
γέρων 2
τραπέ@@ 2
σκον 2
ὁρι@@ 2
ἔδει@@ 2
παρόντων 2
ἀγορᾷ 2
τοσοῦ@@ 2
τοὺςπόδας 2
ἑτέραις 2
καταγγέλλουσιν 2
24. 2
ᾱν 2
ὀλίγα@@ 2
γήρᾳ 2
Γά@@ 2
κιος 2
τάχα 2
ῦσαί 2
ᾔδει@@ 2
ἀποστεί@@ 2
ἀκμά@@ 2
καλέσαντος 2
57. 2
πεσόντων 2
έφα@@ 2
σωνται. 2
προσω@@ 2
αὐτά, 2
ὀφει@@ 2
ἱερε@@ 2
σκηνά@@ 2
λλυ@@ 2
Ἰάσονος 2
προσέχειν 2
πειρασόμεθα 2
σοί 2
μέτ@@ 2
ἀπαντ@@ 2
κερά@@ 2
ὕδατος@@ 2
ωτῶν 2
φάγῃ 2
11. 2
τάτῳ 2
ὑγίειά 2
ἐπολιόρ@@ 2
τεῖς 2
λεως 2
ῥαντί@@ 2
αὐθάδε@@ 2
ρά, 2
Ἀρά@@ 2
ρχος 2
Ζαχαρίου 2
ἠσπά@@ 2
φθόνον 2
πίστευε 2
ἀλλήλου@@ 2
λόγῳ. 2
ιεν. 2
σώσει 2
ἡμέρα, 2
Σαμουὴλ 2
ᾐτήσαντο 2
ἱερο@@ 2
ωνται, 2
ἔμβρυον 2
ὑγια@@ 2
βούλοιτο 2
Σαμ@@ 2
κοῖς 2
ἥμαρτον 2
πολιορκού@@ 2
οὐρανῶν, 2
ᾤετο 2
ἴδα@@ 2
σήμερον. 2
Ἄγουσιν 2
ῦσιν, 2
οὐδέ 2
λαμβανόντων 2
κύριοι 2
τετὸν 2
βη, 2
ἐπικει@@ 2
ἤγαγεν 2
ὺλ 2
40. 2
ὑπεράνω 2
ησον. 2
Ἀργεῖοι 2
ςγὰρ 2
ἆ 2
λαμβάνει@@ 2
Συρακουσίους 2
πηλὸν 2
ίως, 2
ύοντας 2
γεωργός 2
νύκτα 2
ἐγκαλοῦ@@ 2
Ἐπίστευ@@ 2
οἰκοδεσπό@@ 2
τητος 2
ῥάβδῳ 2
Σατανᾶν 2
ἀστραπ@@ 2
ξένε 2
νόμων 2
Σπαρτιάτης 2
κράτους 2
ῡ̔μ@@ 2
μῆκος 2
νούσου 2
ποις 2
Δίωνι 2
ποταμόν, 2
εὐά@@ 2
περί 2
Ἄργο@@ 2
ὅσια 2
ἐρωτῶντα 2
ᾤχετο. 2
θανάτου@@ 2
πράσσο@@ 2
ἐγγ@@ 2
σσει 2
λοις, 2
ἐπαρχ@@ 2
ἐνο@@ 2
φέρουσι, 2
δυσχε@@ 2
παισὶν 2
ἀποπλεύσαντες 2
ὑπατε@@ 2
ᾶν. 2
ὑψί@@ 2
ὂν 2
ἀσθενείας, 2
κοινοῦ@@ 2
σαι; 2
Λέσβ@@ 2
τωντῶν 2
ἀναχωρ@@ 2
μωρία 2
Ἰού@@ 2
βεβαιοῦ@@ 2
ὀμόσῃ 2
τελει@@ 2
ὄψεται 2
σαφέ@@ 2
ῖοί 2
σπορί@@ 2
Μηδε@@ 2
εἰκά@@ 2
ἀνοίξαντες 2
ἀρχιερεῖ@@ 2
ἀδελφοί· 2
Ἀχα@@ 2
ἰη@@ 2
μαστι@@ 2
τια@@ 2
πῃ. 2
δεισι@@ 2
ἐλάσσο@@ 2
ὀλίγῳ 2
φορὰς 2
ἔφρα@@ 2
ὑπήκου@@ 2
ὑμέτερον 2
ὑγρα@@ 2
σφραγῖδα 2
ρχου. 2
Ἰακώβου 2
ἐπεί 2
ἐπαύσαντο 2
ἐπίσκο@@ 2
ὐλήσαμεν 2
ὠρχήσασθε· 2
ἄριστον 2
ζει. 2
ἀφίη@@ 2
παθημάτων 2
ήσεται, 2
Ἑλλάδα 2
μάχε@@ 2
πετεινὰ 2
βούλη@@ 2
Τη@@ 2
στις 2
ὀξυρεγ@@ 2
χρο@@ 2
σκεύη 2
πυρός, 2
Ῥαββε@@ 2
νόν. 2
θέντι 2
φερον 2
εὑρεῖν 2
φρου@@ 2
ἀνδρός, 2
ὄρεσιν 2
μάθε@@ 2
ὀσ@@ 2
φαῦλα 2
δεδώ@@ 2
λαθεῖν 2
σκηνὴν 2
ότητος 2
ἀκροα@@ 2
σταθεὶς 2
χρῆσθαι. 2
ρησιν 2
ἡμέρας· 2
ἀληθινὸν 2
διερχόμενος 2
λαύ@@ 2
πόλεμος 2
ὑπάγω@@ 2
Πλαταιῆς 2
ὑστερέων 2
ἵππον. 2
παρακού@@ 2
γη. 2
καταλι@@ 2
κορασί@@ 2
πτη@@ 2
οἷος 2
δέχετο 2
κιρ@@ 2
θεῖναι 2
ίῃ 2
νες@@ 2
ὴκαὶ 2
ὄντα, 2
μένετε 2
καθεύδο@@ 2
Ἐξ@@ 2
σόμεθα, 2
θᾶττον 2
εὐγεν@@ 2
συνει@@ 2
ἐκλήθητε, 2
συμπό@@ 2
ἐσθῆτι 2
ἐβάπτισα 2
χάρις, 2
λαις 2
παρασκευα@@ 2
κρατήσα@@ 2
ἱκανὸς 2
οκ@@ 2
Ῥίγεα 2
λείας 2
ἐσάλπισεν· 2
χρυσοῦ 2
μέλαι@@ 2
ρ· 1
στήμο@@ 1
ρησαν 1
μοῖς 1
ᾠδαῖς 1
ᾁδοντες 1
εἱλώτων 1
θρασύ@@ 1
ὠργιζό@@ 1
ἔμπυοι 1
νική@@ 1
Ἀλεξάνδ@@ 1
ρῳ, 1
λλω 1
γγου@@ 1
γαγεῖν 1
σσίῳ 1
κρίνω@@ 1
Πλάταιαν 1
στῷ 1
ὑπερῴ@@ 1
τὼ 1
ἀπρό@@ 1
δεὶς 1
ἰδεῖν. 1
ταπεινώ@@ 1
παρακλήσεως 1
ἐσφρα@@ 1
ὀξύτερον 1
διαβο@@ 1
ντος· 1
χώρ@@ 1
ἀπεκρίνα@@ 1
ῖται, 1
ἥκο@@ 1
πατρίδος 1
Φαρισαῖοι@@ 1
ἔξεστ@@ 1
σφᾶς 1
ῆλθαν, 1
νός· 1
ἀποδέξα@@ 1
Ὕ@@ 1
χθαι 1
ύειν· 1
σεισμὸς 1
οἰκουμένην 1
Χαλ@@ 1
ἐξαπέστει@@ 1
Ξενοφ@@ 1
στράτευμα@@ 1
τύπτοντες 1
ΠΑ@@ 1
κρείσσων 1
κατέσχε@@ 1
πλανη@@ 1
παραδίδοται 1
τεσσάρων 1
ής, 1
κείμενοι 1
ὑποδη@@ 1
ἑτοι@@ 1
ἀφίστα@@ 1
ἔθνη@@ 1
διαμαρτυ@@ 1
ὁσίως 1
Ζευξι@@ 1
τουτέοι@@ 1
οἴομαι 1
Ἰερειχὼ 1
ςτις 1
Βά@@ 1
ἐξώ@@ 1
τερον· 1
φους, 1
λώτων 1
πέμψαι, 1
κὰ 1
σωσι, 1
πεποιθό@@ 1
υο@@ 1
φυλάκ@@ 1
στρατεύματος 1
νδρον 1
ὑβρί@@ 1
ἐσθίου@@ 1
ήσεις, 1
ἀποδώ@@ 1
τούτοισι 1
κατ’ 1
προϊόντες 1
ἐστρατοπεδεύσα@@ 1
ἀπαγγεί@@ 1
λωσι 1
ριώ@@ 1
Ἀντώνιον 1
ὧδε, 1
ὓ@@ 1
γωνί@@ 1
διδόα@@ 1
Λάκωνα 1
χώρην 1
ὑστερήσα@@ 1
στηκότων 1
ὠτά@@ 1
ἐλάμβα@@ 1
Ἰερουσαλὴμ@@ 1
νίῳ, 1
νικήσαντες 1
κελεύοντες 1
Μυτιλη@@ 1
ἐστρατε@@ 1
ἀπὼν 1
προή@@ 1
ἤμεθα 1
ὁπλιτῶν 1
τάξε@@ 1
ἱππέ@@ 1
ἐντειλά@@ 1
ἀνελήμ@@ 1
s 1
λοιποῖς 1
ἐπύθετο 1
ντω@@ 1
στάσει 1
τὴνγυναῖκα 1
ἀλώπε@@ 1
Ἰδο@@ 1
στρατηγῶν 1
ἥκειν 1
βάρβαρον 1
ἀρν@@ 1
ἐλαύ@@ 1
Ἄτ@@ 1
ρωπο@@ 1
εὐα@@ 1
Πολυκράτεα 1
παραλαβεῖν 1
σμαι 1
καιδεκά@@ 1
γχα@@ 1
σοῦ, 1
ἀποθ@@ 1
Κρο@@ 1
ῥέων 1
Εὐρώ@@ 1
ἄποικο@@ 1
ΧριστῷἸησοῦ 1
δεξάμενοι 1
παρῆ@@ 1
ἐπείσθησαν 1
ἐπιγινώσκε@@ 1
πιστεύεις 1
γνῶσιν, 1
ἅπτεσθαι 1
ᾶτο 1
Κλέα@@ 1
μέσον. 1
ἱρὰ 1
μένειν, 1
λθεῖν, 1
κράτο@@ 1
ἀη@@ 1
χιλία@@ 1
ἀσπίδα 1
ποταμῶν 1
λαβε 1
τὲ 1
σίας. 1
ἐπιτρο@@ 1
ταῦτα; 1
κούντων 1
σχυνθ@@ 1
ντῶν 1
μόσχ@@ 1
Ναθαναὴλ 1
Ἰσραη@@ 1
ἠλε@@ 1
Πελοπο@@ 1
ἀδύνατοι 1
θεραπεύειν 1
ἀγαθὴν 1
σσώ@@ 1
Ἀστυάγης 1
γαγε 1
τούτους. 1
Λεοντί@@ 1
τικοῦ 1
συμμάχ@@ 1
ῶ· 1
λλῃ 1
ὄχλου, 1
ἀλά@@ 1
ἐπειρᾶτο 1
μαθό@@ 1
ζοντι 1
προθυμίας 1
ἐντεῦ@@ 1
μες. 1
ἀντιτα@@ 1
σσόμενος 1
ἀνθέ@@ 1
δός, 1
Λιβύων 1
Αἰγύπ@@ 1
ληφθεὶς 1
πραγμα@@ 1
υμά@@ 1
μῆνα 1
Θου@@ 1
ἐρχόμενος, 1
τάτοις 1
πλου 1
Φοινί@@ 1
τυράννου 1
τάξεις 1
ἐσκή@@ 1
Θω@@ 1
παῖ, 1
μελάθ@@ 1
ρῳ@@ 1
Παλλά@@ 1
ἀνδρῶ@@ 1
ὑψωθήσῃ; 1
ᾄδου 1
περαι@@ 1
ἐπαινοῦ@@ 1
τίᾳ 1
Ἆγ@@ 1
ἀνεχώρουν 1
παρεμ@@ 1
ἐπιθυμῆσαι 1
'@@ 1
ἐπίο@@ 1
ἑπτά. 1
οντα 1
ἐναντίον 1
Κατά@@ 1
ὑπομνήσει 1
ρίους 1
κόπῳ 1
ναρχ@@ 1
ἄγαλ@@ 1
ἐγίγνετο. 1
κείτω 1
θαλάσσ@@ 1
Μωυσέως, 1
πουλὺ 1
χες 1
ἔχωμεν 1
ἕκτῳ 1
μεγάλῳ 1
στρατιῆς 1
ἀναλαβὼν 1
ἐστρατο@@ 1
ῖεν, 1
λόμενοι 1
ῖντο 1
ῶσι. 1
ἔσπευ@@ 1
ἀπέδωκε 1
χειρ@@ 1
γιά@@ 1
δικαίους 1
μηχανη@@ 1
φέρετο 1
κληρονόμος· 1
δεῦτε 1
μία. 1
δελ@@ 1
ὑπηρέται@@ 1
σμασιν 1
διαπο@@ 1
λεχθέ@@ 1
ριγ@@ 1
γνώσομαι 1
πεφυ@@ 1
νέους 1
ῆται 1
ἀποθανε@@ 1
ἀφθο@@ 1
πανα@@ 1
ἐτύχθη@@ 1
ὑπήκουσεν 1
ἐπιστάμενος 1
Μαιά@@ 1
ἀποθνήσκου@@ 1
Ποτειδε@@ 1
ὅτιοὐκ 1
δοκεῖς 1
δύναμαι 1
ῶνας 1
λλον. 1
ποιεῖσθαι, 1
ψειν 1
ὑφίσταται 1
ἔσχο@@ 1
ἐχρήσα@@ 1
τυχί@@ 1
Ἀθήνας 1
Αἰγιν@@ 1
ῆσαν 1
ἐθα@@ 1
ὀλολύ@@ 1
στρατηγό@@ 1
Σίλαν 1
χισε@@ 1
στρατιὰν 1
ἔμειναν 1
πέστει@@ 1
ὀστέων 1
ἐνετεί@@ 1
ἐποιοῦντο 1
σαντας 1
ποιήσασθαι. 1
ἀκαθάρτου 1
πατρίδι 1
Ἅρπαγος 1
Κᾶ@@ 1
παιδίσκ@@ 1
ὑπαντ@@ 1
ἱερὰ 1
ὀνόματι, 1
οὺς 1
Ἀρτέμιδος 1
συλλαβ@@ 1
σῃς. 1
τάγμα@@ 1
ἐδήλω@@ 1
νέον 1
ἐτύ@@ 1
λεγον 1
καται@@ 1
δύναμιν. 1
ποίαν 1
συμφορὰν 1
συναγωγ@@ 1
πόλεσι 1
ὡμολόγη@@ 1
ἠρνήσα@@ 1
φυλάττο@@ 1
ὑπόθεσιν 1
σπεύ@@ 1
ψωμίον 1
ἔνδο@@ 1
ὅπ@@ 1
ὰκ 1
Ὁρᾶ@@ 1
ἔτυχεν 1
ὁμοίους 1
τάφρο@@ 1
ὀργάνων 1
δείξ@@ 1
τρόπων 1
παρεῖναι. 1
βὴς 1
ὅτιἔρχεται 1
βρύ@@ 1
ἀποστελεῖ 1
τάδʼ 1
ἔχουσα, 1
στραφε@@ 1
ἐπαγγελίας, 1
Κυρίῳ 1
61. 1
τεσσά@@ 1
P@@ 1
καὶπαρα@@ 1
ὗ 1
ἤκουσα@@ 1
ἔμφο@@ 1
κύριος· 1
Λαοδικ@@ 1
ᾶσθαι. 1
θηρίων 1
ἁρπαγὴν 1
πτει 1
Ξενοφῶν, 1
ἀράτω 1
ὸναὐτοῦ 1
ἀκολουθεί@@ 1
βραχυ@@ 1
Μελ@@ 1
ἔπεμψεν 1
Ποῦ@@ 1
τάς 1
σκέψασθε 1
φοβοῦμαι 1
ὁποῖος 1
λείπε@@ 1
ἔρσε@@ 1
Ἀκρα@@ 1
ντίνων 1
ὄψονται. 1
ἰδιώτης 1
ὑποπό@@ 1
ἐνκεντ@@ 1
ἰατρο@@ 1
εὕρισ@@ 1
γεγενη@@ 1
ἐνίκη@@ 1
αὐτοῖσι 1
πεσε@@ 1
ὀλι@@ 1
ρπά@@ 1
Ἀρίστα@@ 1
ἤι@@ 1
ὄναρ 1
κεε 1
Δαρεί@@ 1
θέων 1
ποντο 1
δακρ@@ 1
Ὀλύμ@@ 1
Σαῦ@@ 1
Ἆγις 1
μαχ@@ 1
ὑπόνοιαι 1
Θηραίοισι 1
Σαμί@@ 1
λίαι 1
ἀντίπαλον 1
ἐπελθεῖν 1
ἀγνοεῖν, 1
γινόμενον 1
στρατεύεσθαι 1
Ἰσχόμαχο@@ 1
ἐπιμελεῖσθαι 1
ουμένην 1
Νικ@@ 1
σέ, 1
στηρίου 1
δουν 1
πολύ, 1
ὄνο@@ 1
γετο 1
μαχόμενοι 1
ζουσι, 1
ἵππο@@ 1
Ἄρ@@ 1
φανῆ@@ 1
πληρῶ@@ 1
ἀντα@@ 1
νεσθαι 1
ἑτοιμό@@ 1
τερός 1
στρατιώταις 1
ἐφικ@@ 1
ἐφθά@@ 1
ὑπερεκ@@ 1
ρινθον 1
μερον 1
ὑπερβάλλειν 1
στῆναι, 1
ἀρά@@ 1
ὑψ@@ 1
ἐπαγγελία 1
σιντῆς 1
ὑμῖνὅτι 1
τοιοῦτος 1
φίλων, 1
Ὀλυμπ@@ 1
Πελοποννήσιοι, 1
θεῖν. 1
ἐξελε@@ 1
μαθητὰςαὐτοῦ 1
τοὺςἀνθρώπους 1
ὁμοίω@@ 1
Ἀριστ@@ 1
ἐχώρουν 1
βα 1
στρατηγού@@ 1
δέομαι 1
8 1
Ῥήγ@@ 1
ἐπέπλεον 1
ὀρθο@@ 1
σί, 1
πορεύσι@@ 1
ἀσθενὲς 1
λίθι@@ 1
τρεῖ@@ 1
ίνειν, 1
ὁμοιωθήσεται 1
μφί@@ 1
πεντη@@ 1
κράτιστον 1
ωνι@@ 1
ργίᾳ 1
κόα@@ 1
ἐπιχο@@ 1
ἔ 1
ναυμαχίαν 1
Χει@@ 1
βέβλη@@ 1
παραλυ@@ 1
Καὶν 1
ἐπορεύ@@ 1
ζήτουν 1
ὠτα@@ 1
ῖται. 1
κοπώ@@ 1
ἀνδρί@@ 1
θ 1
λειον 1
μοιχαλὶς 1
ζητεῖ, 1
μικροῦ 1
ἡμε@@ 1
προσήκο@@ 1
Ἰουδαῖος, 1
βάρβα@@ 1
συνήχθη@@ 1
εὔθε@@ 1
ὖ 1
ἔλεγον, 1
δείξα@@ 1
λειφ@@ 1
πολιορκ@@ 1
μιο@@ 1
ἀδιαλεί@@ 1
διασπα@@ 1
χρηματί@@ 1
Λικί@@ 1
σχιλίους 1
μισε@@ 1
ʽ@@ 1
̓ 1
φορέ@@ 1
χρέω@@ 1
ἱέ@@ 1
νῶς 1
ἀρχιε@@ 1
εὐνοῦχος 1
ὕδωρ· 1
Ὑποτάγητε 1
ἤμε@@ 1
πίνων, 1
φρόνη@@ 1
ξὶ 1
σύγκλη@@ 1
δι’@@ 1
ὅπερ 1
νδρος 1
ςα@@ 1
σαύ@@ 1
νές 1
βαινόντων 1
ἐκέλευεν 1
νῆσον. 1
Ἑρμιόνη 1
αἰθέ@@ 1
φός 1
στέρ@@ 1
φορώ@@ 1
οὐδα@@ 1
ἀγωνι@@ 1
δεῖπ@@ 1
ὥρι@@ 1
παραστ@@ 1
έες 1
ημε@@ 1
ἀμφοτέρας 1
στράτε@@ 1
πεντακι@@ 1
σχίλιο@@ 1
παραδεί@@ 1
ὑπερεκπερισσο@@ 1
σαβ@@ 1
δήμῳ 1
ὁμολογίας 1
ὀνει@@ 1
μαρτύρη@@ 1
ὼςκαὶ 1
χιλίους 1
σκόρπι@@ 1
δέως 1
προστά@@ 1
ἀπροσδόκη@@ 1
Σαδδουκαίων. 1
ἐφαίνετο 1
πιπρά@@ 1
ἱδρ@@ 1
συγγενε@@ 1
ἀκη@@ 1
κελεύει 1
σφῶν 1
ρας· 1
διαφερόντως 1
συναντ@@ 1
αἰώνων· 1
λῃ, 1
σιώτα@@ 1
σματος 1
ἠκολούθη@@ 1
δημα@@ 1
ϝ@@ 1
θες 1
καλῶς@@ 1
διπλ@@ 1
ἀξιού@@ 1
ἄλλοι, 1
δόρυ 1
χεῖν 1
ρνάβ@@ 1
καθίστα@@ 1
ἐπαιν@@ 1
κρεῖσσον 1
Ὅθεν, 1
ταύτῃ. 1
Ὥ@@ 1
νυκτε@@ 1
ἐνώ@@ 1
σθένε@@ 1
ἀφιστα@@ 1
παρασκευὴν 1
ἀπολλ@@ 1
Γύλιππος 1
ἴδμεν 1
δεστέ@@ 1
ὄρη 1
Ἄλλην 1
λέγεται, 1
πεπτω@@ 1
πηδήσας 1
ἵππου 1
εινό@@ 1
καπνὸς 1
ζω, 1
κότι 1
ἐπέγνωσαν 1
ἀφικόμενος 1
εἴρητο 1
ἐγκλή@@ 1
ρώτερον 1
ἀρχηγ@@ 1
46. 1
φλεβο@@ 1
διέφθει@@ 1
ναυπη@@ 1
βολα@@ 1
ἀπεκρί@@ 1
ἐμέ 1
βέλ@@ 1
βουλομένῳ 1
στον· 1
βιος 1
λέσθαι 1
ναγ@@ 1
πατρ@@ 1
ὑμεῖςἐν 1
Οὔτε 1
ωμαι. 1
ίαι@@ 1
φῆ 1
ἀδμή@@ 1
καλλι@@ 1
ρου, 1
σαῦτα 1
στόλον 1
λεθ@@ 1
λαοῦ. 1
πάσχειν 1
λας. 1
ξαντος 1
ἐπυνθά@@ 1
ὑμεῖς; 1
χρόνον. 1
σὶ 1
Αἴγυπτον, 1
λες 1
φιλίας 1
οὐκοῦν, 1
στρατηγ@@ 1
φαλα@@ 1
λωνι 1
καταλαβεῖν 1
ττειν 1
λοις 1
ἀπολέσαι 1
συνεσταλ@@ 1
ὁμι@@ 1
σχῆμα 1
ὑπ᾽ 1
πολεμίων. 1
μοιχαλί@@ 1
νυκτί@@ 1
βαινον 1
σφραγῖ@@ 1
ὁμὲν 1
Ὀδυ@@ 1
Πηνελόπην 1
σίων. 1
δεσμῶν 1
λιπεῖν. 1
ρίης 1
ἐπιγενομένου, 1
ῃσι, 1
ῥῆμά 1
οὗτος, 1
Ζ 1
θηρί@@ 1
ἐκβαλὼν 1
ἄλλαις 1
ἑκάστου 1
σαμένους 1
ἀφ’ 1
γνω 1
οἶδα, 1
ἔμβρυ@@ 1
γυμν@@ 1
γοὺς 1
ε· 1
Σώκρατες, 1
μάσατε 1
ποιησάμενος 1
Ὤ@@ 1
ἐποικο@@ 1
ῇσι, 1
γίγνεσθαι, 1
οἴκου. 1
ρομένων 1
ξιος 1
λειτου@@ 1
ἐπέμφ@@ 1
Σιδ@@ 1
ἀφῆκε 1
ἡδ@@ 1
ἐγίνωσκεν 1
ἀνελήμφθη 1
Ἀθηναίοις, 1
Μιλη@@ 1
τελευτ@@ 1
ἔθει 1
φιλίαν 1
ὀνομάτων 1
ἐσή@@ 1
ἐρέ@@ 1
μακαρί@@ 1
ὑπομείνα@@ 1
ὼβ 1
ὑμέ@@ 1
ἐδή@@ 1
μεγίστη 1
Ἀμφιλοχ@@ 1
δυνατωτάτους 1
χοντο, 1
ὀξύ. 1
οις. 1
περιεζω@@ 1
λύχ@@ 1
καιό@@ 1
Θ 1
ἀρνού@@ 1
Φαρνάβα@@ 1
καλόν, 1
ἄρξαι 1
ἰχθύας 1
ὄχλοι@@ 1
τύφ@@ 1
τείνα@@ 1
ξύλων 1
σῃς· 1
ἐπίπλουν 1
ὁλοκαυτώματα 1
στρατῷ 1
Μυ@@ 1
σπέν@@ 1
σοφιστοῦ 1
Ἡρακλέους, 1
ψέ@@ 1
σχεῖν 1
ήσομαι· 1
ἄξιοί 1
εἶδον, 1
Διδάσ@@ 1
μενε 1
πεδί@@ 1
ἀποθανόντος 1
ρῶμεν 1
καθεύδω@@ 1
Ἀρχι@@ 1
δημη@@ 1
τοιαῦ@@ 1
σταί, 1
ἀφικόμενοι 1
Τύρῳ 1
Σιδῶνι 1
ἐνδύσα@@ 1
οἶδε@@ 1
Δ 1
ἀφόβως 1
σθέντας 1
μήποτε 1
συνελθόντων 1
γενομένην 1
στρατοῦ 1
πεντε 1
Ἀστυά@@ 1
γεα 1
ἐόντα 1
τροπά@@ 1
ᾠκοδό@@ 1
θεῖον 1
τηκό@@ 1
ῷον 1
δεικν@@ 1
πρόσθεν, 1
ὠφελεῖ. 1
ητέων 1
Αἰγινητέων 1
χιλιάδες 1
ἐσφραγι@@ 1
ἰσχά@@ 1
χώραν. 1
ἐκε@@ 1
ρητε 1
ἀγορὰν 1
κέκτη@@ 1
ἐδοξά@@ 1
ὁρμί@@ 1
ἱμα@@ 1
ὡσαύτως. 1
πυλῶν 1
ὑε@@ 1
μοὺς 1
πηγὰς 1
ὑδάτων· 1
Λυδο@@ 1
οὗτος@@ 1
ζυγὸν 1
χρηστ@@ 1
μεγάλαις 1
φωναὶ 1
σων, 1
ούσης 1
μέλλοντες 1
τειχί@@ 1
ἀναχώρη@@ 1
ἡγεμόνες 1
I@@ 1
s@@ 1
αἵ 1
φανῶ@@ 1
σαντι 1
νέα 1
μᾶ 1
τείχη 1
πρότερος 1
πλό@@ 1
λλε, 1
ὦσιν· 1
ξυμμα@@ 1
ἄρʼ 1
πόλεις, 1
οἷοί 1
ἐπολι@@ 1
ᾐσθ@@ 1
ττων 1
μικρο@@ 1
ὁρᾶν 1
γον, 1
ξίφε@@ 1
φέρειν, 1
ἀποδό@@ 1
πάσα@@ 1
σιο@@ 1
σμενοι 1
οἶνος 1
βασα@@ 1
νομίζοντες 1
ἡλίου, 1
τοιγαροῦν 1
ὅμοιος@@ 1
Βεεζεβο@@ 1
φ. 1
ἔμπροσθέ@@ 1
φοι 1
δέχετο, 1
φύσεως 1
Σού@@ 1
ὁρμίζονται 1
ἐξίσταντο 1
ἀγάπῃ. 1
οντες. 1
δημοκρατίαν 1
μαχον 1
Ἀρί@@ 1
Βυζα@@ 1
Ἰουδαῖος 1
παρακαλεῖν 1
διδασκα@@ 1
γίγνεται 1
λειπ@@ 1
Τολ@@ 1
Ὥστε, 1
νιοι 1
κείμενος 1
Ἰησοῦς· 1
χαλεπὸν 1
νὰ 1
ὄπι@@ 1
ἐπεξι@@ 1
Σαδδουκαί@@ 1
κρου@@ 1
ὑστερα@@ 1
ἀδίκους 1
ἐκλέ@@ 1
ῶς, 1
μετεπέμψατο 1
συνοι@@ 1
νίκα 1
δεινὸν 1
θείσῃ 1
χειμ@@ 1
πιεῖν 1
κιθα@@ 1
πνεύματι@@ 1
κρισιν 1
ως; 1
ῦται 1
Ἀφρο@@ 1
ἠπίστα@@ 1
ἐποιεῖτο 1
ἀρξά@@ 1
ἐφύ@@ 1
καὶἡ 1
ἀξί@@ 1
Ἀρχέ@@ 1
ἐναυμάχη@@ 1
ἔξω. 1
ἐβοήθη@@ 1
ἄλλας 1
φθα@@ 1
ἐπορεύετο 1
Κατα@@ 1
ἑτερο@@ 1
καλεῖν 1
νδρα@@ 1
μόντες 1
Ἡρακλείδην 1
ναύα@@ 1
σχίλιοι. 1
ἠλεή@@ 1
μεγάλης, 1
δοθείσης 1
ἔμπροσ@@ 1
ζωήν, 1
πρακ@@ 1
Ὦ@@ 1
οἷς@@ 1
ἔγ@@ 1
ὄρη, 1
τοια@@ 1
ὑψη@@ 1
ξένον 1
περιεβά@@ 1
ἀναβαίνοντα 1
πρότερο@@ 1
τύραννος 1
κυκλω@@ 1
ἅτε 1
Ἰσθ@@ 1
λινον 1
ἀνέμων 1
ρκε@@ 1
κια 1
γωνίζεσθαι 1
Παυσαν@@ 1
μετῆ@@ 1
ἐπεξε@@ 1
Ξάνθ@@ 1
Δημάρη@@ 1
οἱμαθηταὶ 1
Βλέπε@@ 1
Θήβας 1
συμμαχ@@ 1
πράγμασιν 1
˙ 1
μονογενῆ 1
τέσσα@@ 1
Κυρίου· 1
ἐξῆλθον, 1
ήλ 1
βλεπό@@ 1
στῆθος 1
μισή@@ 1
ἀνῃ@@ 1
λάλη@@ 1
ὁπατὴρ 1
των· 1
γος, 1
μεθε@@ 1
ὁδούς 1
αὐτόνο@@ 1
ξυνεστράτευ@@ 1
ἐγή@@ 1
φέρεσθαι 1
ἐπιστολ@@ 1
μαθητῶναὐτοῦ 1
πέτα@@ 1
Συχ@@ 1
Ἰωσὴ@@ 1
ἐπισκοπ@@ 1
Φῆλι@@ 1
γε· 1
πίστιν, 1
ἔπλευ@@ 1
ὁρμώ@@ 1
συγγνώμην 1
ἐμαρτύρη@@ 1
ἐκκλησίας, 1
κεφάλαιον 1
σσων 1
ὅπλ@@ 1
ὅμοιον 1
ὁρᾶσθαι 1
ἐμή@@ 1
ἐθέ@@ 1
Ὀδυσσέως 1
λεγομένης 1
ὑπαὶ 1
ἐξελθόντος 1
τούτῳ, 1
νδρε, 1
ζόμενον, 1
φοβ@@ 1
σμα, 1
σκού@@ 1
ἡγεμόνα 1
βοῦς 1
κτήσα@@ 1
κρίναντες 1
ἀπέδει@@ 1
ἀνατέ@@ 1
πορεύονται 1
ὑποταγῇ 1
τούτου, 1
ταλά@@ 1
Ἀρχί@@ 1
Ἔφεσον, 1
ὑπερεκπερισσοῦ 1
ὑστερήματα 1
φθῆναι 1
ποτε, 1
περιβά@@ 1
λαοῦ@@ 1
χῶ@@ 1
ρυκ@@ 1
ἐθέλου@@ 1
ἕν@@ 1
δωρος 1
ἐφι@@ 1
ἀγὼ 1
πετο 1
εἴπα@@ 1
ἡμίο@@ 1
κομίζο@@ 1
ἓ@@ 1
ἑκάτεροι 1
λανθάνειν 1
δυνάμεως@@ 1
ἐτείχι@@ 1
θέων, 1
σφέων 1
πλέειν 1
σίστρα@@ 1
οἰωνὸν 1
ἔδει. 1
ἀπέπλευσαν 1
πλεον 1
Λέσ@@ 1
Ἑλλησπό@@ 1
μετεπέμψα@@ 1
στησάμενος 1
γεννή@@ 1
ἑκάστο@@ 1
ἔξοδον 1
άν 1
νηται, 1
Ϛ@@ 1
ἀσθενεῖ 1
ἐχυ@@ 1
ἐπιγεγραμ@@ 1
ἱερεῖ@@ 1
ῶνται 1
ὁμολογου@@ 1
τείχους 1
εἴς 1
ᾐτιᾶτο 1
ομένῳ 1
φιλανθρωπ@@ 1
ἰῆται, 1
αὐτομά@@ 1
ῄ 1
Σαμίων 1
συνεί@@ 1
λᾶ@@ 1
τούτου· 1
ξῆς 1
Ταῦ@@ 1
ῄει 1
σιτευ@@ 1
σκότους 1
μέχρις 1
θεν· 1
Ποι@@ 1
ἐκπε@@ 1
ώ@@ 1
ἐπειδ@@ 1
ἐνθα@@ 1
ῦτα, 1
ια 1
ἐμποδὼν 1
γενόμενος. 1
παρῄνει 1
λαζο@@ 1
ὼνἐπὶ 1
ἔμαθον 1
ἐσο@@ 1
μπλα@@ 1
θῶσιν, 1
ναῦς, 1
Ἐν@@ 1
οἰκτι@@ 1
Εὐριπί@@ 1
ποιητὴς 1
προείρη@@ 1
ἐγενήθημεν 1
σημαίνου@@ 1
ιντοὺς 1
σωτη@@ 1
σφραγι@@ 1
ῶσαί 1
Βαρνάβα@@ 1
ἀποκάλυ@@ 1
χθῆναι, 1
παραγγείλας 1
δοῦς 1
ᾔσθετο 1
λέγοντι 1
πείθων 1
οὓ@@ 1
καιον 1
ττοντα 1
μεμνῆσθαι 1
ἔτεϊ 1
Περσέ@@ 1
ἔχοιεν 1
ἀγροὺς 1
ποιεῖτο 1
οἵα@@ 1
ἀπολείπο@@ 1
παλαί@@ 1
τάδε· 1
ἀδελφε@@ 1
ώνυ@@ 1
μέλλετε 1
σπέρμα· 1
Μυτιληναίων 1
σίοις, 1
ὅρα 1
δεῖ, 1
Ἰσα@@ 1
κ, 1
μετενόη@@ 1
εἴδομεν 1
στρατιω@@ 1
κόν 1
ὠνομά@@ 1
δοκοῦντες 1
σοντας 1
ἔμενεν 1
πελτα@@ 1
κάθι@@ 1
Τέ@@ 1
πικρα@@ 1
σάγ@@ 1
λθεῖν@@ 1
ἄλλο@@ 1
Σαμα@@ 1
σταμένου 1
έν 1
μετό@@ 1
ταξιά@@ 1
θεῖν, 1
κελευ@@ 1
Θεττα@@ 1
ὁπλίτας 1
ὑπενόουν 1
ἐξεπλή@@ 1
ὑπολαβὼν 1
κώς. 1
ἀκούσητε, 1
Ῥαὰβ 1
ὀφθαλμὸς 1
ὑπερη@@ 1
νία, 1
Δαυείδ· 1
μός, 1
ἀποκ@@ 1
Κρη@@ 1
ψαν, 1
ᾶτε, 1
νθʼ 1
Κύκ@@ 1
κοινωνὸς 1
κρατῆσαι 1
ὑποτύπωσιν 1
ὑγιαι@@ 1
᾿ 1
ντε 1
ἐντέλλομαι 1
ξένους 1
χρυσῷ 1
στεφά@@ 1
ἠλεήθη@@ 1
ὑπεστειλάμην 1
Ἔγει@@ 1
φαύ@@ 1
μέναι 1
ἀποκτείνωμεν 1
ἠρ@@ 1
ὑψῶν 1
ταπεινω@@ 1
Σικελίᾳ 1
ὑπνω@@ 1
ὕπνον. 1
θανε@@ 1
Σμύρ@@ 1
ῖσα@@ 1
ἀποστρέ@@ 1
ἄρας 1
εὐδοκι@@ 1
καρδίᾳ, 1
τρου 1
ὅσι@@ 1
ναυτῶν 1
ὀξεῖς 1
γραφαῖς 1
πληγὰς 1
ἀσφαλῶς 1
Τισα@@ 1
Λακεδαίμο@@ 1
ἀνδρείας 1
βελτί@@ 1
δήπου 1
συμπροθυ@@ 1
πέτρα@@ 1
πεῖν· 1
ἅπαντες. 1
Κικέ@@ 1
ἄγων 1
δόξασόν 1
σσε 1
ᾇ@@ 1
πατρῴ@@ 1
παντο@@ 1
πολλήν, 1
ἐξανέ@@ 1
Ἀστύο@@ 1
Ὀρο@@ 1
μβον 1
χρισ@@ 1
Ἰορδάνου 1
τρόπον 1
ἀρχήν. 1
θηκεν 1
ὤρυ@@ 1
ᾠκοδόμησεν 1
φιάλην 1
ὁδηγήσει 1
σαμεν, 1
ὑμῶνεἰς 1
σημεῖον@@ 1
διαφερό@@ 1
εἴων 1
ἀνάγκης 1
διώξ@@ 1
εἰμι@@ 1
πρεσβευτὴς 1
ριον· 1
ἑώ@@ 1
ὀλιγαρχ@@ 1
ὄρθ@@ 1
θέως 1
στρατὸς 1
ὡπλι@@ 1
γόρευ@@ 1
ἀνεῳ@@ 1
πυργο@@ 1
Πορευ@@ 1
ὄρη@@ 1
μύσος 1
Παυσανί@@ 1
ἀκούει 1
ἀπήγγει@@ 1
χαλεπό@@ 1
κλίμασι 1
μηδ’ 1
χρυσίον, 1
φθινο@@ 1
ὀφθαλμοῦ 1
δόνι, 1
τερα, 1
ἑκάστοις 1
δούς 1
ξε, 1
τοῖσιδε. 1
τοί@@ 1
θυμω@@ 1
Αἴγυπτον. 1
κάρφος 1
ὁμόφρο@@ 1
Δά@@ 1
ῳ; 1
ἀγαθοὶ 1
ῒ 1
στρατιωτῶν, 1
ἐμπε@@ 1
ἐκλιπό@@ 1
Ἀντιόχε@@ 1
φαρ@@ 1
ὑπέσχε@@ 1
οὐγὰρ 1
ἐλευθέρα 1
’, 1
Διονύσιον, 1
ὅτʼ 1
ἐκλογ@@ 1
ἐπω@@ 1
καταλε@@ 1
ὑπηκού@@ 1
μοῦσιν 1
δυνάμενοι 1
στέγα@@ 1
ψωμί@@ 1
ὑπάρχοντά 1
δήματα 1
φορα 1
ἄνεμοι 1
ἐκρύβη 1
γεγεννη@@ 1
σκευὴν 1
σκυ@@ 1
ἤισαν 1
γην 1
ἅλω@@ 1
λλόμενοι 1
φάλαγγος 1
φυλάττε@@ 1
ξυνθή@@ 1
Ἀστ@@ 1
πλέων 1
νίψα@@ 1
μένα, 1
Φαρισαίων, 1
πόρον 1
Θρ@@ 1
Τῶν 1
ὰβ 1
ππος, 1
οἰκοδομ@@ 1
Ὀτά@@ 1
φαίνετο 1
πρῆ@@ 1
ἐπερωτῶ@@ 1
λιπεῖν 1
κειν 1
ταῖς. 1
κυρί@@ 1
ῇσι 1
πονηρὸς 1
Θρᾳ@@ 1
μέλαν 1
ὀλιγόπιστοι; 1
νθρω@@ 1
ληθ@@ 1
δεσθαι 1
νε. 1
στρό@@ 1
ὀσφύος 1
Τύχι@@ 1
γοντι 1
ἴδετε 1
ἐπέμ@@ 1
νομίζων 1
ῖά 1
Γενο@@ 1
μούσας 1
ἴδ@@ 1
Σίλας 1
ννή@@ 1
φιλεῖ 1
ῆλθον. 1
ἀνήλω@@ 1
διαλλά@@ 1
ὑποστρέφειν 1
ἐόντες 1
Δαρεῖον 1
μέλλουσι 1
προτέ@@ 1
ἕκαστα 1
τοιάδε 1
ἄρχε@@ 1
δῃ, 1
αἰσχυ@@ 1
σθω, 1
ὀφειλὴν 1
ὀδύνῃ 1
ινω@@ 1
ὅπως@@ 1
ἄλλων, 1
δεξιὰν 1
θάλ@@ 1
Ἰερει@@ 1
τεταραγ@@ 1
πάρει@@ 1
Αἰγυπτί@@ 1
νήθε@@ 1
στρατηγῷ 1
χειμῶνι 1
τούτ@@ 1
εἰσα@@ 1
λῆς@@ 1
ὕβ@@ 1
διωγμοῖς 1
προσόδους 1
κατηγορή@@ 1
εὐπρεπε@@ 1
φοβερω@@ 1
ἄλλῃ 1
παρασάγ@@ 1
γης 1
ἐξένι@@ 1
πης 1
ῆλθαν 1
κατακαυχ@@ 1
ὀλιγα@@ 1
μέρει 1
νεο@@ 1
τοῦντες 1
ἀλώ@@ 1
Ἄφε@@ 1
μεταμελ@@ 1
πεντήκοντα 1
χιλίων 1
Τύ@@ 1
ὑγιαινούσης 1
ἀναχωρήσαντες 1
χης 1
ἀγέ@@ 1
σπον@@ 1
πυραμί@@ 1
ἀναβαθμῶν 1
ὀνομάζουσι, 1
ἐνόμιζον 1
κύκ@@ 1
ἐπειρῶ@@ 1
μισθὸς 1
οὐρανοῖς· 1
κοῦν 1
ᾱ̀@@ 1
ὥρας@@ 1
δμη@@ 1
στασιν 1
εἰσιν; 1
ὤρυξεν 1
ἔκρυ@@ 1
ὅρα@@ 1
λιμ@@ 1
τοῖσι@@ 1
ρτὸν 1
χόνδ@@ 1
ἔγωγε 1
βλασφημίας, 1
ὑποδήματα 1
Ὀλύμπου 1
Ἐλεισάβετ 1
ζεν, 1
l@@ 1
p@@ 1
κυρίουκαὶ 1
κανθ@@ 1
φθινοπωρι@@ 1
ὕψω@@ 1
ώτερον 1
ἐλθεῖν, 1
Ῥυῇ, 1
Διονυ@@ 1
γίγνο@@ 1
ἔγν@@ 1
στου; 1
ὅτιὁ 1
Βαβυ@@ 1
ταλαί@@ 1
ικρά@@ 1
λω, 1
ἥγη@@ 1
μίαν. 1
δράκων 1
θηκαν 1
ἱρὸν 1
γας 1
ρούσης 1
ὠρέ@@ 1
ἀπέπεμ@@ 1
μωνί@@ 1
συγγενῶν 1
τεσσε@@ 1
σχῶ 1
γορῶν 1
ῄνει 1
ἐπιχώ@@ 1
ἐγχειρί@@ 1
μονα 1
εἵνεκεν 1
ῖνοι 1
ὁρᾶτε, 1
Θεμι@@ 1
Τά@@ 1
μὲν@@ 1
εὑρίσκου@@ 1
ἐοῦσαν 1
ὀξέσι 1
κλαυθ@@ 1
ῥᾴ@@ 1
πυθομένη 1
παῖδα, 1
κολυμ@@ 1
όμενοι· 1
θείροντο. 1
σίς 1
πολεμίοις, 1
Ῥωμαίοις, 1
ἀτιμό@@ 1
μαχοῦ@@ 1
ἐγέννη@@ 1
ῖνος 1
Θεό@@ 1
ὕτ@@ 1
στένα@@ 1
φθονον 1
κοδό@@ 1
οὔτʼ 1
οὔκουν 1
Κόρινθον 1
γλω@@ 1
πρόσωπα 1
ζῶντα 1
⟦ 1
Ὁρᾶτε 1
αὑτοὺς 1
ἀναβιβά@@ 1
σαπρ@@ 1
ομένων, 1
ταξε 1
ἀξιώ@@ 1
δικαί@@ 1
Ἰεσσα@@ 1
εὶ@@ 1
ἀγρυπν@@ 1
σέ 1
Ναυ@@ 1
ἕπε@@ 1
ᾔσθε@@ 1
πολλούς· 1
ζῶμεν, 1
ἰδιώ@@ 1
Ἑτοιμάσατε 1
θείας 1
ιοῦσι 1
πόλεμος. 1
ῆμα 1
φέρ@@ 1
ΐ 1
μυρίους 1
ὄψις 1
βολον 1
πτῶμα 1
κρίνω 1
τιά@@ 1
σμένοις 1
κούργου 1
ἐπιγενό@@ 1
νομα@@ 1
ἐπιμελεῖ@@ 1
τίθεμαι 1
καλό@@ 1
γιγνό@@ 1
ἐχώρει 1
δοκῶν 1
γινωσκο@@ 1
ἀναγινωσκο@@ 1
ἐνδώ@@ 1
ήσεσθαι. 1
ψον 1
εἴρηται 1
ἡγοῦμαι 1
κατασκευα@@ 1
κοινοῦ 1
παρόντας 1
Μαντιν@@ 1
ὑγιά@@ 1
πεμψαν 1
Πυθίη 1
χρᾷ 1
ἀρχηγὸν 1
σπαρέ@@ 1
σθεῖ@@ 1
δέσπο@@ 1
Ἄλλ@@ 1
χη 1
ίατο 1
διατρί@@ 1
ἀγορὰ 1
μειζό@@ 1
ἱεροῖς 1
Ἐβρα@@ 1
χώραν, 1
κιβω@@ 1
ἀπέχ@@ 1
πτω 1
ὠργί@@ 1
ἐνέπρη@@ 1
πενθ@@ 1
πένθος 1
κοδομή@@ 1
ἠγορά@@ 1
ιλί@@ 1
ποιήσωμεν 1
ήσειν 1
Μωυσεῖ 1
λελάλη@@ 1
ἔστε 1
Συρακόσιοι 1
σοντες, 1
εὕρῃ 1
θον, 1
ὅσιον, 1
Φιλίστου 1
τύχας 1
ἐπύ@@ 1
στια@@ 1
ἀποδεικ@@ 1
θυμοει@@ 1
ῖσαρ 1
τύραννος, 1
ἀδικήσα@@ 1
τετάνου 1
ὀγδό@@ 1
ρῳ. 1
ἐξῆν 1
ἄξια 1
ἐστρά@@ 1
ἀδίκων 1
ἱδρῶτι 1
φοιν@@ 1
ικί@@ 1
Λάβετε 1
ἔχοντες. 1
ρηκα 1
ἐβά@@ 1
στηρίῳ 1
χίαν 1
λθε@@ 1
ἀμφί@@ 1
δίκ@@ 1
διαλύ@@ 1
ἀπωλό@@ 1
ἄν, 1
ποιμα@@ 1
ἐπεχείρησαν 1
πραγμάτων, 1
γένη 1
ἑτοῖ@@ 1
διαφέρο@@ 1
μέγαν, 1
αὐτέων 1
τὴνοἰ@@ 1
ὑποδέ@@ 1
σων· 1
γμάτων 1
φυλάττεσθαι 1
Ἢ@@ 1
ἐσε@@ 1
ἀριθμὸν 1
Ἀμπρακιῶται 1
νης· 1
ῶμαι. 1
Πλάτωνα 1
ἀθυ@@ 1
ἥκω, 1
βιβλίου 1
θεια 1
ὅντινα 1
κέσθαι. 1
διδάσκει 1
νόσον 1
ἀρχῇ 1
ἐπεστε@@ 1
ἠπό@@ 1
Γοβρύ@@ 1
τρέφ@@ 1
στασθαι 1
ὦσιν 1
Κλέανδρον 1
εἰσέλθ@@ 1
πτεσθαι 1
κατήργη@@ 1
νηπί@@ 1
μείζονα 1
ἐναντίων 1
ἀξιῶν 1
Ὢ 1
ὀφείλομεν 1
φρόνι@@ 1
ῢ@@ 1
βασί@@ 1
Ὀρό@@ 1
ἀναπηδήσας 1
λαγ@@ 1
δρομα@@ 1
σιγ@@ 1
ἡγία@@ 1
ὑψηλὰ 1
Ῥῖ@@ 1
φρονήσει 1
κατώρθ@@ 1
τυμ@@ 1
λλη@@ 1
Αἰμι@@ 1
δῶν 1
κληρονομίαν 1
ζῆλον 1
ὑποκριταί, 1
σμικρ@@ 1
32. 1
Βλέπετε@@ 1
ῥᾳ@@ 1
χόντων, 1
ὁρί@@ 1
μακρὰ 1
εἰδῆτε 1
ποιήσειν 1
ὕπερ@@ 1
Γνα@@ 1
χοις 1
πρυ@@ 1
φασκόντων 1
όμενον. 1
τάχους 1
ῄε@@ 1
πρώτους 1
λιον@@ 1
ἐξέλι@@ 1
μεταπέμπε@@ 1
στρατῷ. 1
Μακεδο@@ 1
Ἀχαί@@ 1
ὑγρὰς 1
ρησε 1
ἷ 1
μισθοφόρους 1
φέροντας 1
κορυ@@ 1
δοκοῦσιν 1
σωθῇ 1
ᾑ@@ 1
ᾳτοῦ 1
βρί@@ 1
ῖνον, 1
Ῥωμαίους 1
Περικλέους 1
οἴκαδε 1
ὁυἱὸς 1
ἔκραζεν 1
νοιτο 1
ρῶδες 1
ἃς 1
ἐδιδά@@ 1
ὀρφα@@ 1
φορον 1
ΣΩ@@ 1
εὐσέβειαν 1
Ὀλυμπί@@ 1
θρύ@@ 1
Δία 1
ύσατο 1
Περσεῖ 1
ζεύ@@ 1
ἦγεν 1
νημο@@ 1
Μάρκε@@ 1
ὑμετέρᾳ 1
νεῖ. 1
Ἀντώ@@ 1
πόλεμον, 1
ὁμιλεῖν 1
συνζητεῖν 1
ὀνομά@@ 1
φρενι@@ 1
σῷ 1
σταῖς 1
αἰχμαλώ@@ 1
ύρω@@ 1
θερμαι@@ 1
Ἀλεξά@@ 1
κώλυ@@ 1
πλέξαντες 1
ἀκανθ@@ 1
μαμων@@ 1
ρουν, 1
Ἀρχε@@ 1
πειρᾶσθαι 1
Ζε@@ 1
οὔ 1
χαίρων 1
ἐρεῖ@@ 1
διαπρα@@ 1
πραχθέ@@ 1
ἔμει@@ 1
ὀργυι@@ 1
ῥᾴδιον 1
νδον 1
ναῦς. 1
ήσαντας 1
χίλιοι 1
ὁπλῖται 1
βοηθη@@ 1
ΑΘ. 1
δαί@@ 1
λέγομεν 1
ὅτεῳ 1
ώτατα 1
Ὑπά@@ 1
ρεν, 1
γλώ@@ 1
πομπ@@ 1
κεφά@@ 1
ἔτυχε 1
ὁρμοῦ@@ 1
Λευκα@@ 1
ἐστρατήγει 1
Λακε@@ 1
Ῥωμαίους, 1
πάρα 1
ἀφῃ@@ 1
ἔκει@@ 1
βιβλί@@ 1
συνοικοῦ@@ 1
ἅπερ 1
ῆνος 1
Ζαχα@@ 1
ἐθί@@ 1
ῥέει 1
γραμ@@ 1
λύσθαι 1
Ἐλεισάβετ@@ 1
ἄλλῳ@@ 1
κατῴ@@ 1
Θήβ@@ 1
ἐνόμιζεν 1
ἱππέας 1
ἀπολέσῃ 1
κολούθει 1
προφήτου. 1
βασιλέα, 1
φαῦλον 1
πρᾶγμα. 1
Χαῖρε, 1
ἀπολιπεῖν 1
σίῳ, 1
ἐποίησας 1
μυστήρια 1
διαφθει@@ 1
στράτευμα· 1
γιγνο@@ 1
Φαρναβά@@ 1
παράδο@@ 1
ὑπολαμβάνε@@ 1
λόν. 1
στησαν. 1
νόμοις 1
διετέλε@@ 1
δοις 1
μένοισι, 1
οἷσι 1
πολλάκις, 1
γουσι 1
βίους 1
μεναι@@ 1
Ἀντιπά@@ 1
ἤκουσαν. 1
κόλα@@ 1
γειρεν 1
ὀλίγου 1
ἀπέδο@@ 1
ψέν 1
μαθητῶν@@ 1
ὑποχόνδ@@ 1
ἐφη@@ 1
ναὸς@@ 1
φιλῶ 1
καταλαβόντες 1
σέ; 1
ὑψηλό@@ 1
χόρτον 1
βαλλόμενον 1
ὀλιγόπιστο@@ 1
Ἰουδαί@@ 1
λοί, 1
μύριοι 1
χείρο@@ 1
πρώτων. 1
κυνηγε@@ 1
τηρ 1
διαμαρτυρόμενος 1
ὀφθαλμούς. 1
αὐλ@@ 1
ρισα@@ 1
καρδίαν, 1
διδάσκε@@ 1
σάμην@@ 1
μένω 1
περιτέ@@ 1
ἐπιού@@ 1
ῖσος 1
διαί@@ 1
πεζο@@ 1
Ἀντώνιος 1
ντον. 1
Ὗ@@ 1
ὀλίγοι· 1
θος. 1
συνηγ@@ 1
εὐη@@ 1
Ῥη@@ 1
Νη@@ 1
παθεῖν. 1
Ἀντιγό@@ 1
ὑπερα@@ 1
Ἃ@@ 1
Ἰεροσο@@ 1
οὕτω@@ 1
ὄφ@@ 1
ιε 1
ἀδικοῦ@@ 1
ἅπασι 1
φέρειν. 1
διαλεχθέ@@ 1
δέοντι 1
ὀλίγων 1
Κάλλι@@ 1
ἐλπίσαντες 1
σπόνδ@@ 1
ἀπεδεί@@ 1
στρατηγός, 1
ἀγνοοῦντες 1
Κλεό@@ 1
μόνος@@ 1
κεῖς 1
ἔγνως 1
37. 1
τάχʼ 1
Προσέχετε 1
ὀνομα@@ 1
φανί@@ 1
ὑπαρ@@ 1
ὀπίσω@@ 1
Δημο@@ 1
δουλεύ@@ 1
κἀγώ. 1
λαόν. 1
σομαί 1
δον, 1
αἴτιος 1
ἔγω@@ 1
ἀγαθῶν, 1
πὼν 1
λεω 1
ᾶσαι, 1
οἴει 1
κρίνων 1
ͅ@@ 1
ἐδω@@ 1
σύμμα@@ 1
Σόλων 1
Κάτω@@ 1
Σκηπίω@@ 1
Ἄλ@@ 1
αἱμα@@ 1
ἁγι@@ 1
Ἔλε@@ 1
ὀχυ@@ 1
συναγωγα@@ 1
πάντων. 1
ἐπιτηδεύ@@ 1
κατεσκεύα@@ 1
σινεἰς 1
ἐπέπεσε 1
ῥαββε@@ 1
ύσῃ 1
Ὄντως 1
ἀνεκτό@@ 1
μὲ@@ 1
ἐπεδείκνυ@@ 1
Οἶδά 1
ἔργα, 1
Ῥου@@ 1
Ἐρετρι@@ 1
ίας; 1
ὀδυνώμενοι 1
διαίτῃ 1
Ἐλεύθε@@ 1
ἦσθα 1
βαρβάρων 1
φόρ@@ 1
ρυσά@@ 1
Ῥώμην. 1
ἁμαρτίαι 1
Κρονί@@ 1
θανά@@ 1
πευ@@ 1
σθα 1
Δελ@@ 1
ἐγκλήματα 1
βούλοι@@ 1
ῖνον 1
ὑμᾶςεἰδέναι 1
ἐπιτίθε@@ 1
ῥῆμα. 1
ὁμί@@ 1
ὀργὴτοῦ 1
ἐκείνῃ, 1
συμμάχων 1
λειμ@@ 1
ἄγοντες 1
σων@@ 1
ἀρχαί@@ 1
ὑπηρε@@ 1
ῥά@@ 1
ἡσύ@@ 1
ὁκόσαι 1
ρῆς 1
τίκ@@ 1
κινδυνεύ@@ 1
Μαρι@@ 1
μβά@@ 1
Πέρσῃσι 1
ὑπολαβόντες 1
Κύρῳ 1
ῇς; 1
εὐλογημένος 1
πρεσβύτερος 1
ἔγημε 1
παιδείας 1
γεγόνασι 1
ἐβασίλευ@@ 1
Ἀντίοχος 1
κελεύων 1
πόλεσιν 1
ἀπεστάλη@@ 1
Θ. 1
Σώκρατε@@ 1
ὠφέλι@@ 1
ἠρί@@ 1
κως 1
ἐδικαιώθη 1
Ἄρατος 1
χωρέ@@ 1
ἐστρα@@ 1
δεικνύ@@ 1
φησὶν 1
Περδίκ@@ 1
ῆλθον· 1
φρέ@@ 1
2 1
πηδ@@ 1
προσπεσόντες 1
δεδακρυ@@ 1
Βό@@ 1
ἰχ@@ 1
εντα 1
κλέης 1
μνημόσυνον 1
ἔλεγον@@ 1
Ὤ 1
Ἀντι@@ 1
μηδισμὸν 1
ἴδωσιν 1
ἀπῄ@@ 1
Ἐπιδαυ@@ 1
ὡρα@@ 1
Πελοποννησίους 1
ἀλό@@ 1
ἑκατόν. 1
σκοπο@@ 1
μεθερμηνευό@@ 1
Κρα@@ 1
ἠδὲ 1
σφό@@ 1
ρμί@@ 1
ἐξαπα@@ 1
βρονταὶ 1
Ἀρτέ@@ 1
φορὰν 1
ρτί@@ 1
καθίσταται. 1
ητε, 1
Ἃ 1
λάμβα@@ 1
ἁλί@@ 1
Ἑλλάδος 1
ἐνεργο@@ 1
πολεμεῖ@@ 1
ὑστερεῖ@@ 1
χάρακ@@ 1
κυκλώ@@ 1
ἀποθή@@ 1
μείζονας 1
ἀλαλά@@ 1
χειν 1
γέρ@@ 1
κύριε@@ 1
ἐλθόντα 1
ἦλθε 1
οἰνο@@ 1
Βαβυλῶ@@ 1
εὐχαριστίαν 1
νοσή@@ 1
τά, 1
κυραν 1
ἀσφαλ@@ 1
χάριν, 1
τικοὶ 1
σπονδ@@ 1
αὖτις 1
ῥέ@@ 1
ὁκόσο@@ 1
σημαίνει 1
φυγῆς 1
ἴσ@@ 1
Ῥώ@@ 1
ποιμανεῖ 1
συντρί@@ 1
εὐλογίαν 1
ὅμοιο@@ 1
ἐγενήθησαν 1
ἀξίαν 1
Μέμφ@@ 1
πεισμαι 1
ἑορτ@@ 1
ὕδρωπα 1
ναῦ@@ 1
στατον 1
† 1
νεῖς@@ 1
διηγ@@ 1
πην 1
λθών 1
ἀποστή@@ 1
Ξενο@@ 1
πέμπτος 1
κρίσει 1
ὄμμα@@ 1
διατά@@ 1
Ἐλε@@ 1
μαθ@@ 1
νεγκα@@ 1
Μενέ@@ 1
ἐμοί 1
Λευκαδίων 1
τρέπο@@ 1
κἀκεῖνος 1
ζειν· 1
μένοι· 1
ποτη@@ 1
ναυμα@@ 1
ὑμέτερα 1
σύγκλητον 1
Παυ@@ 1
Δαρεῖ@@ 1
δέκατος 1
τοὺ@@ 1
λογη@@ 1
Ἀα@@ 1
γνυ@@ 1
ὑπέρογκα@@ 1
γόμενοι 1
Ἔφε@@ 1
διδόντος 1
διακονία 1
πρόσδεκ@@ 1
κλασ@@ 1
πολεμι@@ 1
βασιλεύο@@ 1
ρείου 1
δαιμο@@ 1
ποιοῦνται, 1
ἁπάντων 1
διοι 1
πτι@@ 1
ὑφ@@ 1
στρατηγι@@ 1
ἐξαπέστειλαν 1
Λάκω@@ 1
50. 1
σπόρον 1
γυναικό@@ 1
μηνῶν 1
εὐλαβ@@ 1
ὑφίστα@@ 1
θύουσι 1
Ἀκάνθ@@ 1
οὔνο@@ 1
ἐξέχε@@ 1
πλουσίως 1
πέμψαντες 1
τὶ 1
Αἴγιναν 1
ὺξ 1
ἀμφο@@ 1
ὅλη 1
ἐβοή@@ 1
ἑαλω@@ 1
τάς. 1
θεῖν 1
νπερ 1
διος 1
υσίας 1
οἴεσθαι 1
ἐδέχοντο 1
λέγοντο 1
δρᾶν 1
ηὑ@@ 1
̔@@ 1
γνώμη@@ 1
Ἀγη@@ 1
πεμψαν. 1
ταύτ@@ 1
ῥητόρων 1
ράν 1
ᾇ 1
πίπτει 1
σεις. 1
ἀπολογού@@ 1
μῆς, 1
στης 1
ὀφθαλμός 1
τινὸν 1
ἔσται· 1
πεπει@@ 1
λαῖς 1
φὰς 1
θύτων 1
Ποτει@@ 1
Ἵ@@ 1
τοῦτο. 1
Ἀντιγόνου 1
ἔτι, 1
ἁρπα@@ 1
σῃ; 1
δυνη@@ 1
πέραν. 1
μεσθα@@ 1
ἑά@@ 1
γογγυ@@ 1
οὔσῃ 1
Γάλ@@ 1
γίνο@@ 1
δασέ@@ 1
σωφρονοῦμεν, 1
ἀποθνήσκο@@ 1
Λακεδαιμον@@ 1
δύνω@@ 1
πόλεμον. 1
ὠνόμασεν, 1
ὒ@@ 1
λαβόντα 1
ἐκπλε@@ 1
κε, 1
μαχι@@ 1
μώτατον 1
ἐγρηγό@@ 1
Κιλικίας 1
σκάνδαλα 1
παρακαλεῖ@@ 1
1 1
στραφεὶς@@ 1
τοῦκυρίου. 1
γεγε@@ 1
νῆσθαι 1
ὤν. 1
μεῖς 1
ἀνατολῆς 1
νωμο@@ 1
νίκην 1
δαίμων 1
κεφαλὴ 1
εἴη@@ 1
ὑπερβά@@ 1
πρᾶγμα, 1
προῃ@@ 1
πρύμ@@ 1
ηθ@@ 1
εἰπώ@@ 1
προσέταξεν 1
ἐγνώσθη 1
Λί@@ 1
οἰκοδομοῦ@@ 1
πτος 1
ὀδύνη 1
καρδίᾳ@@ 1
δακρύων, 1
κάμη@@ 1
Προσέ@@ 1
ύσης 1
δεη@@ 1
γῆς; 1
τουτέ@@ 1
ξεται 1
πτετο 1
σσοντο 1
Πελοπόννησον. 1
τιμὰς 1
εἴη. 1
Λιβύης 1
ίοισι, 1
ἐπιγινο@@ 1
συκοφά@@ 1
μὰν 1
ἀνάγκῃ 1
σίον 1
δραμόντες 1
ὑπώ@@ 1
σινάπεως, 1
σπαρ@@ 1
συγγενεῖς 1
μῳ@@ 1
λια 1
ἀκανθῶν 1
ἁγιωσύ@@ 1
Ἀλέξανδ@@ 1
ρμῶν 1
τιμᾶν 1
ᾔδειν 1
ἀπέστειλας. 1
ἐστί@@ 1
Αἰγυπτίων 1
ἔλαβε 1
ῖτο 1
δοκή@@ 1
Κάρ@@ 1
ἁ 1
ἀποδεξάμενοι 1
ὑποστρέψα@@ 1
αὐτόνομοι 1
ἐγένο@@ 1
μάρτυρας 1
ἀπολέσαι, 1
χώρη 1
δραχμὰς 1
ὅρκ@@ 1
ματοῦ 1
ἐφοβήθησαν. 1
ἐπισκο@@ 1
Ἡρακ@@ 1
Κροί@@ 1
ἄρισ@@ 1
ὅτιἐὰν 1
ἑκατοντάρχῃ 1
ἰάθη 1
Ἑλληνί@@ 1
μεμ@@ 1
φορο@@ 1
ῤῬ@@ 1
̓@@ 1
ἀέλ@@ 1
ἀπώσατο 1
εἰπών@@ 1
ᾔσθο@@ 1
ἐκπεπλη@@ 1
λανθά@@ 1
ἀποθανό@@ 1
ᾶται, 1
πέλας 1
νέμο@@ 1
στρατό@@ 1
ῴ 1
αἰχμα@@ 1
μφ@@ 1
ῥίμφα 1
ἐλπίδας 1
ἡγεμον@@ 1
Ἀμφι@@ 1
λογή@@ 1
θάλατ@@ 1
βουλεύειν 1
κτει@@ 1
Σαῦλον 1
Πομπη@@ 1
ἀργυρίου 1
δύνανται 1
ωμαι 1
ἄκο@@ 1
τόλ@@ 1
παρανο@@ 1
τισαν 1
ἄρχεσθαι. 1
αἰῶνι 1
δεόμενος 1
πίω@@ 1
ἀμὴν@@ 1
παῖς, 1
σύγκρι@@ 1
λιον, 1
ποδα 1
ρχα@@ 1
πατήσα@@ 1
ἀνυ@@ 1
ἀλάβαστρον 1
μύρου 1
ἐποίουν 1
υἱὸςτοῦ 1
ἐφείσατο, 1
ταρτα@@ 1
ινέ@@ 1
ἔδοξαν 1
συλλαβὼν 1
θεράπο@@ 1
Κερκυραίων 1
ἔλεγεν, 1
ΗΣ@@ 1
σκληρύ@@ 1
νει, 1
μελα@@ 1
τετά@@ 1
αἰε@@ 1
φόμενοι 1
ἁπάντων. 1
ἀνδρα@@ 1
νιστα@@ 1
Σολο@@ 1
ἁμαρτωλός 1
Παφλαγόνων 1
βαρύ@@ 1
κατῴκησεν 1
ἀσθεν@@ 1
‘ἐπειδὴ 1
ἤλπι@@ 1
δεήσε@@ 1
εὐλογητὸς 1
ποιήσει, 1
γίγνονται 1
ρτα@@ 1
μένοισι 1
δειπ@@ 1
κόψονται 1
ἀναστα@@ 1
ἐλευθερίᾳ 1
ποταμοὶ 1
ἕκτος 1
πυρα@@ 1
ἰσο@@ 1
Ἔξε@@ 1
μέτο@@ 1
ὕδω@@ 1
ἰσχυρὸς 1
χῶμα 1
γοῦντες 1
ὕδατι, 1
χθό@@ 1
νιοι, 1
νέοις 1
ὑψώ@@ 1
χωρη@@ 1
ὧ@@ 1
φωτι@@ 1
μείνα@@ 1
ὑετὸν 1
τῆς· 1
ῖον, 1
γόν 1
ροῦντας. 1
Ἰοῦ@@ 1
χειμώ@@ 1
ὤφθησαν 1
Μεσσ@@ 1
ἔσπει@@ 1
γρη@@ 1
σφί@@ 1
ῥώμην 1
Ταύ@@ 1
Ἀνδροφά@@ 1
Μελα@@ 1
λωνῶν 1
ματέ@@ 1
ἀλεί@@ 1
ξό@@ 1
ρια, 1
ἀποθνήσκ@@ 1
ῖναι 1
Διός, 1
ἥμαρ@@ 1
Φοῖ@@ 1
ἔθε@@ 1
ὁπιστεύων 1
δωμάτων 1
θεοί· 1
σχίλιοι 1
Ἱπποκράτης 1
Πεισίστρα@@ 1
φιλα@@ 1
ἐντυχ@@ 1
νυμφ@@ 1
δυσφο@@ 1
δίδυ@@ 1
ρὶ 1
εἴτις 1
φθη 1
ψαντος 1
ὑψηλόν, 1
γᾷ 1
ὀλολύξατε 1
μολ@@ 1
βλασφημίας 1
ρηγ@@ 1
ᾷν, 1
ξυμμάχ@@ 1
ναις 1
ἀφεὶς 1
εἰδῆ@@ 1
τἀναντ@@ 1
τεθυ@@ 1
ψονται 1
ἀνη@@ 1
Συρίαν 1
πείθεσθαι 1
Πλαται@@ 1
ἀργύ@@ 1
Ἀντιοχε@@ 1
πεσόντες 1
σκόντων 1
Λο@@ 1
ὁλκάδων 1
ἐβουλεύοντο 1
κατακαύ@@ 1
κότας 1
προσέχο@@ 1
ᾶσιν 1
λαλεῖτε 1
αὐξα@@ 1
Διε@@ 1
